<unk>	0
<eos>	0
<pad>	0
<en>	0
<de>	0
<fr>	0
<cs>	0
<ru>	0
<ro>	0
en	-0
▁d	-1
▁a	-2
er	-3
▁s	-4
in	-5
▁t	-6
es	-7
▁p	-8
▁c	-9
re	-10
on	-11
▁m	-12
ch	-13
▁l	-14
ou	-15
te	-16
is	-17
an	-18
un	-19
▁n	-20
it	-21
▁v	-22
▁w	-23
at	-24
le	-25
▁th	-26
▁f	-27
ie	-28
or	-29
▁e	-30
▁de	-31
ar	-32
▁b	-33
as	-34
то	-35
ent	-36
▁o	-37
al	-38
▁п	-39
▁un	-40
▁в	-41
il	-42
ro	-43
qu	-44
▁с	-45
▁h	-46
▁н	-47
▁g	-48
▁j	-49
nd	-50
el	-51
ur	-52
▁in	-53
▁A	-54
st	-55
ic	-56
▁the	-57
om	-58
ich	-59
im	-60
ul	-61
us	-62
▁I	-63
▁и	-64
ra	-65
▁to	-66
ir	-67
▁S	-68
em	-69
ut	-70
но	-71
▁qu	-72
ст	-73
▁о	-74
▁z	-75
ен	-76
ion	-77
ра	-78
ing	-79
et	-80
▁î	-81
▁k	-82
ol	-83
▁м	-84
est	-85
ро	-86
▁к	-87
▁se	-88
ce	-89
▁la	-90
am	-91
▁în	-92
ли	-93
▁D	-94
de	-95
um	-96
▁E	-97
ve	-98
▁д	-99
▁по	-100
ig	-101
▁M	-102
ous	-103
▁T	-104
ot	-105
ет	-106
▁на	-107
▁is	-108
▁le	-109
ter	-110
au	-111
▁of	-112
го	-113
are	-114
▁re	-115
▁ne	-116
our	-117
▁ч	-118
▁r	-119
ть	-120
▁and	-121
ни	-122
ed	-123
▁ein	-124
ре	-125
ai	-126
▁al	-127
▁pro	-128
▁б	-129
▁C	-130
os	-131
▁W	-132
▁et	-133
ль	-134
ct	-135
▁y	-136
▁P	-137
те	-138
ва	-139
▁an	-140
▁des	-141
та	-142
▁(	-143
▁э	-144
ant	-145
▁ce	-146
ло	-147
ри	-148
▁be	-149
iv	-150
▁B	-151
me	-152
ко	-153
▁die	-154
ci	-155
▁en	-156
▁N	-157
ere	-158
ru	-159
ла	-160
ag	-161
▁au	-162
▁und	-163
ers	-164
ab	-165
ak	-166
ны	-167
▁să	-168
▁that	-169
▁st	-170
на	-171
▁не	-172
id	-173
▁-	-174
▁je	-175
▁L	-176
за	-177
ate	-178
ont	-179
во	-180
▁ch	-181
▁com	-182
▁das	-183
▁es	-184
ten	-185
▁pe	-186
▁que	-187
▁что	-188
▁do	-189
ем	-190
▁les	-191
▁di	-192
ine	-193
▁J	-194
od	-195
да	-196
▁à	-197
▁fa	-198
ad	-199
ov	-200
ii	-201
▁we	-202
pl	-203
ся	-204
▁ко	-205
ens	-206
▁G	-207
ans	-208
▁me	-209
ка	-210
and	-211
▁у	-212
ier	-213
▁pl	-214
▁wh	-215
ons	-216
▁par	-217
▁V	-218
▁pr	-219
out	-220
ly	-221
op	-222
▁der	-223
ти	-224
hr	-225
ер	-226
▁on	-227
▁это	-228
▁it	-229
▁U	-230
▁ex	-231
▁"	-232
ais	-233
ени	-234
ation	-235
ди	-236
▁--	-237
▁ist	-238
▁sp	-239
ach	-240
▁1	-241
ind	-242
▁you	-243
ле	-244
ac	-245
ow	-246
▁i	-247
ap	-248
▁F	-249
ri	-250
▁că	-251
ist	-252
▁wir	-253
де	-254
ung	-255
▁K	-256
ber	-257
▁so	-258
▁ac	-259
▁ș	-260
▁im	-261
ay	-262
ui	-263
ost	-264
▁pas	-265
▁про	-266
ge	-267
ne	-268
icht	-269
ки	-270
ét	-271
▁H	-272
▁ра	-273
▁care	-274
▁zu	-275
ní	-276
end	-277
▁une	-278
ми	-279
▁ş	-280
ру	-281
ik	-282
▁мо	-283
se	-284
he	-285
ви	-286
ment	-287
▁за	-288
ort	-289
lich	-290
ff	-291
▁ка	-292
ia	-293
up	-294
og	-295
▁tr	-296
▁și	-297
▁бы	-298
▁я	-299
▁po	-300
▁pour	-301
▁er	-302
▁am	-303
▁O	-304
tre	-305
ill	-306
oi	-307
▁е	-308
▁was	-309
мо	-310
▁con	-311
▁то	-312
že	-313
▁qui	-314
▁ab	-315
▁And	-316
▁nous	-317
ess	-318
▁for	-319
▁R	-320
ля	-321
▁ar	-322
ici	-323
▁na	-324
▁ich	-325
▁din	-326
▁şi	-327
▁cu	-328
ма	-329
▁vous	-330
▁nu	-331
ast	-332
ait	-333
ib	-334
▁as	-335
▁this	-336
ver	-337
хо	-338
бо	-339
ze	-340
▁со	-341
que	-342
ți	-343
▁dans	-344
ud	-345
av	-346
▁est	-347
▁js	-348
не	-349
▁вы	-350
▁ver	-351
▁во	-352
▁si	-353
▁av	-354
▁at	-355
▁mo	-356
▁2	-357
ese	-358
00	-359
ien	-360
aus	-361
pr	-362
entru	-363
ute	-364
▁den	-365
ain	-366
ры	-367
▁or	-368
ча	-369
oc	-370
▁И	-371
uc	-372
▁sie	-373
if	-374
▁by	-375
▁мы	-376
чи	-377
ite	-378
ld	-379
ell	-380
▁В	-381
▁Sie	-382
же	-383
▁Et	-384
▁до	-385
▁př	-386
▁mai	-387
сь	-388
ult	-389
pt	-390
ци	-391
▁pentru	-392
ür	-393
до	-394
ave	-395
der	-396
▁sch	-397
▁il	-398
ht	-399
▁при	-400
né	-401
▁du	-402
ме	-403
▁из	-404
ţi	-405
▁are	-406
▁all	-407
chen	-408
▁та	-409
▁об	-410
ure	-411
▁nicht	-412
ей	-413
nen	-414
ll	-415
▁te	-416
▁Н	-417
men	-418
▁от	-419
ând	-420
iz	-421
▁вс	-422
▁man	-423
▁ob	-424
▁л	-425
den	-426
сть	-427
ile	-428
az	-429
to	-430
▁sur	-431
ве	-432
iss	-433
be	-434
жи	-435
▁von	-436
ann	-437
сто	-438
по	-439
▁ap	-440
che	-441
és	-442
ti	-443
ho	-444
▁not	-445
ith	-446
ду	-447
▁а	-448
▁Z	-449
▁als	-450
▁eine	-451
▁з	-452
▁Und	-453
ale	-454
▁ro	-455
▁dass	-456
▁este	-457
gen	-458
ust	-459
kt	-460
че	-461
je	-462
сти	-463
▁Th	-464
va	-465
ux	-466
ally	-467
▁♫	-468
une	-469
ob	-470
▁plus	-471
pe	-472
."	-473
ют	-474
her	-475
▁кото	-476
▁ave	-477
▁го	-478
ши	-479
▁dé	-480
▁auf	-481
▁he	-482
ys	-483
▁su	-484
▁So	-485
▁hab	-486
ok	-487
▁ge	-488
li	-489
tr	-490
ement	-491
▁М	-492
▁как	-493
ně	-494
orm	-495
ive	-496
iel	-497
ста	-498
▁can	-499
ги	-500
▁with	-501
hen	-502
▁ét	-503
ice	-504
sta	-505
▁že	-506
▁have	-507
ты	-508
▁mit	-509
▁é	-510
enn	-511
▁war	-512
▁they	-513
▁uns	-514
▁О	-515
este	-516
ér	-517
ăr	-518
ions	-519
jí	-520
▁те	-521
▁«	-522
▁Э	-523
▁ve	-524
▁sun	-525
▁aus	-526
▁go	-527
▁Le	-528
му	-529
mi	-530
▁pre	-531
olog	-532
▁г	-533
▁П	-534
▁wie	-535
ată	-536
bl	-537
du	-538
▁don	-539
▁—	-540
ang	-541
▁In	-542
▁comp	-543
со	-544
ies	-545
▁no	-546
▁tra	-547
▁ca	-548
мен	-549
all	-550
▁tak	-551
▁dies	-552
ern	-553
▁cre	-554
▁co	-555
▁Je	-556
▁um	-557
ну	-558
си	-559
▁ré	-560
oll	-561
ose	-562
▁mon	-563
льно	-564
▁бо	-565
ben	-566
▁som	-567
жно	-568
▁С	-569
▁tre	-570
ick	-571
▁но	-572
art	-573
щи	-574
ше	-575
▁ra	-576
age	-577
▁vo	-578
▁Ich	-579
ors	-580
▁cel	-581
aire	-582
▁u	-583
▁Я	-584
▁sich	-585
▁dem	-586
▁ent	-587
ft	-588
гда	-589
ăm	-590
▁wor	-591
arte	-592
▁St	-593
▁ва	-594
▁К	-595
ea	-596
we	-597
▁what	-598
gh	-599
hl	-600
па	-601
▁gr	-602
ard	-603
ble	-604
▁раз	-605
ту	-606
ения	-607
лу	-608
▁fo	-609
▁per	-610
▁dar	-611
res	-612
ck	-613
▁Il	-614
rom	-615
ause	-616
uri	-617
ouv	-618
ку	-619
▁my	-620
ould	-621
▁ре	-622
per	-623
▁fi	-624
▁sind	-625
urs	-626
га	-627
elle	-628
▁inter	-629
▁vor	-630
▁The	-631
▁about	-632
ные	-633
▁Es	-634
ès	-635
▁kter	-636
la	-637
ass	-638
▁jak	-639
ím	-640
ée	-641
ень	-642
ère	-643
ân	-644
ven	-645
▁де	-646
▁us	-647
▁sunt	-648
▁Это	-649
ité	-650
port	-651
ins	-652
pre	-653
▁cont	-654
▁sont	-655
▁We	-656
ace	-657
▁Al	-658
dy	-659
amen	-660
вы	-661
chn	-662
▁ace	-663
ön	-664
▁dis	-665
▁pu	-666
ique	-667
ette	-668
▁пре	-669
▁für	-670
über	-671
▁part	-672
▁лю	-673
▁jsem	-674
ение	-675
ных	-676
tem	-677
ity	-678
ня	-679
▁fait	-680
▁haben	-681
▁gen	-682
ско	-683
ight	-684
▁все	-685
▁hat	-686
mer	-687
ăt	-688
▁tim	-689
бы	-690
ke	-691
▁ma	-692
ере	-693
ue	-694
▁pers	-695
ip	-696
▁3	-697
ului	-698
▁Т	-699
▁vy	-700
▁It	-701
▁avec	-702
esc	-703
ign	-704
ще	-705
▁Pro	-706
▁sc	-707
▁De	-708
▁asta	-709
ется	-710
vě	-711
ert	-712
uch	-713
▁т	-714
▁Un	-715
▁ми	-716
form	-717
hn	-718
▁которы	-719
ple	-720
ike	-721
ře	-722
ří	-723
ink	-724
ной	-725
ahr	-726
▁Das	-727
▁ф	-728
▁?	-729
зо	-730
▁хо	-731
▁ни	-732
▁tout	-733
вать	-734
▁there	-735
con	-736
lo	-737
▁да	-738
▁Y	-739
▁так	-740
int	-741
▁sim	-742
ez	-743
ного	-744
ires	-745
▁sa	-746
ppl	-747
acă	-748
ars	-749
▁Д	-750
▁aut	-751
eme	-752
ord	-753
mes	-754
ople	-755
ore	-756
▁one	-757
▁ces	-758
▁для	-759
bu	-760
Appl	-761
▁са	-762
ств	-763
▁but	-764
сли	-765
▁act	-766
ence	-767
ça	-768
sch	-769
▁luc	-770
▁jed	-771
▁:	-772
ise	-773
▁kön	-774
ски	-775
ší	-776
ât	-777
▁ça	-778
ces	-779
▁sh	-780
▁like	-781
ám	-782
▁Wir	-783
▁mais	-784
iment	-785
ire	-786
▁über	-787
able	-788
aut	-789
▁ou	-790
ky	-791
▁А	-792
▁fost	-793
▁ad	-794
zi	-795
▁from	-796
ный	-797
că	-798
ém	-799
▁они	-800
▁comme	-801
▁–	-802
▁lo	-803
▁people	-804
▁ме	-805
ство	-806
▁Sch	-807
▁cette	-808
lu	-809
▁ма	-810
▁ве	-811
▁ис	-812
▁Ne	-813
ran	-814
ря	-815
être	-816
ili	-817
000	-818
▁Er	-819
▁wer	-820
▁vie	-821
▁Be	-822
▁č	-823
▁En	-824
▁жи	-825
▁out	-826
▁An	-827
itate	-828
каза	-829
ете	-830
ilor	-831
▁dev	-832
▁mod	-833
са	-834
▁our	-835
▁acest	-836
zen	-837
▁diese	-838
th	-839
▁pos	-840
ide	-841
▁kn	-842
▁Ar	-843
▁just	-844
▁diff	-845
▁also	-846
▁pot	-847
▁Ş	-848
ică	-849
▁ви	-850
les	-851
onn	-852
ille	-853
iqu	-854
▁cl	-855
one	-856
▁Î	-857
ong	-858
лько	-859
жа	-860
ku	-861
elt	-862
ěl	-863
▁ale	-864
igen	-865
▁bec	-866
und	-867
ак	-868
▁vers	-869
▁pute	-870
▁сво	-871
▁бу	-872
▁faire	-873
ých	-874
vo	-875
lle	-876
▁Но	-877
ase	-878
▁ont	-879
▁се	-880
▁19	-881
ды	-882
▁ин	-883
ance	-884
▁Dar	-885
▁По	-886
▁sau	-887
▁Ch	-888
▁зна	-889
fer	-890
ali	-891
▁ста	-892
▁си	-893
area	-894
▁Şi	-895
erg	-896
зы	-897
▁up	-898
▁5	-899
▁mult	-900
▁Mais	-901
▁Ce	-902
▁But	-903
би	-904
ah	-905
oup	-906
▁Ge	-907
▁very	-908
▁get	-909
▁cum	-910
cut	-911
aient	-912
▁дру	-913
ole	-914
vol	-915
▁20	-916
▁Ș	-917
ază	-918
▁mus	-919
▁know	-920
▁ли	-921
▁ně	-922
вер	-923
ться	-924
мы	-925
ule	-926
▁mar	-927
▁vě	-928
▁mi	-929
▁va	-930
ша	-931
▁quel	-932
▁thing	-933
▁эти	-934
це	-935
▁же	-936
пи	-937
etz	-938
▁za	-939
▁ke	-940
▁боль	-941
esch	-942
ack	-943
▁cr	-944
▁them	-945
▁Мы	-946
ste	-947
▁мож	-948
▁Re	-949
▁Nous	-950
▁einen	-951
rá	-952
сле	-953
ild	-954
ită	-955
▁oamen	-956
▁ст	-957
ení	-958
ame	-959
act	-960
▁wenn	-961
▁these	-962
лю	-963
ient	-964
▁af	-965
▁avons	-966
▁num	-967
bo	-968
äch	-969
ond	-970
▁ye	-971
▁if	-972
▁foarte	-973
ound	-974
▁think	-975
про	-976
ations	-977
▁Am	-978
▁În	-979
▁cons	-980
ния	-981
▁4	-982
▁под	-983
gan	-984
▁ur	-985
achen	-986
led	-987
▁чтобы	-988
ater	-989
ica	-990
ăs	-991
nost	-992
▁Și	-993
▁gro	-994
▁très	-995
ina	-996
iert	-997
ige	-998
▁lum	-999
▁können	-1000
ps	-1001
▁vă	-1002
▁ter	-1003
▁gl	-1004
▁ser	-1005
ieren	-1006
še	-1007
▁pol	-1008
▁her	-1009
▁op	-1010
ph	-1011
cer	-1012
kl	-1013
ală	-1014
▁sein	-1015
rav	-1016
ele	-1017
▁ž	-1018
▁10	-1019
ние	-1020
▁oder	-1021
зи	-1022
▁их	-1023
▁fe	-1024
▁going	-1025
app	-1026
fe	-1027
ungen	-1028
тому	-1029
▁ani	-1030
▁see	-1031
▁werden	-1032
▁он	-1033
▁нас	-1034
▁мен	-1035
ante	-1036
▁sag	-1037
▁dur	-1038
▁ste	-1039
▁ná	-1040
▁рабо	-1041
чно	-1042
▁dire	-1043
itt	-1044
▁tot	-1045
oir	-1046
sen	-1047
▁mul	-1048
ême	-1049
мер	-1050
ays	-1051
об	-1052
тся	-1053
ему	-1054
▁had	-1055
▁Se	-1056
▁Die	-1057
▁ag	-1058
▁trans	-1059
▁peut	-1060
▁min	-1061
▁od	-1062
▁prin	-1063
▁„	-1064
чень	-1065
..	-1066
ná	-1067
its	-1068
▁fin	-1069
augh	-1070
ils	-1071
ке	-1072
▁ils	-1073
▁bien	-1074
▁despre	-1075
ходи	-1076
▁dacă	-1077
▁или	-1078
▁pens	-1079
ров	-1080
▁face	-1081
ная	-1082
▁import	-1083
▁когда	-1084
▁aber	-1085
▁воз	-1086
▁br	-1087
вля	-1088
aughter	-1089
▁when	-1090
▁când	-1091
мех	-1092
▁lid	-1093
▁some	-1094
▁Aber	-1095
▁пере	-1096
si	-1097
▁your	-1098
▁Б	-1099
▁auch	-1100
ants	-1101
▁рас	-1102
vá	-1103
▁pass	-1104
ții	-1105
ivers	-1106
ala	-1107
пе	-1108
▁ind	-1109
▁more	-1110
rie	-1111
ank	-1112
▁ph	-1113
▁reg	-1114
ction	-1115
ram	-1116
cent	-1117
ug	-1118
▁jsme	-1119
▁kann	-1120
▁fie	-1121
▁было	-1122
▁because	-1123
ane	-1124
ным	-1125
▁aceste	-1126
▁бе	-1127
▁Te	-1128
ka	-1129
chnolog	-1130
ít	-1131
▁La	-1132
▁son	-1133
Laughter	-1134
▁vra	-1135
▁па	-1136
▁есть	-1137
▁loc	-1138
▁would	-1139
▁sol	-1140
▁очень	-1141
▁ever	-1142
▁од	-1143
▁Nu	-1144
na	-1145
▁aceast	-1146
blem	-1147
▁will	-1148
ner	-1149
aux	-1150
▁Ac	-1151
ät	-1152
▁were	-1153
▁меня	-1154
▁einer	-1155
гу	-1156
▁mě	-1157
▁inc	-1158
▁fac	-1159
▁res	-1160
▁sehr	-1161
▁kdy	-1162
▁Mens	-1163
▁look	-1164
▁their	-1165
▁da	-1166
▁car	-1167
дела	-1168
▁spe	-1169
Смех	-1170
▁actu	-1171
▁nur	-1172
...	-1173
тельно	-1174
▁em	-1175
▁which	-1176
▁mak	-1177
▁nach	-1178
ents	-1179
▁bu	-1180
tern	-1181
тель	-1182
▁really	-1183
▁mein	-1184
ál	-1185
▁sy	-1186
▁cap	-1187
ád	-1188
ba	-1189
abil	-1190
▁ot	-1191
ibt	-1192
».	-1193
ni	-1194
ouve	-1195
▁ih	-1196
▁ide	-1197
▁între	-1198
нима	-1199
▁einem	-1200
ren	-1201
▁hier	-1202
▁who	-1203
лы	-1204
hing	-1205
▁Au	-1206
зу	-1207
гра	-1208
itu	-1209
ká	-1210
▁viel	-1211
▁wird	-1212
▁ele	-1213
▁если	-1214
?"	-1215
▁sup	-1216
cte	-1217
▁monde	-1218
▁how	-1219
▁Q	-1220
änd	-1221
ор	-1222
▁jako	-1223
▁ans	-1224
ori	-1225
▁gens	-1226
▁его	-1227
▁work	-1228
▁înt	-1229
▁На	-1230
▁Е	-1231
isch	-1232
no	-1233
▁mal	-1234
▁etw	-1235
rop	-1236
Rires	-1237
▁че	-1238
ger	-1239
▁pod	-1240
▁bl	-1241
ème	-1242
▁дол	-1243
ats	-1244
▁dec	-1245
▁has	-1246
ích	-1247
ră	-1248
▁kom	-1249
wo	-1250
stru	-1251
▁într	-1252
wn	-1253
енно	-1254
ück	-1255
▁Ver	-1256
▁here	-1257
▁ty	-1258
▁mich	-1259
бе	-1260
cep	-1261
▁пред	-1262
▁This	-1263
ente	-1264
▁gre	-1265
hal	-1266
▁put	-1267
fl	-1268
iar	-1269
чески	-1270
ours	-1271
▁вре	-1272
iter	-1273
éc	-1274
ства	-1275
ющи	-1276
▁stud	-1277
util	-1278
▁dit	-1279
ken	-1280
ţii	-1281
▁nat	-1282
ции	-1283
ts	-1284
▁You	-1285
▁Menschen	-1286
ву	-1287
▁alle	-1288
vent	-1289
▁imag	-1290
▁ze	-1291
rat	-1292
▁lui	-1293
▁let	-1294
▁tom	-1295
▁int	-1296
дет	-1297
▁которые	-1298
▁chose	-1299
oment	-1300
▁ча	-1301
▁prim	-1302
ata	-1303
▁exist	-1304
buie	-1305
ischen	-1306
ят	-1307
▁peu	-1308
orte	-1309
се	-1310
▁then	-1311
▁même	-1312
▁être	-1313
ță	-1314
par	-1315
▁sk	-1316
▁Во	-1317
▁time	-1318
▁vre	-1319
▁cal	-1320
ements	-1321
▁fol	-1322
sete	-1323
▁mot	-1324
▁Jahr	-1325
▁hum	-1326
▁pet	-1327
ition	-1328
▁cou	-1329
ща	-1330
▁To	-1331
keit	-1332
▁gibt	-1333
нов	-1334
дей	-1335
▁real	-1336
aft	-1337
ées	-1338
▁pří	-1339
▁tem	-1340
ical	-1341
fen	-1342
▁jsou	-1343
▁world	-1344
pro	-1345
ети	-1346
▁leur	-1347
▁notre	-1348
âsete	-1349
io	-1350
▁suis	-1351
ict	-1352
▁wur	-1353
▁cela	-1354
▁pouv	-1355
ým	-1356
▁ins	-1357
жен	-1358
▁сдела	-1359
▁met	-1360
alk	-1361
▁кон	-1362
ough	-1363
зна	-1364
▁every	-1365
▁vel	-1366
▁лет	-1367
▁200	-1368
uje	-1369
▁které	-1370
су	-1371
hle	-1372
ome	-1373
▁дела	-1374
▁important	-1375
▁всё	-1376
▁су	-1377
▁actually	-1378
▁eu	-1379
▁dann	-1380
red	-1381
ба	-1382
▁doar	-1383
▁med	-1384
▁into	-1385
rit	-1386
▁cor	-1387
▁ду	-1388
▁timp	-1389
Râsete	-1390
▁soci	-1391
▁était	-1392
auc	-1393
▁aj	-1394
ție	-1395
▁мне	-1396
ovat	-1397
tě	-1398
▁гово	-1399
ela	-1400
▁mill	-1401
onc	-1402
sk	-1403
▁tou	-1404
▁Tak	-1405
iques	-1406
urile	-1407
▁tu	-1408
▁6	-1409
▁produ	-1410
▁sv	-1411
▁years	-1412
лове	-1413
ry	-1414
▁Now	-1415
▁пра	-1416
▁pat	-1417
кой	-1418
стви	-1419
пра	-1420
▁само	-1421
fr	-1422
▁Ih	-1423
ler	-1424
oare	-1425
▁жиз	-1426
tă	-1427
duc	-1428
▁era	-1429
ory	-1430
▁été	-1431
▁mă	-1432
▁прои	-1433
ová	-1434
▁aux	-1435
▁mů	-1436
ého	-1437
пло	-1438
co	-1439
▁Als	-1440
po	-1441
▁Ze	-1442
▁noi	-1443
▁ро	-1444
ari	-1445
▁ú	-1446
ví	-1447
și	-1448
▁quest	-1449
▁bet	-1450
▁ihr	-1451
▁way	-1452
▁roz	-1453
▁dou	-1454
tes	-1455
aucoup	-1456
▁lucr	-1457
tel	-1458
▁tous	-1459
▁стра	-1460
▁exper	-1461
▁On	-1462
▁fă	-1463
ible	-1464
▁noch	-1465
▁did	-1466
▁deux	-1467
▁où	-1468
▁врем	-1469
▁where	-1470
▁could	-1471
▁now	-1472
▁etwas	-1473
▁probl	-1474
▁quand	-1475
▁technolog	-1476
ution	-1477
▁They	-1478
cí	-1479
▁fapt	-1480
зда	-1481
▁aussi	-1482
riv	-1483
ativ	-1484
пу	-1485
▁mir	-1486
▁mat	-1487
ibil	-1488
▁нам	-1489
itatea	-1490
ta	-1491
▁Wh	-1492
tell	-1493
▁был	-1494
▁bo	-1495
ţă	-1496
sten	-1497
▁comm	-1498
endre	-1499
▁»	-1500
лось	-1501
ism	-1502
▁He	-1503
▁col	-1504
▁сто	-1505
".	-1506
▁plan	-1507
▁vraiment	-1508
▁poate	-1509
▁inform	-1510
▁moment	-1511
▁š	-1512
rau	-1513
vers	-1514
▁Vous	-1515
▁только	-1516
pos	-1517
▁sehen	-1518
ară	-1519
▁Les	-1520
лись	-1521
än	-1522
aud	-1523
by	-1524
зыва	-1525
тов	-1526
▁unser	-1527
ex	-1528
▁обра	-1529
én	-1530
ör	-1531
▁donc	-1532
▁rec	-1533
▁zá	-1534
▁З	-1535
▁această	-1536
était	-1537
▁cop	-1538
als	-1539
acht	-1540
▁other	-1541
▁fr	-1542
▁nej	-1543
iste	-1544
▁sm	-1545
▁things	-1546
ura	-1547
▁id	-1548
▁beaucoup	-1549
▁сказа	-1550
▁před	-1551
ются	-1552
▁person	-1553
менты	-1554
▁acum	-1555
ска	-1556
▁dieser	-1557
▁Donc	-1558
▁Qu	-1559
▁cent	-1560
▁prof	-1561
▁Si	-1562
▁když	-1563
▁ceva	-1564
ное	-1565
heit	-1566
▁main	-1567
▁want	-1568
tra	-1569
ji	-1570
▁sub	-1571
▁Welt	-1572
▁dre	-1573
▁habe	-1574
br	-1575
▁bine	-1576
пер	-1577
▁Sp	-1578
▁problem	-1579
aid	-1580
▁zur	-1581
мот	-1582
▁rem	-1583
▁челове	-1584
éd	-1585
▁fel	-1586
▁câ	-1587
▁fun	-1588
▁сло	-1589
▁sel	-1590
ures	-1591
ţie	-1592
▁ну	-1593
nées	-1594
▁fir	-1595
▁У	-1596
lé	-1597
шо	-1598
▁mehr	-1599
ator	-1600
ром	-1601
ură	-1602
лем	-1603
рова	-1604
bre	-1605
лся	-1606
▁созда	-1607
ma	-1608
▁util	-1609
▁el	-1610
cher	-1611
▁been	-1612
▁somet	-1613
▁sou	-1614
▁rel	-1615
▁exem	-1616
ime	-1617
ную	-1618
логи	-1619
ём	-1620
▁8	-1621
▁happ	-1622
вет	-1623
▁vi	-1624
ange	-1625
▁parce	-1626
▁îm	-1627
șa	-1628
ogra	-1629
▁any	-1630
oses	-1631
ische	-1632
▁mont	-1633
era	-1634
▁том	-1635
▁prog	-1636
etzt	-1637
▁bes	-1638
▁right	-1639
▁voi	-1640
лее	-1641
▁organ	-1642
▁7	-1643
▁expl	-1644
▁trebuie	-1645
▁gu	-1646
▁просто	-1647
conom	-1648
▁Ale	-1649
▁Ко	-1650
сту	-1651
▁дума	-1652
▁durch	-1653
cht	-1654
ife	-1655
inge	-1656
▁aby	-1657
▁trava	-1658
▁9	-1659
▁ei	-1660
дин	-1661
▁make	-1662
ystem	-1663
şi	-1664
▁fam	-1665
▁întâ	-1666
▁fil	-1667
ек	-1668
ière	-1669
care	-1670
▁испо	-1671
▁Ч	-1672
▁say	-1673
▁каж	-1674
ью	-1675
ět	-1676
cul	-1677
▁sens	-1678
▁jus	-1679
▁bun	-1680
▁чем	-1681
şa	-1682
▁grand	-1683
ný	-1684
▁она	-1685
▁cer	-1686
inu	-1687
ady	-1688
anz	-1689
▁constru	-1690
дис	-1691
lichen	-1692
▁полу	-1693
ște	-1694
▁nos	-1695
▁chang	-1696
▁работа	-1697
cept	-1698
isten	-1699
▁oameni	-1700
можно	-1701
▁má	-1702
ody	-1703
▁вам	-1704
▁elle	-1705
▁tro	-1706
ty	-1707
éri	-1708
▁ven	-1709
imb	-1710
▁inst	-1711
▁over	-1712
▁choses	-1713
▁said	-1714
▁bi	-1715
▁Wenn	-1716
плодис	-1717
▁litt	-1718
otre	-1719
▁Они	-1720
▁aici	-1721
▁быть	-1722
плодисменты	-1723
сно	-1724
ial	-1725
▁ком	-1726
фи	-1727
liche	-1728
▁15	-1729
▁polit	-1730
icul	-1731
щё	-1732
уч	-1733
▁commen	-1734
▁людей	-1735
▁Ind	-1736
ству	-1737
▁pop	-1738
▁lie	-1739
▁Ils	-1740
▁mes	-1741
▁dep	-1742
chte	-1743
▁publ	-1744
▁vý	-1745
▁încep	-1746
▁cam	-1747
ța	-1748
ком	-1749
ран	-1750
tenant	-1751
▁30	-1752
▁là	-1753
▁того	-1754
ují	-1755
▁Com	-1756
▁vis	-1757
ffe	-1758
wer	-1759
▁much	-1760
gl	-1761
▁find	-1762
▁потому	-1763
ouver	-1764
sel	-1765
▁mare	-1766
issements	-1767
▁этого	-1768
▁inv	-1769
íte	-1770
üs	-1771
▁chiar	-1772
▁back	-1773
ied	-1774
mě	-1775
▁long	-1776
▁gând	-1777
дь	-1778
ха	-1779
▁tě	-1780
▁cro	-1781
▁comple	-1782
▁Deci	-1783
▁Or	-1784
elles	-1785
▁Ein	-1786
▁vz	-1787
▁после	-1788
▁zum	-1789
▁ai	-1790
Applause	-1791
▁point	-1792
▁got	-1793
том	-1794
íme	-1795
▁déc	-1796
▁Zeit	-1797
ques	-1798
klich	-1799
▁исполь	-1800
▁two	-1801
▁этом	-1802
ated	-1803
ца	-1804
▁voir	-1805
▁Par	-1806
▁50	-1807
▁sl	-1808
▁bei	-1809
▁those	-1810
▁enc	-1811
audissements	-1812
▁wurde	-1813
ină	-1814
▁svě	-1815
za	-1816
▁нача	-1817
▁вот	-1818
rag	-1819
▁than	-1820
cess	-1821
▁может	-1822
kol	-1823
ree	-1824
▁ле	-1825
erv	-1826
▁mö	-1827
▁need	-1828
▁vou	-1829
inn	-1830
▁больше	-1831
şte	-1832
▁Р	-1833
▁einf	-1834
urn	-1835
▁ш	-1836
▁ho	-1837
▁first	-1838
▁something	-1839
▁dintre	-1840
▁vid	-1841
▁differ	-1842
auze	-1843
▁pa	-1844
▁iar	-1845
тив	-1846
▁слу	-1847
▁sem	-1848
jet	-1849
▁Г	-1850
nou	-1851
fin	-1852
▁bra	-1853
ați	-1854
▁putea	-1855
Аплодисменты	-1856
use	-1857
шь	-1858
mă	-1859
zent	-1860
iger	-1861
лен	-1862
стро	-1863
ков	-1864
▁personn	-1865
он	-1866
▁That	-1867
▁sci	-1868
zu	-1869
vă	-1870
▁ceea	-1871
▁tun	-1872
Applaudissements	-1873
aj	-1874
▁folos	-1875
▁Was	-1876
▁Ihnen	-1877
xt	-1878
ёт	-1879
▁făcut	-1880
▁fl	-1881
ED	-1882
▁toate	-1883
ähr	-1884
чу	-1885
▁наш	-1886
ament	-1887
mt	-1888
▁new	-1889
▁Он	-1890
▁multe	-1891
▁mil	-1892
▁тех	-1893
▁kind	-1894
▁little	-1895
▁even	-1896
пы	-1897
▁100	-1898
ствен	-1899
▁quelque	-1900
ertain	-1901
ßen	-1902
▁cré	-1903
▁помо	-1904
vel	-1905
issen	-1906
fel	-1907
▁lot	-1908
▁были	-1909
цен	-1910
▁vše	-1911
ными	-1912
▁[	-1913
▁bas	-1914
▁nebo	-1915
▁wo	-1916
▁♪	-1917
▁votre	-1918
▁dist	-1919
bst	-1920
oire	-1921
▁rap	-1922
ном	-1923
erst	-1924
plauze	-1925
стоя	-1926
▁Vo	-1927
upă	-1928
▁dom	-1929
▁sav	-1930
▁sec	-1931
▁app	-1932
▁simple	-1933
▁му	-1934
▁zwe	-1935
▁nem	-1936
get	-1937
iner	-1938
▁question	-1939
át	-1940
lles	-1941
fü	-1942
при	-1943
▁wür	-1944
ande	-1945
▁unter	-1946
▁speci	-1947
▁Also	-1948
▁ihre	-1949
▁Gr	-1950
▁nici	-1951
▁moi	-1952
▁parte	-1953
▁wirklich	-1954
ním	-1955
▁prob	-1956
▁спо	-1957
сте	-1958
▁pra	-1959
▁she	-1960
ensch	-1961
ové	-1962
соб	-1963
▁была	-1964
▁meine	-1965
▁temps	-1966
vir	-1967
▁proto	-1968
▁ander	-1969
▁place	-1970
▁vede	-1971
▁syst	-1972
▁end	-1973
▁cred	-1974
▁пер	-1975
▁beg	-1976
▁immer	-1977
нии	-1978
▁hist	-1979
nu	-1980
mích	-1981
Aplauze	-1982
вя	-1983
зво	-1984
ан	-1985
▁Так	-1986
▁проб	-1987
▁им	-1988
att	-1989
pect	-1990
▁Man	-1991
ergie	-1992
▁ку	-1993
▁где	-1994
▁einfach	-1995
▁ici	-1996
▁life	-1997
▁ди	-1998
ţa	-1999
ția	-2000
ork	-2001
бя	-2002
ful	-2003
▁design	-2004
▁entre	-2005
▁говори	-2006
ron	-2007
▁alt	-2008
▁Me	-2009
âr	-2010
ător	-2011
жу	-2012
▁anim	-2013
▁Takže	-2014
▁fois	-2015
▁most	-2016
▁commun	-2017
▁Л	-2018
▁his	-2019
▁který	-2020
▁deven	-2021
▁который	-2022
ted	-2023
▁talk	-2024
▁время	-2025
десь	-2026
uss	-2027
▁пла	-2028
▁ещё	-2029
enden	-2030
ene	-2031
ommen	-2032
▁исто	-2033
▁neu	-2034
▁sing	-2035
▁Kind	-2036
ish	-2037
▁sort	-2038
бу	-2039
▁voy	-2040
▁avait	-2041
▁TED	-2042
▁ta	-2043
▁spus	-2044
oto	-2045
ines	-2046
itor	-2047
▁пу	-2048
▁jour	-2049
ouvez	-2050
aten	-2051
ungs	-2052
▁machen	-2053
▁ast	-2054
▁liv	-2055
olo	-2056
час	-2057
▁putem	-2058
nosti	-2059
▁perm	-2060
▁могу	-2061
▁cour	-2062
cé	-2063
▁таки	-2064
▁différ	-2065
▁spun	-2066
oz	-2067
▁ře	-2068
ject	-2069
▁gra	-2070
▁вас	-2071
ape	-2072
ейчас	-2073
▁poss	-2074
▁lucru	-2075
▁pov	-2076
▁можно	-2077
▁mag	-2078
еть	-2079
ros	-2080
▁Вот	-2081
gr	-2082
ция	-2083
▁люди	-2084
▁lor	-2085
▁Вы	-2086
nis	-2087
ysl	-2088
▁cele	-2089
сы	-2090
▁unde	-2091
▁Gesch	-2092
▁only	-2093
ital	-2094
▁fü	-2095
▁weil	-2096
▁avem	-2097
▁leg	-2098
ffen	-2099
ric	-2100
ар	-2101
▁bon	-2102
erci	-2103
▁них	-2104
▁ří	-2105
ști	-2106
assen	-2107
asă	-2108
▁более	-2109
▁art	-2110
▁Ex	-2111
▁desc	-2112
els	-2113
дя	-2114
▁vl	-2115
▁éc	-2116
ila	-2117
ână	-2118
unt	-2119
nit	-2120
až	-2121
▁х	-2122
▁инте	-2123
▁comment	-2124
▁înc	-2125
▁которо	-2126
нь	-2127
bar	-2128
ён	-2129
▁возможно	-2130
bor	-2131
▁ess	-2132
▁New	-2133
лась	-2134
erea	-2135
ческо	-2136
▁много	-2137
▁этот	-2138
▁priv	-2139
ded	-2140
ží	-2141
ved	-2142
▁non	-2143
▁jen	-2144
▁spune	-2145
▁fem	-2146
té	-2147
iser	-2148
▁hatte	-2149
▁form	-2150
▁dieses	-2151
ini	-2152
ность	-2153
дите	-2154
▁Pr	-2155
лли	-2156
▁pou	-2157
lect	-2158
пре	-2159
▁Alors	-2160
кры	-2161
ek	-2162
plu	-2163
rait	-2164
▁woll	-2165
▁её	-2166
▁živ	-2167
dev	-2168
ary	-2169
▁difer	-2170
ght	-2171
mpl	-2172
pad	-2173
ении	-2174
▁nou	-2175
▁оста	-2176
▁kle	-2177
inen	-2178
▁pok	-2179
▁via	-2180
hod	-2181
▁Amer	-2182
▁dam	-2183
▁müs	-2184
ific	-2185
▁ты	-2186
çon	-2187
ingen	-2188
▁take	-2189
▁off	-2190
sob	-2191
▁lang	-2192
nt	-2193
▁glob	-2194
▁enf	-2195
hmen	-2196
вой	-2197
gt	-2198
▁unsere	-2199
beit	-2200
▁буду	-2201
ления	-2202
▁други	-2203
▁mea	-2204
şti	-2205
▁different	-2206
йте	-2207
▁vom	-2208
▁000	-2209
▁pouvez	-2210
▁soll	-2211
▁oamenii	-2212
bě	-2213
eln	-2214
▁вер	-2215
áz	-2216
ual	-2217
год	-2218
▁show	-2219
arg	-2220
▁zp	-2221
▁Pl	-2222
▁good	-2223
▁Если	-2224
ama	-2225
▁rez	-2226
▁does	-2227
alo	-2228
▁hel	-2229
ächter	-2230
▁будет	-2231
ath	-2232
▁compr	-2233
▁mic	-2234
▁many	-2235
▁mor	-2236
▁fact	-2237
leich	-2238
aţi	-2239
▁What	-2240
▁пи	-2241
▁mach	-2242
▁schimb	-2243
elächter	-2244
▁nom	-2245
▁keine	-2246
▁mu	-2247
▁сле	-2248
▁spre	-2249
unci	-2250
▁cult	-2251
uite	-2252
▁encore	-2253
uns	-2254
▁certain	-2255
▁seule	-2256
▁mili	-2257
фор	-2258
Gelächter	-2259
Applaus	-2260
▁vám	-2261
Lachen	-2262
▁There	-2263
ues	-2264
▁bud	-2265
▁вз	-2266
▁bin	-2267
glich	-2268
▁Не	-2269
смот	-2270
зова	-2271
alt	-2272
дер	-2273
кра	-2274
▁Art	-2275
▁вопро	-2276
▁diesem	-2277
▁început	-2278
di	-2279
pons	-2280
▁этой	-2281
▁exp	-2282
tele	-2283
vid	-2284
▁întâmpl	-2285
▁obs	-2286
▁Im	-2287
▁down	-2288
вые	-2289
är	-2290
cid	-2291
ări	-2292
esta	-2293
eni	-2294
▁проблем	-2295
▁Iar	-2296
▁lucruri	-2297
▁Ges	-2298
▁best	-2299
▁Мо	-2300
hlen	-2301
ei	-2302
▁thr	-2303
▁waren	-2304
ères	-2305
ep	-2306
▁müssen	-2307
спе	-2308
▁ges	-2309
▁gut	-2310
▁дей	-2311
▁při	-2312
▁around	-2313
▁pres	-2314
▁Asta	-2315
▁фи	-2316
жны	-2317
ily	-2318
▁bef	-2319
▁vorb	-2320
▁sign	-2321
▁Leben	-2322
паси	-2323
dě	-2324
ca	-2325
▁leurs	-2326
ýt	-2327
▁vá	-2328
ider	-2329
▁ví	-2330
ета	-2331
жда	-2332
▁истори	-2333
▁fer	-2334
áv	-2335
▁program	-2336
igur	-2337
mal	-2338
omen	-2339
дова	-2340
▁există	-2341
▁fais	-2342
▁sommes	-2343
ages	-2344
пасибо	-2345
▁pense	-2346
țion	-2347
▁cha	-2348
▁нет	-2349
endant	-2350
▁dr	-2351
▁through	-2352
Smích	-2353
cie	-2354
▁Dacă	-2355
oin	-2356
rer	-2357
▁abs	-2358
▁public	-2359
▁popul	-2360
▁autre	-2361
ruct	-2362
ţia	-2363
▁personnes	-2364
▁poz	-2365
▁даже	-2366
▁Leute	-2367
igh	-2368
cle	-2369
▁Да	-2370
▁dru	-2371
гля	-2372
▁dě	-2373
▁kl	-2374
ower	-2375
▁12	-2376
▁18	-2377
▁mer	-2378
▁întreb	-2379
jour	-2380
iß	-2381
▁име	-2382
ession	-2383
▁protože	-2384
▁groß	-2385
ască	-2386
▁Jahren	-2387
rol	-2388
▁sagte	-2389
▁rés	-2390
▁sagen	-2391
net	-2392
řed	-2393
▁diesen	-2394
arde	-2395
▁As	-2396
▁tell	-2397
▁după	-2398
▁being	-2399
",	-2400
ний	-2401
▁иде	-2402
▁decât	-2403
▁Di	-2404
ichte	-2405
▁ved	-2406
▁zač	-2407
рая	-2408
▁fiecare	-2409
клю	-2410
▁Dinge	-2411
ych	-2412
▁свои	-2413
▁než	-2414
▁lu	-2415
▁vol	-2416
▁наши	-2417
▁mno	-2418
▁může	-2419
▁ci	-2420
ři	-2421
▁same	-2422
ности	-2423
▁viele	-2424
igkeit	-2425
▁econom	-2426
▁уже	-2427
▁жизни	-2428
▁cell	-2429
▁mine	-2430
rage	-2431
unde	-2432
let	-2433
▁mí	-2434
hy	-2435
kon	-2436
man	-2437
▁кто	-2438
fic	-2439
devăr	-2440
▁happen	-2441
auf	-2442
▁чу	-2443
unden	-2444
žit	-2445
sez	-2446
▁нужно	-2447
▁сделать	-2448
дели	-2449
▁façon	-2450
rate	-2451
zut	-2452
▁dont	-2453
ních	-2454
▁premi	-2455
▁jetzt	-2456
▁поч	-2457
▁use	-2458
▁ass	-2459
ative	-2460
▁așa	-2461
▁jam	-2462
▁sam	-2463
iect	-2464
▁ud	-2465
▁здесь	-2466
nes	-2467
▁ers	-2468
▁könn	-2469
ologie	-2470
▁atât	-2471
▁být	-2472
rup	-2473
ternet	-2474
ней	-2475
▁film	-2476
▁disc	-2477
ume	-2478
do	-2479
▁pun	-2480
▁bis	-2481
ально	-2482
arn	-2483
ian	-2484
▁avoir	-2485
ought	-2486
▁мог	-2487
▁ir	-2488
▁dest	-2489
hui	-2490
▁pays	-2491
ahre	-2492
ânt	-2493
▁život	-2494
ely	-2495
vor	-2496
▁nás	-2497
▁sans	-2498
жд	-2499
umesc	-2500
▁всего	-2501
▁cas	-2502
ität	-2503
quoi	-2504
сколько	-2505
▁dez	-2506
ление	-2507
▁Af	-2508
ideo	-2509
▁dost	-2510
▁oh	-2511
af	-2512
▁meu	-2513
▁поня	-2514
▁ten	-2515
▁bych	-2516
▁ni	-2517
alement	-2518
▁envir	-2519
▁eines	-2520
iez	-2521
▁Thank	-2522
jší	-2523
▁Eu	-2524
piel	-2525
▁alors	-2526
iem	-2527
uis	-2528
▁vais	-2529
nă	-2530
▁zwei	-2531
▁себя	-2532
▁maintenant	-2533
▁juste	-2534
▁try	-2535
▁Des	-2536
day	-2537
▁можем	-2538
▁tím	-2539
ichtig	-2540
▁Что	-2541
▁li	-2542
▁Dies	-2543
▁Merci	-2544
▁сист	-2545
▁це	-2546
▁vš	-2547
schaft	-2548
ates	-2549
▁wieder	-2550
▁univers	-2551
▁dů	-2552
▁două	-2553
ara	-2554
▁toho	-2555
▁Pour	-2556
▁fut	-2557
▁men	-2558
▁nim	-2559
▁тем	-2560
jourd	-2561
▁kon	-2562
leicht	-2563
bs	-2564
plic	-2565
old	-2566
▁Как	-2567
спо	-2568
вить	-2569
▁lumea	-2570
▁bel	-2571
volution	-2572
▁apoi	-2573
▁human	-2574
uter	-2575
usam	-2576
▁40	-2577
ites	-2578
ţion	-2579
▁gener	-2580
ходит	-2581
▁test	-2582
▁Wie	-2583
▁Acum	-2584
ating	-2585
торы	-2586
▁gew	-2587
iu	-2588
ений	-2589
▁come	-2590
▁предста	-2591
▁day	-2592
▁alles	-2593
elor	-2594
перь	-2595
▁хоро	-2596
▁также	-2597
min	-2598
hem	-2599
ažd	-2600
▁wissen	-2601
▁nevo	-2602
▁start	-2603
och	-2604
▁действи	-2605
▁norm	-2606
ště	-2607
▁andere	-2608
▁мно	-2609
érie	-2610
aine	-2611
▁жен	-2612
▁system	-2613
ois	-2614
▁byl	-2615
iune	-2616
près	-2617
ument	-2618
▁big	-2619
illion	-2620
▁imp	-2621
igt	-2622
▁acolo	-2623
ără	-2624
▁prop	-2625
ves	-2626
▁pom	-2627
▁exam	-2628
gend	-2629
▁bylo	-2630
▁Der	-2631
▁сре	-2632
ational	-2633
▁may	-2634
ově	-2635
▁acc	-2636
▁пока	-2637
этому	-2638
лет	-2639
▁Well	-2640
.000	-2641
ktion	-2642
astră	-2643
▁hin	-2644
ny	-2645
три	-2646
iile	-2647
▁милли	-2648
other	-2649
▁deci	-2650
▁друго	-2651
bui	-2652
oper	-2653
▁сейчас	-2654
▁cit	-2655
▁puis	-2656
▁ști	-2657
▁selbst	-2658
▁change	-2659
▁луч	-2660
▁tru	-2661
▁velmi	-2662
мени	-2663
ivid	-2664
ování	-2665
▁bek	-2666
чина	-2667
ровать	-2668
auen	-2669
▁mé	-2670
▁anderen	-2671
sto	-2672
▁би	-2673
годня	-2674
▁25	-2675
▁ris	-2676
▁vir	-2677
▁again	-2678
▁eff	-2679
oy	-2680
▁post	-2681
она	-2682
▁câte	-2683
▁doing	-2684
ock	-2685
țin	-2686
▁lim	-2687
▁tehn	-2688
▁Unter	-2689
▁atunci	-2690
▁continu	-2691
▁avea	-2692
▁avez	-2693
▁facem	-2694
вая	-2695
▁один	-2696
▁ult	-2697
▁prost	-2698
0,	-2699
▁день	-2700
▁glau	-2701
ré	-2702
▁Aus	-2703
llen	-2704
▁toutes	-2705
bot	-2706
▁gé	-2707
▁Este	-2708
▁Jahre	-2709
▁val	-2710
avez	-2711
lor	-2712
ita	-2713
vin	-2714
▁Pe	-2715
▁Go	-2716
▁hom	-2717
▁années	-2718
dern	-2719
lie	-2720
wick	-2721
аль	-2722
▁něk	-2723
лей	-2724
▁If	-2725
▁geht	-2726
▁zn	-2727
▁ру	-2728
iat	-2729
astre	-2730
▁conf	-2731
вали	-2732
чита	-2733
hren	-2734
▁att	-2735
▁three	-2736
ics	-2737
вых	-2738
uni	-2739
▁ban	-2740
ral	-2741
▁well	-2742
бра	-2743
▁damit	-2744
▁объ	-2745
ude	-2746
kou	-2747
дума	-2748
alité	-2749
так	-2750
▁něco	-2751
esp	-2752
▁până	-2753
cin	-2754
née	-2755
ální	-2756
▁Ide	-2757
▁která	-2758
▁secon	-2759
▁called	-2760
▁Ace	-2761
йти	-2762
▁quelques	-2763
▁ту	-2764
▁extra	-2765
usammen	-2766
▁jamais	-2767
ять	-2768
▁würde	-2769
вый	-2770
▁percent	-2771
▁Internet	-2772
▁aşa	-2773
дов	-2774
▁hand	-2775
нее	-2776
▁trois	-2777
▁bit	-2778
illes	-2779
▁Reg	-2780
▁этих	-2781
▁tip	-2782
▁hal	-2783
thing	-2784
▁ress	-2785
▁comb	-2786
ktiv	-2787
▁nevoie	-2788
▁cât	-2789
▁besoin	-2790
ings	-2791
сло	-2792
▁ple	-2793
▁té	-2794
▁Ap	-2795
▁ask	-2796
▁exemple	-2797
▁weiter	-2798
▁Bl	-2799
обра	-2800
▁Um	-2801
way	-2802
oane	-2803
менно	-2804
▁už	-2805
▁încer	-2806
ub	-2807
▁дан	-2808
imp	-2809
▁смо	-2810
▁Ка	-2811
▁кра	-2812
▁transform	-2813
sp	-2814
▁wen	-2815
▁ră	-2816
bra	-2817
klad	-2818
чь	-2819
▁sent	-2820
дно	-2821
ets	-2822
цию	-2823
▁ens	-2824
▁experien	-2825
▁Po	-2826
▁dro	-2827
▁şti	-2828
rov	-2829
▁проис	-2830
ète	-2831
тро	-2832
▁zd	-2833
▁'	-2834
▁rest	-2835
▁veux	-2836
▁všechn	-2837
▁дет	-2838
ůsob	-2839
▁particul	-2840
тя	-2841
ün	-2842
ég	-2843
лек	-2844
▁jej	-2845
▁пе	-2846
▁Voici	-2847
ден	-2848
▁ses	-2849
▁great	-2850
ches	-2851
▁problème	-2852
▁nap	-2853
▁Afr	-2854
äl	-2855
▁utilis	-2856
ellement	-2857
rát	-2858
aliz	-2859
▁самом	-2860
▁compan	-2861
erson	-2862
ically	-2863
▁dav	-2864
otogra	-2865
ника	-2866
▁inf	-2867
▁Mit	-2868
▁conc	-2869
jeme	-2870
orie	-2871
,"	-2872
▁jin	-2873
▁situ	-2874
▁děl	-2875
▁Auf	-2876
▁Mar	-2877
▁Vor	-2878
▁At	-2879
▁răs	-2880
▁Elle	-2881
aly	-2882
uteč	-2883
bleme	-2884
▁ret	-2885
▁suc	-2886
нологи	-2887
хи	-2888
▁То	-2889
кто	-2890
ards	-2891
▁zurück	-2892
▁str	-2893
▁star	-2894
▁Когда	-2895
orn	-2896
▁Fre	-2897
▁îl	-2898
fect	-2899
▁moins	-2900
rad	-2901
ison	-2902
ting	-2903
▁child	-2904
▁Frau	-2905
▁суще	-2906
▁stat	-2907
▁wä	-2908
▁случа	-2909
▁trebui	-2910
jours	-2911
ey	-2912
istem	-2913
▁build	-2914
▁cet	-2915
▁ско	-2916
▁phys	-2917
жду	-2918
for	-2919
por	-2920
▁made	-2921
land	-2922
▁пол	-2923
тер	-2924
halten	-2925
▁получи	-2926
▁toujours	-2927
▁muss	-2928
▁свя	-2929
▁pouvons	-2930
uz	-2931
▁уви	-2932
▁которая	-2933
▁cur	-2934
▁pré	-2935
▁princi	-2936
▁явля	-2937
▁хоте	-2938
▁Спасибо	-2939
▁dol	-2940
▁idea	-2941
▁prá	-2942
руп	-2943
lesk	-2944
under	-2945
▁doll	-2946
mp	-2947
▁versch	-2948
▁York	-2949
▁appr	-2950
▁oc	-2951
▁ren	-2952
▁ор	-2953
▁могут	-2954
mat	-2955
▁ident	-2956
▁За	-2957
▁sex	-2958
▁unui	-2959
▁turn	-2960
eter	-2961
▁fra	-2962
▁Her	-2963
▁Mon	-2964
▁own	-2965
▁enfants	-2966
arm	-2967
▁mater	-2968
▁viv	-2969
ению	-2970
▁кар	-2971
emble	-2972
akt	-2973
цы	-2974
▁всех	-2975
iny	-2976
кое	-2977
▁199	-2978
▁деле	-2979
деть	-2980
▁apro	-2981
▁Co	-2982
țele	-2983
▁four	-2984
▁mem	-2985
▁систем	-2986
hu	-2987
▁способ	-2988
ţin	-2989
тра	-2990
▁должны	-2991
▁serv	-2992
ächlich	-2993
▁starte	-2994
autres	-2995
▁хочу	-2996
nde	-2997
▁mož	-2998
▁eng	-2999
igent	-3000
ior	-3001
▁year	-3002
▁invest	-3003
▁byla	-3004
ander	-3005
žeme	-3006
▁hod	-3007
▁nature	-3008
▁cei	-3009
▁denn	-3010
нечно	-3011
ôt	-3012
▁там	-3013
▁learn	-3014
▁женщи	-3015
▁Она	-3016
▁Ok	-3017
otlesk	-3018
ool	-3019
▁vlast	-3020
▁environ	-3021
▁imagine	-3022
▁Итак	-3023
▁seulement	-3024
нет	-3025
ache	-3026
pir	-3027
▁after	-3028
▁jeden	-3029
лом	-3030
ables	-3031
▁găs	-3032
▁its	-3033
asse	-3034
▁prés	-3035
▁tri	-3036
щей	-3037
▁Бо	-3038
zt	-3039
țe	-3040
uit	-3041
▁každ	-3042
▁voul	-3043
ments	-3044
▁Kdy	-3045
▁chaque	-3046
▁lidé	-3047
▁Tre	-3048
anc	-3049
стра	-3050
▁möchte	-3051
▁эта	-3052
▁эту	-3053
val	-3054
teří	-3055
ерез	-3056
▁adevăr	-3057
вно	-3058
зад	-3059
▁чи	-3060
ences	-3061
▁parler	-3062
▁sû	-3063
öß	-3064
ход	-3065
чение	-3066
▁struct	-3067
angen	-3068
▁jste	-3069
▁není	-3070
▁vyt	-3071
▁urmă	-3072
▁prote	-3073
zn	-3074
ге	-3075
▁Is	-3076
llt	-3077
▁Та	-3078
tea	-3079
следова	-3080
ges	-3081
ains	-3082
▁pă	-3083
▁Nun	-3084
▁Da	-3085
▁avant	-3086
▁peuvent	-3087
▁today	-3088
▁вос	-3089
üt	-3090
▁împ	-3091
▁назад	-3092
▁why	-3093
▁fără	-3094
iei	-3095
entre	-3096
▁tele	-3097
▁lume	-3098
▁pendant	-3099
▁nouv	-3100
bens	-3101
▁гла	-3102
▁absol	-3103
▁copii	-3104
▁complex	-3105
▁uděl	-3106
iale	-3107
étais	-3108
arch	-3109
бира	-3110
isation	-3111
▁называ	-3112
▁горо	-3113
▁robot	-3114
emen	-3115
odată	-3116
▁Teil	-3117
▁ganz	-3118
asser	-3119
▁data	-3120
▁arriv	-3121
ités	-3122
ales	-3123
▁zw	-3124
гани	-3125
кру	-3126
▁răsp	-3127
▁partie	-3128
▁him	-3129
▁planet	-3130
▁started	-3131
жение	-3132
agen	-3133
▁cea	-3134
▁après	-3135
▁sus	-3136
▁îi	-3137
▁încă	-3138
oth	-3139
▁Mus	-3140
▁ea	-3141
▁прави	-3142
▁Beis	-3143
▁konn	-3144
▁dal	-3145
▁самы	-3146
opp	-3147
▁repr	-3148
▁feme	-3149
▁faci	-3150
ač	-3151
șt	-3152
▁tent	-3153
▁heraus	-3154
yp	-3155
▁послед	-3156
▁mean	-3157
▁сказал	-3158
▁Viel	-3159
▁noastre	-3160
sche	-3161
▁pře	-3162
▁set	-3163
▁underst	-3164
▁ihnen	-3165
gel	-3166
▁технологи	-3167
▁por	-3168
▁Sunt	-3169
vous	-3170
▁letz	-3171
▁alte	-3172
тери	-3173
▁já	-3174
ună	-3175
ds	-3176
▁думаю	-3177
fahr	-3178
▁моз	-3179
▁фо	-3180
děl	-3181
▁thought	-3182
▁Ab	-3183
▁acesta	-3184
▁beh	-3185
▁обще	-3186
ării	-3187
▁should	-3188
▁вме	-3189
▁Pentru	-3190
▁rad	-3191
▁cine	-3192
▁By	-3193
itel	-3194
▁course	-3195
lou	-3196
▁Wo	-3197
,000	-3198
форма	-3199
▁belie	-3200
▁opt	-3201
stav	-3202
▁activ	-3203
▁dat	-3204
aci	-3205
▁schon	-3206
uf	-3207
▁показа	-3208
▁zi	-3209
vi	-3210
▁zem	-3211
▁года	-3212
ima	-3213
▁Gl	-3214
▁process	-3215
tellen	-3216
▁пример	-3217
▁Une	-3218
▁still	-3219
▁didn	-3220
▁skuteč	-3221
▁ajut	-3222
ana	-3223
ager	-3224
▁také	-3225
atsächlich	-3226
▁travail	-3227
imm	-3228
▁Hier	-3229
▁sistem	-3230
▁energ	-3231
▁vielleicht	-3232
èmes	-3233
▁эко	-3234
▁Ei	-3235
ступ	-3236
▁cond	-3237
ár	-3238
▁soit	-3239
▁unul	-3240
которы	-3241
▁интере	-3242
сов	-3243
▁quoi	-3244
жения	-3245
▁fre	-3246
ání	-3247
▁Ste	-3248
▁Gen	-3249
▁dollars	-3250
юсь	-3251
▁unei	-3252
▁personne	-3253
SA	-3254
вает	-3255
▁peste	-3256
atele	-3257
▁Tr	-3258
▁souv	-3259
▁bre	-3260
▁понима	-3261
▁arăt	-3262
▁model	-3263
jekt	-3264
▁lidí	-3265
▁last	-3266
гла	-3267
ена	-3268
▁avut	-3269
raz	-3270
вто	-3271
кие	-3272
▁elect	-3273
▁technologie	-3274
ête	-3275
дый	-3276
▁travaill	-3277
▁Mal	-3278
▁aceasta	-3279
jor	-3280
esser	-3281
▁heute	-3282
▁Problem	-3283
▁individ	-3284
ză	-3285
стью	-3286
▁Land	-3287
▁super	-3288
▁elles	-3289
tet	-3290
▁feel	-3291
êtes	-3292
дел	-3293
▁moh	-3294
▁Jo	-3295
aiss	-3296
▁story	-3297
ющих	-3298
▁эк	-3299
ican	-3300
▁stand	-3301
▁biolog	-3302
ением	-3303
▁mari	-3304
isme	-3305
osti	-3306
▁можете	-3307
▁My	-3308
▁nouve	-3309
▁cancer	-3310
▁ben	-3311
▁cin	-3312
▁kam	-3313
дом	-3314
▁vedea	-3315
▁kde	-3316
▁socie	-3317
▁bude	-3318
▁commencé	-3319
▁откры	-3320
▁způsob	-3321
▁gar	-3322
oleč	-3323
autre	-3324
▁sal	-3325
▁...	-3326
▁davon	-3327
▁гра	-3328
▁жизнь	-3329
over	-3330
▁ref	-3331
▁без	-3332
ather	-3333
▁aujourd	-3334
urt	-3335
▁чув	-3336
cat	-3337
▁себе	-3338
▁дви	-3339
ravdu	-3340
▁dort	-3341
▁noastră	-3342
ret	-3343
▁comun	-3344
enschaft	-3345
▁étaient	-3346
▁zusammen	-3347
ha	-3348
▁ки	-3349
▁play	-3350
▁genau	-3351
▁Vă	-3352
▁che	-3353
▁savez	-3354
▁possible	-3355
▁jejich	-3356
▁essay	-3357
▁tam	-3358
ellen	-3359
▁60	-3360
сси	-3361
▁gan	-3362
gether	-3363
▁together	-3364
▁scient	-3365
▁train	-3366
▁зада	-3367
▁câteva	-3368
aines	-3369
▁might	-3370
ierte	-3371
▁aller	-3372
▁пот	-3373
▁něj	-3374
▁another	-3375
▁went	-3376
şt	-3377
▁hl	-3378
halb	-3379
▁El	-3380
stat	-3381
▁201	-3382
нер	-3383
▁Goog	-3384
▁сов	-3385
ister	-3386
mit	-3387
ické	-3388
gar	-3389
▁действительно	-3390
rea	-3391
▁never	-3392
seam	-3393
▁uit	-3394
▁prod	-3395
oci	-3396
inden	-3397
▁première	-3398
ům	-3399
▁voyez	-3400
▁через	-3401
▁fas	-3402
▁Aşa	-3403
▁mun	-3404
ordin	-3405
▁power	-3406
geb	-3407
nent	-3408
▁80	-3409
▁ji	-3410
▁învă	-3411
▁gesch	-3412
▁голо	-3413
▁before	-3414
▁těch	-3415
▁Kinder	-3416
▁naš	-3417
▁Bild	-3418
кти	-3419
imes	-3420
▁live	-3421
▁gleich	-3422
▁OK	-3423
▁сем	-3424
chten	-3425
нова	-3426
▁Geschichte	-3427
▁Diese	-3428
▁système	-3429
▁pak	-3430
▁medic	-3431
▁ihn	-3432
ense	-3433
äd	-3434
atur	-3435
▁fon	-3436
▁Aceast	-3437
▁разви	-3438
aires	-3439
ention	-3440
▁Mo	-3441
▁conne	-3442
len	-3443
щу	-3444
body	-3445
▁exemplu	-3446
ucht	-3447
▁Când	-3448
▁сегодня	-3449
ks	-3450
ffect	-3451
▁Nach	-3452
▁позво	-3453
▁om	-3454
▁svět	-3455
▁fond	-3456
вра	-3457
▁Те	-3458
▁wel	-3459
eri	-3460
▁toute	-3461
▁pie	-3462
▁Jak	-3463
▁păr	-3464
ены	-3465
▁give	-3466
▁Když	-3467
volu	-3468
▁Jed	-3469
мент	-3470
▁erau	-3471
ope	-3472
▁přes	-3473
▁autres	-3474
▁tut	-3475
▁11	-3476
▁společ	-3477
сс	-3478
ato	-3479
▁better	-3480
▁nombre	-3481
▁одна	-3482
▁делать	-3483
ţele	-3484
hir	-3485
▁einz	-3486
▁bez	-3487
ctor	-3488
▁hatten	-3489
▁exact	-3490
iten	-3491
▁able	-3492
Potlesk	-3493
▁educ	-3494
ends	-3495
eau	-3496
▁interes	-3497
weise	-3498
▁Do	-3499
bt	-3500
▁méd	-3501
vy	-3502
▁sûr	-3503
▁tră	-3504
▁func	-3505
dí	-3506
▁nun	-3507
iden	-3508
шу	-3509
iti	-3510
вед	-3511
▁help	-3512
▁meille	-3513
пример	-3514
▁social	-3515
čí	-3516
ami	-3517
▁organiz	-3518
▁использу	-3519
▁несколько	-3520
▁Aut	-3521
ează	-3522
▁между	-3523
▁многи	-3524
áme	-3525
стве	-3526
▁understand	-3527
щее	-3528
ья	-3529
▁пы	-3530
бой	-3531
▁voit	-3532
▁этим	-3533
ika	-3534
▁ang	-3535
рую	-3536
▁millions	-3537
▁science	-3538
▁změ	-3539
ющие	-3540
ostru	-3541
▁minut	-3542
▁nám	-3543
erre	-3544
duce	-3545
▁respons	-3546
edy	-3547
insi	-3548
его	-3549
▁ago	-3550
▁call	-3551
teil	-3552
▁came	-3553
▁trouv	-3554
▁trei	-3555
сты	-3556
▁Ph	-3557
▁Beispiel	-3558
▁lors	-3559
▁ос	-3560
zä	-3561
ană	-3562
mier	-3563
▁следу	-3564
acc	-3565
los	-3566
▁ps	-3567
»,	-3568
vět	-3569
▁Med	-3570
лаго	-3571
емся	-3572
ainte	-3573
▁Ent	-3574
▁viol	-3575
▁Google	-3576
irea	-3577
če	-3578
ilo	-3579
тем	-3580
ision	-3581
zit	-3582
uten	-3583
▁исследова	-3584
▁found	-3585
ules	-3586
▁cost	-3587
ichten	-3588
▁pokud	-3589
vat	-3590
▁intér	-3591
▁мир	-3592
upra	-3593
▁dig	-3594
▁мои	-3595
allen	-3596
▁suntem	-3597
line	-3598
зом	-3599
мери	-3600
▁больши	-3601
▁gab	-3602
▁подо	-3603
▁информа	-3604
▁patient	-3605
atz	-3606
din	-3607
▁princip	-3608
affen	-3609
ationen	-3610
тия	-3611
alth	-3612
▁sous	-3613
équ	-3614
▁dí	-3615
▁astfel	-3616
▁second	-3617
ieux	-3618
▁esp	-3619
▁îns	-3620
▁измени	-3621
voř	-3622
ural	-3623
ists	-3624
ändern	-3625
нови	-3626
▁acea	-3627
▁další	-3628
стя	-3629
ities	-3630
▁jem	-3631
▁port	-3632
▁mort	-3633
▁problém	-3634
▁simpl	-3635
aum	-3636
▁druh	-3637
▁cir	-3638
tres	-3639
▁gros	-3640
▁16	-3641
▁meiner	-3642
▁acel	-3643
▁человек	-3644
▁travers	-3645
▁motiv	-3646
▁dével	-3647
▁jou	-3648
▁Ин	-3649
▁drei	-3650
▁kteří	-3651
kte	-3652
кон	-3653
▁sondern	-3654
ник	-3655
liv	-3656
uk	-3657
▁году	-3658
auv	-3659
▁tant	-3660
▁счита	-3661
льта	-3662
▁Mul	-3663
seamnă	-3664
▁einige	-3665
vé	-3666
вал	-3667
oj	-3668
Mus	-3669
ids	-3670
iți	-3671
cum	-3672
▁typ	-3673
án	-3674
▁No	-3675
▁мире	-3676
▁реши	-3677
pat	-3678
бли	-3679
кан	-3680
кую	-3681
ственно	-3682
▁few	-3683
▁Br	-3684
рав	-3685
esse	-3686
lement	-3687
imul	-3688
▁ora	-3689
äs	-3690
▁example	-3691
tend	-3692
▁mysl	-3693
ké	-3694
▁paar	-3695
рии	-3696
air	-3697
▁milli	-3698
▁nut	-3699
кого	-3700
▁love	-3701
▁над	-3702
iness	-3703
▁manière	-3704
▁grande	-3705
avais	-3706
▁Fran	-3707
▁ц	-3708
ott	-3709
▁rép	-3710
▁Acesta	-3711
▁All	-3712
▁сер	-3713
ále	-3714
писа	-3715
▁Așa	-3716
▁verste	-3717
chi	-3718
емо	-3719
▁îmi	-3720
▁mys	-3721
▁appel	-3722
▁realiz	-3723
.”	-3724
▁const	-3725
ilà	-3726
▁rien	-3727
▁пло	-3728
ail	-3729
▁поли	-3730
▁könnte	-3731
ris	-3732
▁jedn	-3733
rive	-3734
▁acela	-3735
▁acele	-3736
▁sin	-3737
▁cerve	-3738
▁Dan	-3739
графи	-3740
▁více	-3741
tí	-3742
пол	-3743
▁нау	-3744
▁реш	-3745
▁ajung	-3746
▁mas	-3747
▁darüber	-3748
ový	-3749
вое	-3750
▁расс	-3751
ství	-3752
дол	-3753
aces	-3754
ává	-3755
▁school	-3756
▁rapid	-3757
▁mov	-3758
▁wollen	-3759
▁dim	-3760
▁gem	-3761
▁gel	-3762
грам	-3763
rent	-3764
lez	-3765
▁фор	-3766
зовать	-3767
▁brain	-3768
номи	-3769
reg	-3770
▁фото	-3771
▁ла	-3772
вают	-3773
▁sil	-3774
▁coun	-3775
▁high	-3776
▁jusqu	-3777
äh	-3778
fici	-3779
▁exc	-3780
▁wurden	-3781
▁next	-3782
▁major	-3783
▁Na	-3784
шего	-3785
cted	-3786
ones	-3787
▁petit	-3788
▁Univers	-3789
▁extre	-3790
▁bou	-3791
▁When	-3792
▁14	-3793
▁bus	-3794
ène	-3795
été	-3796
ices	-3797
ateur	-3798
реть	-3799
дит	-3800
▁experiment	-3801
▁ori	-3802
▁China	-3803
ieten	-3804
▁werde	-3805
▁Chr	-3806
azu	-3807
istă	-3808
ит	-3809
▁CA	-3810
▁проек	-3811
▁water	-3812
abor	-3813
▁div	-3814
▁отно	-3815
▁pourquoi	-3816
ких	-3817
▁tomu	-3818
▁поло	-3819
▁seine	-3820
▁цен	-3821
iet	-3822
ким	-3823
▁Africa	-3824
▁tatsächlich	-3825
▁vás	-3826
▁derni	-3827
▁schw	-3828
▁Quand	-3829
dom	-3830
нить	-3831
ennen	-3832
рабо	-3833
▁Ob	-3834
vní	-3835
ürlich	-3836
▁million	-3837
▁опре	-3838
alen	-3839
yn	-3840
▁font	-3841
▁incred	-3842
▁prea	-3843
▁forme	-3844
antes	-3845
▁поя	-3846
▁géné	-3847
▁Kl	-3848
▁înd	-3849
▁tyto	-3850
eny	-3851
▁gehen	-3852
hist	-3853
rez	-3854
▁old	-3855
▁stej	-3856
tu	-3857
arly	-3858
ett	-3859
что	-3860
▁used	-3861
▁depuis	-3862
▁viz	-3863
▁Dans	-3864
▁log	-3865
ween	-3866
imer	-3867
▁органи	-3868
▁For	-3869
▁pi	-3870
eld	-3871
hip	-3872
ёл	-3873
зульта	-3874
iva	-3875
amm	-3876
▁indust	-3877
▁ant	-3878
▁bede	-3879
▁вопрос	-3880
▁fund	-3881
omm	-3882
▁bar	-3883
▁pict	-3884
▁naše	-3885
▁пар	-3886
лень	-3887
▁fonction	-3888
▁mis	-3889
▁each	-3890
▁ok	-3891
▁unserer	-3892
роят	-3893
▁происходит	-3894
▁oper	-3895
▁How	-3896
nov	-3897
▁ри	-3898
▁proces	-3899
▁kein	-3900
▁orice	-3901
▁тру	-3902
▁ба	-3903
anden	-3904
emenea	-3905
▁шко	-3906
fol	-3907
▁два	-3908
▁verw	-3909
▁conn	-3910
eli	-3911
▁civ	-3912
гово	-3913
▁Ma	-3914
ein	-3915
▁abych	-3916
ást	-3917
▁besch	-3918
кая	-3919
▁которых	-3920
▁won	-3921
anted	-3922
▁Со	-3923
▁between	-3924
▁ры	-3925
▁сказать	-3926
ährend	-3927
▁Main	-3928
essen	-3929
▁înseamnă	-3930
вле	-3931
▁dép	-3932
▁étud	-3933
▁too	-3934
▁времени	-3935
▁lead	-3936
▁значи	-3937
▁demand	-3938
▁surpr	-3939
ovan	-3940
▁проце	-3941
▁посмот	-3942
▁caz	-3943
▁small	-3944
▁văzut	-3945
чего	-3946
▁rid	-3947
▁compl	-3948
▁sais	-3949
блю	-3950
▁calcul	-3951
▁prov	-3952
▁dezvol	-3953
вайте	-3954
▁Cela	-3955
▁17	-3956
amp	-3957
▁dés	-3958
ieden	-3959
▁věci	-3960
uses	-3961
rib	-3962
ţe	-3963
▁assez	-3964
▁eigen	-3965
▁сторо	-3966
▁aceea	-3967
▁Să	-3968
вши	-3969
▁trouver	-3970
oud	-3971
▁opravdu	-3972
ja	-3973
rab	-3974
ație	-3975
▁chem	-3976
issenschaft	-3977
ways	-3978
arge	-3979
▁coll	-3980
portun	-3981
pression	-3982
дар	-3983
▁zv	-3984
▁vu	-3985
self	-3986
▁некоторы	-3987
fon	-3988
ives	-3989
▁cun	-3990
änder	-3991
▁oce	-3992
▁êtes	-3993
alis	-3994
▁nep	-3995
▁passe	-3996
▁Maintenant	-3997
▁начина	-3998
bat	-3999
▁plut	-4000
▁weiß	-4001
▁faut	-4002
▁technology	-4003
▁adevărat	-4004
▁wäre	-4005
reich	-4006
▁Про	-4007
▁ger	-4008
fort	-4009
▁nostru	-4010
▁Frage	-4011
▁nav	-4012
▁verb	-4013
▁întâmplă	-4014
▁образом	-4015
лия	-4016
▁пыта	-4017
▁différent	-4018
roy	-4019
▁looking	-4020
личи	-4021
▁важно	-4022
čit	-4023
▁una	-4024
кла	-4025
▁нем	-4026
▁devel	-4027
▁prot	-4028
▁toată	-4029
ker	-4030
inter	-4031
▁pouvoir	-4032
?»	-4033
▁90	-4034
▁trop	-4035
▁результа	-4036
ман	-4037
▁каждый	-4038
▁imm	-4039
▁pourrait	-4040
шло	-4041
▁bună	-4042
rem	-4043
▁capac	-4044
▁své	-4045
chu	-4046
uer	-4047
▁aproape	-4048
▁suiv	-4049
rais	-4050
ătate	-4051
▁Ger	-4052
▁wahr	-4053
▁control	-4054
▁Technolog	-4055
hm	-4056
ků	-4057
für	-4058
▁получа	-4059
ubl	-4060
nehmen	-4061
ket	-4062
▁смот	-4063
▁rep	-4064
▁timpul	-4065
▁cerveau	-4066
▁liber	-4067
▁potře	-4068
ovali	-4069
▁измен	-4070
▁proiect	-4071
ness	-4072
▁questions	-4073
нг	-4074
da	-4075
▁done	-4076
▁grow	-4077
▁dos	-4078
fi	-4079
rac	-4080
ční	-4081
ných	-4082
icile	-4083
▁develop	-4084
tim	-4085
▁Stud	-4086
▁relig	-4087
▁données	-4088
▁dir	-4089
▁jur	-4090
▁nad	-4091
▁macht	-4092
▁disp	-4093
▁asemenea	-4094
dem	-4095
▁Av	-4096
iben	-4097
oval	-4098
щая	-4099
▁обла	-4100
рен	-4101
▁vět	-4102
▁cher	-4103
▁sorte	-4104
нут	-4105
▁projet	-4106
▁femmes	-4107
еты	-4108
▁Geb	-4109
▁sogar	-4110
ull	-4111
öglich	-4112
▁neue	-4113
▁înce	-4114
▁größ	-4115
gs	-4116
▁six	-4117
прав	-4118
чество	-4119
ствует	-4120
▁малень	-4121
▁именно	-4122
loc	-4123
cause	-4124
uge	-4125
ko	-4126
▁techn	-4127
▁ог	-4128
обходи	-4129
áte	-4130
▁diferite	-4131
▁prav	-4132
когда	-4133
▁idée	-4134
▁group	-4135
▁Lebens	-4136
▁13	-4137
стре	-4138
▁лучше	-4139
▁video	-4140
▁ша	-4141
▁rend	-4142
acter	-4143
▁interest	-4144
oli	-4145
▁nik	-4146
▁Gehir	-4147
▁Поэтому	-4148
▁devons	-4149
mí	-4150
▁теле	-4151
▁creier	-4152
▁Hand	-4153
▁Arbeit	-4154
vají	-4155
▁почему	-4156
rob	-4157
▁га	-4158
ident	-4159
▁denke	-4160
▁pap	-4161
▁wichtig	-4162
▁doesn	-4163
▁nějak	-4164
▁Ve	-4165
ade	-4166
gef	-4167
▁labor	-4168
▁Все	-4169
▁Од	-4170
▁Tag	-4171
дить	-4172
rum	-4173
▁энер	-4174
▁является	-4175
▁три	-4176
ova	-4177
▁dém	-4178
leg	-4179
cient	-4180
▁мой	-4181
▁ней	-4182
▁poveste	-4183
cont	-4184
ises	-4185
âng	-4186
uchen	-4187
▁finden	-4188
▁198	-4189
▁finan	-4190
▁уча	-4191
▁tento	-4192
inte	-4193
▁prendre	-4194
▁eux	-4195
ской	-4196
aps	-4197
▁Kon	-4198
▁cau	-4199
▁open	-4200
una	-4201
▁denken	-4202
▁находи	-4203
chite	-4204
▁conte	-4205
ющий	-4206
éch	-4207
▁concept	-4208
▁vys	-4209
urilor	-4210
▁light	-4211
▁Person	-4212
ktur	-4213
vit	-4214
met	-4215
ton	-4216
▁ohne	-4217
▁quelqu	-4218
adar	-4219
istes	-4220
▁jeho	-4221
▁Wer	-4222
▁bere	-4223
▁nez	-4224
▁War	-4225
▁můžeme	-4226
▁lung	-4227
ружи	-4228
igne	-4229
▁gef	-4230
▁moy	-4231
дим	-4232
▁dazu	-4233
▁cat	-4234
öff	-4235
лез	-4236
▁máme	-4237
▁wanted	-4238
▁red	-4239
ror	-4240
▁probabil	-4241
▁créer	-4242
▁ț	-4243
▁Tout	-4244
▁entwick	-4245
▁rů	-4246
▁Because	-4247
▁комп	-4248
▁kommt	-4249
ierung	-4250
▁vreau	-4251
▁women	-4252
стру	-4253
▁sour	-4254
íd	-4255
шей	-4256
▁mob	-4257
com	-4258
▁Comp	-4259
hrt	-4260
▁компа	-4261
▁famil	-4262
erade	-4263
▁defin	-4264
▁înainte	-4265
▁Ad	-4266
▁dob	-4267
▁обе	-4268
ony	-4269
рой	-4270
▁pier	-4271
▁vos	-4272
▁kterou	-4273
▁toto	-4274
▁экономи	-4275
ним	-4276
▁away	-4277
enz	-4278
▁теперь	-4279
▁funktion	-4280
▁intéress	-4281
▁Sh	-4282
▁ja	-4283
cet	-4284
▁Grund	-4285
ках	-4286
▁осно	-4287
чки	-4288
try	-4289
ými	-4290
iles	-4291
▁sf	-4292
▁fab	-4293
▁regard	-4294
lep	-4295
▁nie	-4296
řej	-4297
▁culture	-4298
▁всегда	-4299
▁%	-4300
ster	-4301
лич	-4302
▁frag	-4303
lad	-4304
▁destul	-4305
▁probleme	-4306
▁!	-4307
▁gest	-4308
▁prima	-4309
▁необходи	-4310
▁geben	-4311
▁genre	-4312
▁конечно	-4313
▁него	-4314
рь	-4315
▁маши	-4316
▁obl	-4317
рите	-4318
urg	-4319
▁sym	-4320
▁cô	-4321
▁intr	-4322
▁других	-4323
▁Million	-4324
▁trying	-4325
ками	-4326
▁tour	-4327
▁nouveau	-4328
▁соб	-4329
▁einmal	-4330
▁trad	-4331
проси	-4332
▁ru	-4333
▁less	-4334
▁afl	-4335
▁aur	-4336
ös	-4337
▁nichts	-4338
▁fri	-4339
0.	-4340
ouse	-4341
▁учи	-4342
nější	-4343
ably	-4344
imin	-4345
▁fiind	-4346
▁tady	-4347
▁большо	-4348
▁которой	-4349
inde	-4350
ena	-4351
▁Frauen	-4352
▁poč	-4353
▁remar	-4354
рить	-4355
▁bring	-4356
▁case	-4357
▁schn	-4358
▁груп	-4359
cident	-4360
ng	-4361
face	-4362
▁уров	-4363
▁Fl	-4364
▁mind	-4365
▁Dank	-4366
▁детей	-4367
яс	-4368
▁bal	-4369
▁urm	-4370
▁Car	-4371
▁Vers	-4372
▁řek	-4373
▁erzä	-4374
bers	-4375
ческие	-4376
▁kommen	-4377
ateurs	-4378
selves	-4379
▁буд	-4380
кту	-4381
▁Afri	-4382
ché	-4383
▁Ant	-4384
▁обо	-4385
▁always	-4386
▁os	-4387
▁fant	-4388
kem	-4389
▁peux	-4390
▁Unite	-4391
▁propr	-4392
▁descoper	-4393
vez	-4394
ances	-4395
вания	-4396
stra	-4397
țumesc	-4398
▁glaube	-4399
▁продол	-4400
▁reas	-4401
ându	-4402
▁rou	-4403
utter	-4404
▁lé	-4405
▁иг	-4406
ене	-4407
▁až	-4408
▁facă	-4409
istan	-4410
▁budou	-4411
▁fort	-4412
▁bě	-4413
urch	-4414
▁hard	-4415
▁dess	-4416
▁hät	-4417
ands	-4418
ress	-4419
▁gerade	-4420
▁information	-4421
elf	-4422
▁psych	-4423
▁interess	-4424
nous	-4425
▁contr	-4426
uff	-4427
стран	-4428
верх	-4429
▁recon	-4430
▁simplu	-4431
▁Oh	-4432
цев	-4433
ключа	-4434
▁passiert	-4435
▁ци	-4436
ration	-4437
▁Wasser	-4438
▁nam	-4439
▁никогда	-4440
adă	-4441
uire	-4442
geben	-4443
sou	-4444
▁тогда	-4445
▁posibil	-4446
▁lucrurile	-4447
▁благо	-4448
▁могли	-4449
ablement	-4450
▁авто	-4451
▁effect	-4452
▁můžete	-4453
▁premier	-4454
▁Cum	-4455
▁believe	-4456
arth	-4457
▁Ihr	-4458
▁whole	-4459
▁run	-4460
▁plutôt	-4461
▁milioane	-4462
vod	-4463
oss	-4464
▁занима	-4465
дель	-4466
ské	-4467
toare	-4468
▁ceci	-4469
нуть	-4470
▁fast	-4471
▁create	-4472
вого	-4473
▁вместе	-4474
ada	-4475
ples	-4476
iele	-4477
éra	-4478
▁passé	-4479
▁нашей	-4480
нием	-4481
jà	-4482
▁ответ	-4483
▁regarde	-4484
▁Eine	-4485
utet	-4486
▁pare	-4487
▁zwischen	-4488
диви	-4489
yste	-4490
▁energie	-4491
omet	-4492
▁dau	-4493
▁vedem	-4494
▁видите	-4495
▁gemacht	-4496
gew	-4497
▁amer	-4498
род	-4499
▁net	-4500
▁inte	-4501
aţie	-4502
unkt	-4503
zus	-4504
▁term	-4505
▁crois	-4506
▁denen	-4507
▁совер	-4508
▁помощ	-4509
▁comprendre	-4510
aff	-4511
▁свою	-4512
▁Ра	-4513
ören	-4514
емы	-4515
▁regul	-4516
▁drept	-4517
▁besser	-4518
icip	-4519
▁histoire	-4520
ская	-4521
aub	-4522
here	-4523
▁mess	-4524
▁children	-4525
тно	-4526
▁donner	-4527
▁тыся	-4528
ced	-4529
▁global	-4530
wort	-4531
▁ihren	-4532
▁zeigen	-4533
▁которую	-4534
yl	-4535
▁prac	-4536
▁hav	-4537
▁ultim	-4538
▁Aceasta	-4539
▁žád	-4540
▁потом	-4541
otograf	-4542
▁irgend	-4543
▁pris	-4544
▁такой	-4545
▁far	-4546
kuji	-4547
▁măs	-4548
ember	-4549
káz	-4550
щем	-4551
▁beaut	-4552
ůj	-4553
alls	-4554
ckt	-4555
▁mân	-4556
▁prezent	-4557
beiten	-4558
▁человека	-4559
▁Fe	-4560
▁gegen	-4561
iţi	-4562
▁dor	-4563
▁konnte	-4564
ört	-4565
▁Pat	-4566
▁country	-4567
zeit	-4568
▁dafür	-4569
цо	-4570
▁ec	-4571
▁tohle	-4572
éto	-4573
imat	-4574
ходя	-4575
▁déjà	-4576
▁thinking	-4577
oarece	-4578
▁часть	-4579
▁огром	-4580
▁simplement	-4581
▁ска	-4582
▁Gehirn	-4583
cken	-4584
▁своей	-4585
ismus	-4586
▁means	-4587
шая	-4588
itul	-4589
ému	-4590
обще	-4591
▁front	-4592
▁én	-4593
▁sieht	-4594
▁фак	-4595
ин	-4596
▁parf	-4597
▁neg	-4598
▁představ	-4599
▁working	-4600
▁top	-4601
teur	-4602
▁reven	-4603
▁direct	-4604
▁extraordin	-4605
фек	-4606
▁Idee	-4607
ené	-4608
▁Мне	-4609
▁bă	-4610
hs	-4611
▁21	-4612
▁500	-4613
▁высо	-4614
▁trecut	-4615
ёр	-4616
▁подума	-4617
tech	-4618
▁sper	-4619
▁tedy	-4620
embl	-4621
▁buc	-4622
▁дву	-4623
▁She	-4624
жет	-4625
▁contin	-4626
ného	-4627
▁тра	-4628
пла	-4629
▁One	-4630
▁которое	-4631
▁näch	-4632
▁aud	-4633
▁recher	-4634
ries	-4635
▁доста	-4636
ories	-4637
▁тре	-4638
eten	-4639
▁ment	-4640
▁invent	-4641
▁выгля	-4642
▁jeder	-4643
ământ	-4644
▁arm	-4645
▁вещи	-4646
▁mlu	-4647
▁health	-4648
▁Za	-4649
▁говоря	-4650
▁пос	-4651
▁under	-4652
▁ти	-4653
▁jours	-4654
bol	-4655
▁Dě	-4656
▁Min	-4657
▁Одна	-4658
▁chez	-4659
▁home	-4660
▁impl	-4661
ware	-4662
iere	-4663
tschaft	-4664
▁sigur	-4665
имо	-4666
▁aff	-4667
▁auc	-4668
▁Prozent	-4669
ount	-4670
▁entrepr	-4671
▁pus	-4672
▁спра	-4673
кий	-4674
ichni	-4675
ческих	-4676
▁Cred	-4677
▁Parce	-4678
▁concent	-4679
ред	-4680
▁расска	-4681
▁future	-4682
цион	-4683
ature	-4684
▁ble	-4685
tere	-4686
▁ještě	-4687
▁ég	-4688
▁erste	-4689
ских	-4690
▁type	-4691
▁copil	-4692
ox	-4693
enne	-4694
▁обы	-4695
row	-4696
▁узна	-4697
ission	-4698
рю	-4699
▁другой	-4700
▁моей	-4701
▁такие	-4702
ším	-4703
vie	-4704
▁prom	-4705
off	-4706
kommen	-4707
▁observ	-4708
▁montrer	-4709
▁cle	-4710
rière	-4711
achte	-4712
▁pract	-4713
iquement	-4714
▁repre	-4715
▁70	-4716
▁всем	-4717
▁date	-4718
ultat	-4719
▁pret	-4720
▁présent	-4721
▁dată	-4722
▁everything	-4723
▁bonne	-4724
ograph	-4725
rank	-4726
▁При	-4727
▁сред	-4728
jím	-4729
▁Eins	-4730
▁read	-4731
▁verstehen	-4732
öt	-4733
ческой	-4734
▁ло	-4735
▁перед	-4736
▁mají	-4737
▁computer	-4738
ält	-4739
▁etwa	-4740
raft	-4741
▁arg	-4742
nal	-4743
iens	-4744
▁Okay	-4745
▁final	-4746
фе	-4747
hlt	-4748
▁24	-4749
▁voici	-4750
▁diag	-4751
▁ersten	-4752
▁totul	-4753
êt	-4754
ension	-4755
abei	-4756
▁eram	-4757
▁cineva	-4758
▁наз	-4759
вести	-4760
▁cause	-4761
▁пря	-4762
лага	-4763
ye	-4764
orul	-4765
▁meisten	-4766
▁endro	-4767
ium	-4768
▁mois	-4769
▁муж	-4770
▁Inform	-4771
▁würden	-4772
▁лишь	-4773
▁während	-4774
▁puțin	-4775
eles	-4776
рет	-4777
book	-4778
▁dezvolt	-4779
ake	-4780
▁ничего	-4781
ách	-4782
▁pur	-4783
▁год	-4784
licher	-4785
▁propri	-4786
▁tehnolog	-4787
▁Теперь	-4788
▁момент	-4789
▁кни	-4790
▁тот	-4791
▁using	-4792
▁image	-4793
коло	-4794
▁book	-4795
▁télé	-4796
▁imagin	-4797
ůže	-4798
▁Cu	-4799
▁become	-4800
сем	-4801
▁corps	-4802
▁încerc	-4803
▁проблема	-4804
▁space	-4805
overn	-4806
▁weit	-4807
▁normal	-4808
itions	-4809
▁verschieden	-4810
▁prieten	-4811
▁natürlich	-4812
▁savoir	-4813
ivă	-4814
kaz	-4815
▁project	-4816
▁développ	-4817
тить	-4818
▁left	-4819
▁ned	-4820
amil	-4821
▁rég	-4822
рави	-4823
▁виде	-4824
▁čas	-4825
ßer	-4826
▁pay	-4827
▁vari	-4828
▁kil	-4829
▁собира	-4830
жна	-4831
▁Trebuie	-4832
▁уч	-4833
▁daran	-4834
нию	-4835
ешь	-4836
agit	-4837
▁took	-4838
▁product	-4839
▁наде	-4840
▁puiss	-4841
beite	-4842
▁minutes	-4843
вается	-4844
▁произо	-4845
▁Kre	-4846
ležit	-4847
▁Face	-4848
▁merg	-4849
▁будут	-4850
▁contre	-4851
▁všechny	-4852
asch	-4853
▁Ма	-4854
▁Millionen	-4855
▁Inter	-4856
фо	-4857
ischer	-4858
▁grup	-4859
▁одно	-4860
▁nich	-4861
▁хорошо	-4862
нд	-4863
щего	-4864
ческий	-4865
▁perso	-4866
сом	-4867
▁Pute	-4868
▁leben	-4869
▁înțele	-4870
ultur	-4871
érieur	-4872
hat	-4873
цу	-4874
▁These	-4875
äng	-4876
pen	-4877
▁apă	-4878
▁ziem	-4879
▁обна	-4880
▁letzten	-4881
▁divers	-4882
în	-4883
▁seul	-4884
wir	-4885
▁ech	-4886
▁arată	-4887
▁warum	-4888
ote	-4889
стей	-4890
▁прав	-4891
став	-4892
▁India	-4893
▁orig	-4894
▁энерги	-4895
ís	-4896
▁acestea	-4897
ații	-4898
upart	-4899
▁plupart	-4900
▁немного	-4901
▁компью	-4902
ieurs	-4903
▁например	-4904
сит	-4905
▁geh	-4906
▁plă	-4907
ню	-4908
ifs	-4909
▁тоже	-4910
▁America	-4911
▁což	-4912
gor	-4913
▁tend	-4914
▁sense	-4915
cl	-4916
ăd	-4917
urz	-4918
iul	-4919
▁carte	-4920
еди	-4921
50	-4922
▁poți	-4923
▁maybe	-4924
▁quite	-4925
ilt	-4926
▁програм	-4927
▁doch	-4928
▁walk	-4929
▁vrai	-4930
▁extrem	-4931
▁Ihre	-4932
▁Daten	-4933
▁body	-4934
▁использова	-4935
▁ceux	-4936
tement	-4937
ernen	-4938
▁neur	-4939
▁déb	-4940
▁ţ	-4941
нно	-4942
▁viitor	-4943
▁money	-4944
▁podí	-4945
▁five	-4946
ţumesc	-4947
ставля	-4948
▁alb	-4949
of	-4950
▁John	-4951
▁снова	-4952
▁такое	-4953
▁schnell	-4954
itter	-4955
▁знаю	-4956
фри	-4957
xim	-4958
▁уда	-4959
▁meinen	-4960
▁nar	-4961
▁внима	-4962
▁meinem	-4963
▁consider	-4964
▁pred	-4965
▁job	-4966
ники	-4967
▁оно	-4968
▁матери	-4969
aupt	-4970
▁nes	-4971
▁malad	-4972
ută	-4973
▁Ва	-4974
▁mele	-4975
ož	-4976
iver	-4977
▁использовать	-4978
ôle	-4979
ième	-4980
▁коли	-4981
aza	-4982
▁bychom	-4983
вест	-4984
кус	-4985
ях	-4986
▁hor	-4987
▁světě	-4988
▁impact	-4989
▁затем	-4990
▁cli	-4991
▁наших	-4992
▁vytvoř	-4993
▁cho	-4994
точно	-4995
▁lassen	-4996
▁игра	-4997
▁ziemlich	-4998
▁ensuite	-4999
▁mít	-5000
▁понять	-5001
мента	-5002
irl	-5003
ivel	-5004
▁произво	-5005
icii	-5006
utz	-5007
innen	-5008
▁ging	-5009
▁jum	-5010
omb	-5011
ross	-5012
▁Pok	-5013
▁био	-5014
▁живо	-5015
iennent	-5016
раз	-5017
бор	-5018
▁příbě	-5019
legen	-5020
▁creat	-5021
alize	-5022
▁raison	-5023
adt	-5024
▁ге	-5025
▁Mill	-5026
▁sollte	-5027
▁nouvelle	-5028
▁Pot	-5029
▁doit	-5030
schied	-5031
▁место	-5032
anté	-5033
▁schop	-5034
▁долла	-5035
cial	-5036
▁problèmes	-5037
нем	-5038
là	-5039
▁mond	-5040
▁nimic	-5041
▁Pol	-5042
▁comes	-5043
▁fotograf	-5044
lá	-5045
alax	-5046
ying	-5047
▁répons	-5048
▁gouver	-5049
icher	-5050
▁venit	-5051
▁těchto	-5052
▁răspuns	-5053
▁Iată	-5054
▁Raum	-5055
▁слова	-5056
jist	-5057
weg	-5058
rod	-5059
▁without	-5060
▁особ	-5061
▁случае	-5062
▁wollte	-5063
лыша	-5064
ников	-5065
ption	-5066
mos	-5067
ward	-5068
▁dét	-5069
▁serait	-5070
▁Ast	-5071
esehen	-5072
▁food	-5073
zeug	-5074
dea	-5075
▁große	-5076
alent	-5077
même	-5078
▁petite	-5079
▁happened	-5080
esen	-5081
▁sollten	-5082
▁Schw	-5083
▁зву	-5084
▁элек	-5085
zk	-5086
▁свет	-5087
▁count	-5088
ýš	-5089
▁Here	-5090
▁îng	-5091
▁Ber	-5092
▁inten	-5093
ief	-5094
▁хоти	-5095
érience	-5096
ird	-5097
▁Let	-5098
öglichkeit	-5099
▁věc	-5100
otion	-5101
▁vier	-5102
▁sagt	-5103
zb	-5104
▁ainsi	-5105
NA	-5106
▁řekl	-5107
lung	-5108
▁asc	-5109
▁této	-5110
▁поэтому	-5111
▁problemă	-5112
▁produc	-5113
▁Ни	-5114
чить	-5115
lem	-5116
ující	-5117
▁полити	-5118
agt	-5119
quelle	-5120
ič	-5121
ун	-5122
▁Toto	-5123
▁primul	-5124
ových	-5125
▁mieux	-5126
▁govern	-5127
▁bro	-5128
▁lieu	-5129
▁sprechen	-5130
▁conv	-5131
▁mezi	-5132
▁фотографи	-5133
unft	-5134
▁ville	-5135
jte	-5136
чения	-5137
▁ак	-5138
ovou	-5139
▁business	-5140
▁мира	-5141
histoire	-5142
▁300	-5143
▁économ	-5144
жать	-5145
ora	-5146
▁nivel	-5147
▁Geld	-5148
▁Се	-5149
▁population	-5150
▁дости	-5151
теля	-5152
▁number	-5153
воз	-5154
ragen	-5155
▁пор	-5156
▁frum	-5157
▁otáz	-5158
▁asupra	-5159
gest	-5160
▁Vielen	-5161
pově	-5162
car	-5163
utions	-5164
▁celui	-5165
ero	-5166
vr	-5167
▁мас	-5168
▁части	-5169
ací	-5170
▁zile	-5171
▁dabei	-5172
▁mnoho	-5173
▁1,	-5174
мет	-5175
▁сот	-5176
▁object	-5177
jem	-5178
зыка	-5179
vert	-5180
▁foc	-5181
▁ü	-5182
▁interesting	-5183
▁ihrer	-5184
▁préc	-5185
▁împre	-5186
▁заме	-5187
▁veut	-5188
ünd	-5189
▁head	-5190
otos	-5191
▁nive	-5192
▁consum	-5193
▁such	-5194
ваться	-5195
▁changer	-5196
ěli	-5197
ский	-5198
чему	-5199
▁myš	-5200
▁côté	-5201
entiel	-5202
apt	-5203
atel	-5204
телей	-5205
▁intell	-5206
schein	-5207
▁profes	-5208
▁enough	-5209
ского	-5210
▁друг	-5211
oh	-5212
▁таких	-5213
▁mettre	-5214
▁миллио	-5215
ality	-5216
▁parents	-5217
▁puţin	-5218
ций	-5219
▁Ele	-5220
iunea	-5221
▁знаете	-5222
▁похо	-5223
ток	-5224
ters	-5225
▁Gro	-5226
▁Weg	-5227
▁könnten	-5228
чной	-5229
anger	-5230
ruck	-5231
▁глу	-5232
▁incroy	-5233
▁jim	-5234
▁class	-5235
▁Din	-5236
▁cut	-5237
▁diffic	-5238
▁197	-5239
▁air	-5240
▁mét	-5241
▁spect	-5242
ффек	-5243
дой	-5244
▁making	-5245
zie	-5246
usion	-5247
рован	-5248
alif	-5249
imente	-5250
▁cours	-5251
▁Ве	-5252
▁Bien	-5253
▁Plan	-5254
▁times	-5255
itat	-5256
omat	-5257
▁încât	-5258
▁рассказа	-5259
érer	-5260
▁pan	-5261
▁vâr	-5262
aufen	-5263
▁energy	-5264
▁penser	-5265
▁special	-5266
▁niciodată	-5267
▁talking	-5268
igentlich	-5269
мина	-5270
▁kids	-5271
▁соци	-5272
▁приш	-5273
▁ajuns	-5274
зе	-5275
eră	-5276
nut	-5277
▁dintr	-5278
▁rozhod	-5279
▁appro	-5280
▁истории	-5281
▁осо	-5282
örper	-5283
▁кол	-5284
▁ganze	-5285
▁еще	-5286
▁ach	-5287
ностью	-5288
äter	-5289
▁char	-5290
▁modè	-5291
▁desch	-5292
▁réalité	-5293
gram	-5294
▁représ	-5295
▁punct	-5296
▁fantast	-5297
▁corp	-5298
▁ар	-5299
▁Dann	-5300
▁online	-5301
▁eg	-5302
▁merge	-5303
▁Comment	-5304
jící	-5305
▁Ende	-5306
▁mensch	-5307
ități	-5308
▁inspir	-5309
▁Danke	-5310
▁Proto	-5311
hor	-5312
▁ber	-5313
▁weniger	-5314
мой	-5315
řád	-5316
inea	-5317
▁část	-5318
▁mass	-5319
▁lib	-5320
▁azi	-5321
▁genet	-5322
▁здо	-5323
▁меся	-5324
▁passer	-5325
odu	-5326
▁идея	-5327
▁sicher	-5328
▁Apoi	-5329
▁brau	-5330
ani	-5331
▁crit	-5332
emeins	-5333
▁wr	-5334
▁Spiel	-5335
▁machine	-5336
▁vrea	-5337
▁side	-5338
itive	-5339
▁half	-5340
ujeme	-5341
ита	-5342
aţii	-5343
ческого	-5344
▁lives	-5345
▁Imag	-5346
él	-5347
▁carb	-5348
▁week	-5349
êmes	-5350
ständ	-5351
ately	-5352
rope	-5353
▁Can	-5354
▁femme	-5355
▁getting	-5356
▁eas	-5357
▁quat	-5358
▁camp	-5359
▁dolari	-5360
reau	-5361
iquer	-5362
▁cercet	-5363
▁окру	-5364
вым	-5365
▁răm	-5366
нец	-5367
ira	-5368
▁avaient	-5369
itoare	-5370
▁Ang	-5371
▁base	-5372
▁jemand	-5373
▁coming	-5374
▁měli	-5375
▁bedeutet	-5376
atch	-5377
▁impos	-5378
▁ocean	-5379
▁Боль	-5380
▁gouvern	-5381
кро	-5382
▁éch	-5383
▁băr	-5384
action	-5385
▁minute	-5386
▁mici	-5387
ван	-5388
▁sn	-5389
▁кри	-5390
▁свой	-5391
▁idee	-5392
▁любо	-5393
ogen	-5394
▁vr	-5395
▁proč	-5396
▁ordin	-5397
▁196	-5398
▁Cette	-5399
▁Fil	-5400
▁одной	-5401
▁USA	-5402
annt	-5403
▁знаем	-5404
боль	-5405
рим	-5406
▁Facebook	-5407
▁тер	-5408
▁Mann	-5409
▁живот	-5410
▁Bon	-5411
▁Men	-5412
▁нео	-5413
▁building	-5414
▁Schl	-5415
▁sound	-5416
вор	-5417
▁către	-5418
▁важ	-5419
▁stop	-5420
cem	-5421
▁около	-5422
сла	-5423
▁altă	-5424
▁уг	-5425
idée	-5426
▁convers	-5427
чает	-5428
▁partea	-5429
▁trouve	-5430
▁другие	-5431
prit	-5432
ního	-5433
▁Для	-5434
▁Děkuji	-5435
▁individu	-5436
most	-5437
cup	-5438
▁images	-5439
▁difficile	-5440
▁colle	-5441
▁laquelle	-5442
▁чего	-5443
▁сча	-5444
▁parl	-5445
orme	-5446
▁прекра	-5447
ollar	-5448
icat	-5449
work	-5450
▁první	-5451
▁propos	-5452
▁Denn	-5453
▁told	-5454
▁люби	-5455
▁seama	-5456
▁kleinen	-5457
тие	-5458
ptăm	-5459
▁moc	-5460
▁équ	-5461
ierten	-5462
▁darauf	-5463
▁Technologie	-5464
▁tard	-5465
▁подоб	-5466
▁seem	-5467
▁pen	-5468
▁petre	-5469
éré	-5470
вую	-5471
▁verl	-5472
▁nehmen	-5473
▁près	-5474
▁fig	-5475
▁pretty	-5476
▁later	-5477
▁Har	-5478
rateg	-5479
льные	-5480
▁zde	-5481
▁наблю	-5482
▁vont	-5483
▁Earth	-5484
▁bad	-5485
organ	-5486
fühl	-5487
▁Famil	-5488
▁syn	-5489
bes	-5490
▁abil	-5491
▁ему	-5492
▁singur	-5493
▁sujet	-5494
▁реально	-5495
▁numai	-5496
ităţi	-5497
▁photo	-5498
șit	-5499
▁stuff	-5500
tate	-5501
▁propre	-5502
▁împreună	-5503
rul	-5504
▁makes	-5505
▁evid	-5506
работа	-5507
▁dobr	-5508
▁nour	-5509
▁unseren	-5510
▁ensemble	-5511
рази	-5512
▁поль	-5513
èg	-5514
▁зем	-5515
льной	-5516
ennt	-5517
▁Den	-5518
▁Aceste	-5519
▁komple	-5520
▁стал	-5521
▁места	-5522
▁saw	-5523
inz	-5524
али	-5525
▁сту	-5526
▁людя	-5527
orii	-5528
▁compte	-5529
▁emp	-5530
▁tă	-5531
ously	-5532
▁bekommen	-5533
avoir	-5534
▁pain	-5535
aur	-5536
▁ги	-5537
▁signif	-5538
жды	-5539
▁Wissenschaft	-5540
▁hope	-5541
▁democ	-5542
iff	-5543
▁смы	-5544
▁teach	-5545
зай	-5546
!"	-5547
лё	-5548
usst	-5549
шие	-5550
▁reu	-5551
▁dnes	-5552
▁vorbe	-5553
ift	-5554
▁кли	-5555
til	-5556
▁core	-5557
▁доро	-5558
лов	-5559
▁Sache	-5560
ect	-5561
agne	-5562
▁ing	-5563
▁oamenilor	-5564
vis	-5565
▁ie	-5566
▁изу	-5567
▁dra	-5568
▁Pokud	-5569
▁guver	-5570
правля	-5571
▁departe	-5572
вод	-5573
▁хотел	-5574
lin	-5575
ode	-5576
дёт	-5577
циона	-5578
▁souvent	-5579
▁Mi	-5580
рия	-5581
▁cy	-5582
Unis	-5583
▁across	-5584
▁mohl	-5585
▁sera	-5586
oust	-5587
mar	-5588
рев	-5589
cích	-5590
oman	-5591
мати	-5592
▁Ces	-5593
▁santé	-5594
▁pal	-5595
▁znamen	-5596
▁arbeiten	-5597
ende	-5598
▁doi	-5599
▁кла	-5600
gehen	-5601
▁стро	-5602
oupe	-5603
▁spiel	-5604
▁devenit	-5605
▁transport	-5606
▁probably	-5607
▁room	-5608
▁самое	-5609
▁nic	-5610
▁vorba	-5611
▁deoarece	-5612
▁experience	-5613
ших	-5614
ётся	-5615
raient	-5616
▁Mein	-5617
▁тому	-5618
▁large	-5619
quer	-5620
▁înţele	-5621
▁erw	-5622
▁heiß	-5623
▁Design	-5624
▁family	-5625
ск	-5626
▁număr	-5627
▁importante	-5628
туа	-5629
ез	-5630
▁Chris	-5631
▁luat	-5632
▁Pourquoi	-5633
▁надо	-5634
нок	-5635
iction	-5636
onnement	-5637
▁stra	-5638
▁Ur	-5639
▁communaut	-5640
▁parc	-5641
▁quant	-5642
▁Mod	-5643
▁site	-5644
▁уни	-5645
жем	-5646
rä	-5647
ser	-5648
▁beste	-5649
▁putern	-5650
▁найти	-5651
▁спе	-5652
▁instit	-5653
▁anything	-5654
bí	-5655
▁dise	-5656
▁certains	-5657
▁Ну	-5658
▁Sel	-5659
▁else	-5660
▁До	-5661
строй	-5662
▁patients	-5663
▁anal	-5664
▁relations	-5665
▁bune	-5666
мя	-5667
▁моло	-5668
▁perspect	-5669
▁virus	-5670
ствовать	-5671
iri	-5672
zení	-5673
▁vlastně	-5674
сса	-5675
▁joc	-5676
▁civil	-5677
▁отнош	-5678
▁mut	-5679
▁проблемы	-5680
▁конце	-5681
zlich	-5682
▁tradition	-5683
stit	-5684
onne	-5685
▁complete	-5686
▁coup	-5687
çons	-5688
▁реб	-5689
▁liter	-5690
▁kont	-5691
ots	-5692
▁fest	-5693
aca	-5694
lex	-5695
cy	-5696
волю	-5697
isen	-5698
ash	-5699
▁мень	-5700
▁вели	-5701
ether	-5702
▁nouă	-5703
ley	-5704
▁2000	-5705
▁patru	-5706
льту	-5707
нять	-5708
iven	-5709
▁extr	-5710
▁vypad	-5711
▁celule	-5712
▁chance	-5713
▁plast	-5714
дать	-5715
▁кро	-5716
▁uč	-5717
▁add	-5718
▁société	-5719
uft	-5720
▁West	-5721
▁мест	-5722
▁ut	-5723
▁Möglichkeit	-5724
поло	-5725
▁долларов	-5726
isse	-5727
aften	-5728
▁says	-5729
avons	-5730
▁Avem	-5731
frast	-5732
▁city	-5733
▁reason	-5734
ruktur	-5735
▁ее	-5736
▁rych	-5737
▁ill	-5738
zint	-5739
▁différentes	-5740
▁lorsque	-5741
raf	-5742
▁sat	-5743
▁mur	-5744
▁scientif	-5745
▁beginn	-5746
ize	-5747
▁ep	-5748
ides	-5749
▁byly	-5750
▁sé	-5751
iges	-5752
▁byli	-5753
▁young	-5754
oa	-5755
zeu	-5756
▁consci	-5757
emi	-5758
тели	-5759
▁настоя	-5760
ared	-5761
вание	-5762
▁Tohle	-5763
▁animal	-5764
▁станови	-5765
IV	-5766
▁дово	-5767
▁Energie	-5768
▁моя	-5769
▁local	-5770
▁Эти	-5771
▁stran	-5772
▁total	-5773
▁answer	-5774
ender	-5775
▁autour	-5776
▁všichni	-5777
moi	-5778
regist	-5779
▁эффек	-5780
▁surv	-5781
▁milion	-5782
▁donne	-5783
▁laiss	-5784
▁интерес	-5785
▁некоторые	-5786
ning	-5787
arten	-5788
▁mole	-5789
▁dachte	-5790
▁обнаружи	-5791
▁пов	-5792
▁насе	-5793
▁gri	-5794
▁interesant	-5795
ством	-5796
énergie	-5797
▁спу	-5798
▁influ	-5799
rü	-5800
▁Met	-5801
▁erf	-5802
▁expr	-5803
▁wonder	-5804
▁образова	-5805
щения	-5806
▁erst	-5807
idé	-5808
ские	-5809
▁poţi	-5810
mé	-5811
ждения	-5812
entă	-5813
appelle	-5814
▁welche	-5815
▁zam	-5816
▁simil	-5817
▁utiliser	-5818
▁Сейчас	-5819
▁стать	-5820
▁Bil	-5821
esearch	-5822
▁všechno	-5823
▁;	-5824
▁забо	-5825
▁соверш	-5826
льный	-5827
▁kleine	-5828
▁Са	-5829
▁работы	-5830
▁Tw	-5831
nah	-5832
▁rev	-5833
▁вне	-5834
▁days	-5835
вети	-5836
ury	-5837
тор	-5838
▁haut	-5839
▁larg	-5840
).	-5841
▁möglich	-5842
▁Ke	-5843
▁ways	-5844
▁crede	-5845
▁iP	-5846
▁bat	-5847
▁opportun	-5848
▁structure	-5849
uls	-5850
▁cres	-5851
▁surface	-5852
▁eigentlich	-5853
▁DNA	-5854
▁particip	-5855
lam	-5856
▁помощью	-5857
нах	-5858
▁state	-5859
▁jo	-5860
скую	-5861
▁Eh	-5862
▁archite	-5863
▁rencont	-5864
▁table	-5865
▁sud	-5866
▁сли	-5867
сколь	-5868
ément	-5869
scheinlich	-5870
▁living	-5871
▁защи	-5872
бора	-5873
▁lin	-5874
будь	-5875
▁zone	-5876
ěk	-5877
рения	-5878
▁chim	-5879
▁allow	-5880
yt	-5881
▁ihm	-5882
not	-5883
▁découver	-5884
дии	-5885
▁какой	-5886
▁brauchen	-5887
▁mate	-5888
▁recent	-5889
▁trim	-5890
▁vorbesc	-5891
▁возможность	-5892
anda	-5893
▁systém	-5894
▁Du	-5895
opf	-5896
▁internet	-5897
деля	-5898
▁equ	-5899
▁siè	-5900
arder	-5901
▁connect	-5902
▁respect	-5903
▁hlav	-5904
liš	-5905
▁amaz	-5906
▁începe	-5907
▁asi	-5908
▁Sc	-5909
▁клет	-5910
▁сами	-5911
▁Потому	-5912
▁famille	-5913
immt	-5914
дра	-5915
indre	-5916
▁incl	-5917
▁kole	-5918
ваю	-5919
▁ideea	-5920
▁reste	-5921
▁minun	-5922
▁lidi	-5923
ický	-5924
▁успе	-5925
▁having	-5926
▁ign	-5927
▁quatre	-5928
роде	-5929
▁кор	-5930
▁plat	-5931
▁bringen	-5932
▁Char	-5933
▁picture	-5934
ald	-5935
▁потре	-5936
▁fru	-5937
▁benut	-5938
пера	-5939
▁Нам	-5940
▁optim	-5941
▁hommes	-5942
ames	-5943
▁две	-5944
чества	-5945
▁myslím	-5946
▁permet	-5947
▁говорит	-5948
amer	-5949
нали	-5950
▁Zuk	-5951
▁vite	-5952
▁parle	-5953
rir	-5954
▁goes	-5955
▁sebe	-5956
▁début	-5957
▁Stadt	-5958
▁obje	-5959
argent	-5960
▁дизай	-5961
pp	-5962
▁bé	-5963
▁вза	-5964
ătă	-5965
▁миллиар	-5966
▁fundament	-5967
▁seit	-5968
▁stră	-5969
▁rezol	-5970
ovala	-5971
▁schl	-5972
▁takže	-5973
▁необходимо	-5974
▁Ever	-5975
▁сложно	-5976
bun	-5977
▁asked	-5978
▁každý	-5979
▁entend	-5980
▁ungl	-5981
▁Zukunft	-5982
ația	-5983
чный	-5984
▁gén	-5985
▁почти	-5986
▁udělat	-5987
▁кажется	-5988
unes	-5989
▁rele	-5990
äft	-5991
▁Wor	-5992
▁och	-5993
▁voll	-5994
hol	-5995
▁своих	-5996
▁impr	-5997
▁trouvé	-5998
▁iss	-5999
ствие	-6000
ступа	-6001
itude	-6002
▁contra	-6003
▁countries	-6004
chs	-6005
▁Elles	-6006
▁HIV	-6007
etzen	-6008
▁Го	-6009
icky	-6010
▁связа	-6011
▁fall	-6012
▁часто	-6013
fte	-6014
зне	-6015
ließ	-6016
▁greu	-6017
hin	-6018
ilen	-6019
▁Era	-6020
▁вну	-6021
▁работает	-6022
прави	-6023
▁challen	-6024
▁elekt	-6025
жить	-6026
▁myself	-6027
казыва	-6028
▁Poate	-6029
▁Seite	-6030
▁данные	-6031
▁inside	-6032
▁míst	-6033
▁yet	-6034
▁cest	-6035
▁student	-6036
▁ж	-6037
gem	-6038
▁stre	-6039
▁дело	-6040
▁Jap	-6041
▁Лю	-6042
▁almost	-6043
bel	-6044
orth	-6045
▁dan	-6046
▁sug	-6047
▁keep	-6048
ym	-6049
richt	-6050
rique	-6051
▁создать	-6052
nout	-6053
▁dvě	-6054
▁nech	-6055
▁vidé	-6056
▁maison	-6057
▁allons	-6058
eti	-6059
èce	-6060
вала	-6061
▁Пер	-6062
auvais	-6063
▁течение	-6064
ix	-6065
▁toți	-6066
▁construit	-6067
ítě	-6068
▁mulți	-6069
▁solution	-6070
ință	-6071
▁velk	-6072
▁wenig	-6073
str	-6074
циен	-6075
▁Pre	-6076
▁zis	-6077
▁двух	-6078
zek	-6079
▁Афри	-6080
▁intern	-6081
▁happens	-6082
▁souč	-6083
▁perfect	-6084
▁Engl	-6085
▁Lie	-6086
▁doc	-6087
ibles	-6088
▁škol	-6089
▁großen	-6090
▁Dollar	-6091
▁неве	-6092
▁sure	-6093
▁fascin	-6094
▁Gew	-6095
▁suff	-6096
▁force	-6097
ěř	-6098
▁Fir	-6099
aga	-6100
äus	-6101
тки	-6102
▁дома	-6103
achsen	-6104
▁интер	-6105
▁Est	-6106
▁Que	-6107
▁вой	-6108
▁kol	-6109
chan	-6110
org	-6111
▁fiz	-6112
▁maș	-6113
▁réponse	-6114
пасно	-6115
щение	-6116
amb	-6117
In	-6118
tenir	-6119
where	-6120
сё	-6121
irs	-6122
▁взгля	-6123
▁видео	-6124
▁Există	-6125
▁etc	-6126
▁connaiss	-6127
▁Ave	-6128
▁deja	-6129
▁Dav	-6130
▁работу	-6131
jen	-6132
▁400	-6133
▁поддер	-6134
ás	-6135
▁bir	-6136
▁km	-6137
▁ше	-6138
▁dv	-6139
▁прямо	-6140
▁спроси	-6141
▁этому	-6142
▁хи	-6143
▁skutečnosti	-6144
šení	-6145
▁Not	-6146
▁potřebu	-6147
▁Bez	-6148
”.	-6149
orsch	-6150
▁telefon	-6151
žen	-6152
▁hy	-6153
▁presque	-6154
▁работать	-6155
▁girl	-6156
▁seen	-6157
▁heure	-6158
▁nothing	-6159
▁jos	-6160
ually	-6161
ají	-6162
▁tý	-6163
шком	-6164
rions	-6165
▁également	-6166
hand	-6167
▁спа	-6168
▁System	-6169
▁таким	-6170
▁Rob	-6171
▁procent	-6172
▁бли	-6173
льных	-6174
▁Fall	-6175
ged	-6176
▁nume	-6177
▁Män	-6178
▁sit	-6179
▁ves	-6180
▁niveau	-6181
gab	-6182
▁Aș	-6183
▁От	-6184
kten	-6185
▁должен	-6186
bli	-6187
▁озна	-6188
▁někol	-6189
▁întâl	-6190
▁single	-6191
▁gesehen	-6192
▁mauvais	-6193
▁mohli	-6194
▁Tot	-6195
abl	-6196
omp	-6197
▁Ca	-6198
ètres	-6199
▁смер	-6200
▁ext	-6201
ногда	-6202
▁семь	-6203
▁извест	-6204
apoi	-6205
▁oft	-6206
cit	-6207
зя	-6208
вом	-6209
ience	-6210
▁ведь	-6211
▁ales	-6212
sehen	-6213
▁весь	-6214
▁complet	-6215
quel	-6216
eah	-6217
▁тр	-6218
▁grav	-6219
▁billion	-6220
▁možná	-6221
▁Col	-6222
▁aer	-6223
teurs	-6224
▁ov	-6225
▁čl	-6226
gment	-6227
▁стали	-6228
▁micro	-6229
▁market	-6230
▁celle	-6231
▁später	-6232
▁увидеть	-6233
▁milliards	-6234
ernt	-6235
▁bewe	-6236
жении	-6237
▁Weise	-6238
▁neby	-6239
▁remember	-6240
▁cells	-6241
▁собствен	-6242
▁cad	-6243
нибудь	-6244
пыта	-6245
▁fai	-6246
▁Mars	-6247
▁lumii	-6248
▁arr	-6249
▁repe	-6250
▁rais	-6251
▁своего	-6252
▁cellules	-6253
ube	-6254
▁Nord	-6255
▁Дж	-6256
▁pár	-6257
▁přem	-6258
▁galax	-6259
▁vict	-6260
▁культу	-6261
▁безо	-6262
▁precum	-6263
▁capital	-6264
ăzi	-6265
▁Pa	-6266
ester	-6267
▁obser	-6268
halt	-6269
ready	-6270
▁mohou	-6271
▁while	-6272
▁abychom	-6273
слу	-6274
▁mère	-6275
▁accept	-6276
osp	-6277
тере	-6278
▁apar	-6279
▁wrong	-6280
▁мозга	-6281
гли	-6282
▁began	-6283
▁физи	-6284
▁attention	-6285
▁людям	-6286
▁Mutter	-6287
ties	-6288
▁Ged	-6289
▁move	-6290
▁proch	-6291
▁tellement	-6292
▁tehnologie	-6293
▁viața	-6294
▁карти	-6295
▁vielen	-6296
▁natural	-6297
▁Grup	-6298
▁putut	-6299
шим	-6300
iecte	-6301
▁außer	-6302
▁acestui	-6303
cis	-6304
▁niem	-6305
▁основ	-6306
▁déf	-6307
▁proc	-6308
▁faptul	-6309
▁значит	-6310
nf	-6311
▁zap	-6312
▁felul	-6313
▁удиви	-6314
DN	-6315
▁rich	-6316
▁dělat	-6317
▁Почему	-6318
ряд	-6319
▁уве	-6320
ьте	-6321
▁Cel	-6322
▁ore	-6323
▁zab	-6324
▁вид	-6325
aliforn	-6326
▁вра	-6327
▁Aici	-6328
▁line	-6329
▁étudi	-6330
▁sfâr	-6331
▁написа	-6332
чен	-6333
uel	-6334
outh	-6335
hab	-6336
▁inde	-6337
▁truc	-6338
▁особенно	-6339
ikan	-6340
▁Moment	-6341
▁faisons	-6342
▁produit	-6343
lád	-6344
▁Voilà	-6345
▁amazing	-6346
▁rád	-6347
ribu	-6348
ném	-6349
▁cul	-6350
▁drum	-6351
▁děti	-6352
▁věcí	-6353
▁keinen	-6354
yní	-6355
▁Lond	-6356
▁позволя	-6357
icle	-6358
▁modul	-6359
▁закон	-6360
▁partir	-6361
нами	-6362
▁arrive	-6363
▁vů	-6364
▁oraș	-6365
▁roce	-6366
▁true	-6367
▁planète	-6368
▁Bü	-6369
▁Per	-6370
▁întâmplat	-6371
ваем	-6372
▁Computer	-6373
из	-6374
▁aș	-6375
▁Why	-6376
нен	-6377
еха	-6378
irurg	-6379
inform	-6380
▁complète	-6381
▁меди	-6382
rează	-6383
▁often	-6384
▁искус	-6385
▁both	-6386
▁conse	-6387
▁Bro	-6388
▁hol	-6389
▁миллионов	-6390
Be	-6391
той	-6392
ným	-6393
▁Dr	-6394
▁многие	-6395
нные	-6396
▁Dem	-6397
▁вла	-6398
▁material	-6399
unst	-6400
▁bene	-6401
▁versuchen	-6402
ži	-6403
▁Stra	-6404
▁взаимо	-6405
enez	-6406
▁perform	-6407
▁basically	-6408
nik	-6409
tie	-6410
iful	-6411
▁clin	-6412
reiben	-6413
▁Sup	-6414
▁деся	-6415
▁refer	-6416
cu	-6417
оро	-6418
▁amb	-6419
▁Bi	-6420
▁self	-6421
▁muz	-6422
ători	-6423
▁изобра	-6424
agn	-6425
onie	-6426
poque	-6427
▁выра	-6428
▁donné	-6429
▁lumière	-6430
yer	-6431
▁оче	-6432
▁poch	-6433
▁Jetzt	-6434
▁spé	-6435
▁confl	-6436
▁Давайте	-6437
▁difficult	-6438
▁Groß	-6439
▁Licht	-6440
▁langu	-6441
▁thous	-6442
jít	-6443
▁Ja	-6444
▁Ort	-6445
▁Tod	-6446
▁looks	-6447
▁personal	-6448
▁ti	-6449
▁Körper	-6450
▁months	-6451
ющей	-6452
▁ä	-6453
▁řík	-6454
▁cool	-6455
▁hoch	-6456
issent	-6457
▁level	-6458
▁commence	-6459
▁Spe	-6460
▁photogra	-6461
▁hear	-6462
▁possibil	-6463
лан	-6464
pend	-6465
estaur	-6466
▁язы	-6467
▁scris	-6468
▁bani	-6469
▁pacient	-6470
▁оказа	-6471
▁Milliar	-6472
▁sna	-6473
▁savons	-6474
▁unglaub	-6475
unter	-6476
▁night	-6477
▁viață	-6478
▁gesagt	-6479
▁vision	-6480
ствия	-6481
▁empl	-6482
▁copiii	-6483
cea	-6484
lí	-6485
▁тут	-6486
ările	-6487
▁Menge	-6488
usement	-6489
▁bab	-6490
öffent	-6491
▁saying	-6492
ati	-6493
▁rând	-6494
▁already	-6495
ney	-6496
▁kdo	-6497
mente	-6498
▁Form	-6499
▁Organ	-6500
▁dispar	-6501
side	-6502
▁environment	-6503
čně	-6504
▁las	-6505
▁spir	-6506
▁слож	-6507
importe	-6508
.,	-6509
▁ум	-6510
щих	-6511
ните	-6512
▁собой	-6513
▁согла	-6514
▁коро	-6515
▁Warum	-6516
▁trochu	-6517
▁technologies	-6518
▁guy	-6519
▁once	-6520
▁Fol	-6521
▁heißt	-6522
▁watch	-6523
▁învăț	-6524
▁ситуа	-6525
▁экспе	-6526
▁cart	-6527
▁spol	-6528
▁înch	-6529
▁недо	-6530
▁multă	-6531
ždy	-6532
ienne	-6533
▁ideas	-6534
▁ligne	-6535
▁použí	-6536
▁ă	-6537
▁přip	-6538
▁statist	-6539
▁fung	-6540
▁order	-6541
▁aveam	-6542
▁signifie	-6543
▁changement	-6544
šen	-6545
▁dokon	-6546
▁gă	-6547
▁matemat	-6548
▁сти	-6549
▁consid	-6550
▁Zwe	-6551
stead	-6552
▁Augen	-6553
▁vidět	-6554
▁tit	-6555
▁réfl	-6556
▁impro	-6557
▁discover	-6558
▁faites	-6559
▁situation	-6560
žas	-6561
enf	-6562
▁problems	-6563
▁research	-6564
▁modern	-6565
rei	-6566
▁pozor	-6567
▁состоя	-6568
▁vue	-6569
konom	-6570
▁toţi	-6571
ähigkeit	-6572
▁animale	-6573
▁система	-6574
să	-6575
▁mom	-6576
▁thé	-6577
▁убе	-6578
▁luni	-6579
▁glauben	-6580
less	-6581
либо	-6582
▁fille	-6583
itz	-6584
▁indem	-6585
▁numit	-6586
▁compar	-6587
▁coû	-6588
▁Schul	-6589
nung	-6590
▁вол	-6591
▁decis	-6592
▁большин	-6593
oix	-6594
▁nä	-6595
▁друга	-6596
▁sah	-6597
rain	-6598
▁Есть	-6599
▁commencer	-6600
▁voilà	-6601
мерикан	-6602
▁funktioniert	-6603
inţă	-6604
роятно	-6605
ential	-6606
▁idées	-6607
▁замеча	-6608
▁appar	-6609
▁говорить	-6610
▁ukáz	-6611
▁совсем	-6612
▁comput	-6613
▁posled	-6614
▁během	-6615
▁Bo	-6616
oren	-6617
estellt	-6618
▁имеет	-6619
▁ganzen	-6620
Ich	-6621
▁plusieurs	-6622
Oh	-6623
▁Ou	-6624
▁web	-6625
ograf	-6626
▁филь	-6627
▁looked	-6628
▁ожи	-6629
gesch	-6630
▁Spra	-6631
▁пациен	-6632
круг	-6633
▁представля	-6634
▁Sta	-6635
ändert	-6636
▁Probleme	-6637
мся	-6638
▁причи	-6639
▁cand	-6640
▁byste	-6641
▁nikdy	-6642
▁matter	-6643
▁nak	-6644
▁план	-6645
ější	-6646
stup	-6647
▁année	-6648
▁объяс	-6649
rů	-6650
▁bed	-6651
▁прово	-6652
ший	-6653
▁Ha	-6654
▁lup	-6655
▁schim	-6656
▁décid	-6657
▁groupe	-6658
пыт	-6659
▁târ	-6660
▁oric	-6661
▁zjist	-6662
▁heart	-6663
▁săptăm	-6664
тами	-6665
▁evolu	-6666
ieht	-6667
▁tas	-6668
▁ответи	-6669
▁irgendw	-6670
ested	-6671
▁Зем	-6672
▁homme	-6673
▁podob	-6674
▁каждо	-6675
▁couple	-6676
▁быстро	-6677
ellschaft	-6678
▁Mai	-6679
▁age	-6680
▁fal	-6681
▁must	-6682
illage	-6683
▁Europ	-6684
▁produce	-6685
▁schle	-6686
вид	-6687
▁Здесь	-6688
ců	-6689
▁оп	-6690
▁уста	-6691
mittel	-6692
ît	-6693
▁travailler	-6694
▁petits	-6695
▁технологии	-6696
строи	-6697
▁rela	-6698
zboi	-6699
▁Produ	-6700
öl	-6701
tez	-6702
▁bew	-6703
▁văd	-6704
estli	-6705
▁identif	-6706
▁сделали	-6707
▁blo	-6708
ností	-6709
rt	-6710
▁eigenen	-6711
▁довольно	-6712
ball	-6713
▁vin	-6714
▁căut	-6715
▁слишком	-6716
кт	-6717
от	-6718
abile	-6719
cture	-6720
▁își	-6721
aide	-6722
▁Entwick	-6723
▁différents	-6724
▁kre	-6725
▁верну	-6726
▁pic	-6727
oria	-6728
мети	-6729
▁text	-6730
iot	-6731
ziu	-6732
▁within	-6733
▁înapoi	-6734
▁прош	-6735
▁schaffen	-6736
▁tém	-6737
▁appris	-6738
▁communic	-6739
▁Europe	-6740
hi	-6741
▁săn	-6742
▁увер	-6743
ovu	-6744
▁history	-6745
▁представ	-6746
▁nouvelles	-6747
▁větš	-6748
▁speak	-6749
řejmě	-6750
▁stellen	-6751
▁одного	-6752
▁community	-6753
▁collect	-6754
▁anum	-6755
▁vale	-6756
▁vert	-6757
▁incre	-6758
▁beautiful	-6759
urer	-6760
▁jedno	-6761
bres	-6762
▁точно	-6763
%.	-6764
▁lan	-6765
ollow	-6766
▁доступ	-6767
▁35	-6768
▁видеть	-6769
▁problema	-6770
▁ху	-6771
▁tis	-6772
▁Воз	-6773
▁lernen	-6774
▁întreg	-6775
зации	-6776
▁mică	-6777
▁появи	-6778
▁arbeite	-6779
ёз	-6780
▁vac	-6781
▁Buch	-6782
dr	-6783
▁Sun	-6784
▁сек	-6785
▁Aust	-6786
▁jurul	-6787
▁ev	-6788
▁совершенно	-6789
▁vient	-6790
▁guvern	-6791
▁начали	-6792
▁ak	-6793
▁deg	-6794
▁marché	-6795
▁fünf	-6796
érique	-6797
▁demon	-6798
▁Patient	-6799
šel	-6800
ёте	-6801
чные	-6802
▁Haus	-6803
▁контро	-6804
▁неболь	-6805
roj	-6806
▁dlou	-6807
riture	-6808
▁города	-6809
▁friends	-6810
van	-6811
atique	-6812
▁works	-6813
▁zajím	-6814
▁Эта	-6815
či	-6816
▁měl	-6817
▁четы	-6818
iker	-6819
▁altern	-6820
▁постоя	-6821
стой	-6822
▁hätte	-6823
▁Sau	-6824
▁explor	-6825
▁dus	-6826
▁requ	-6827
▁říká	-6828
▁jedes	-6829
▁past	-6830
řit	-6831
▁humain	-6832
▁retour	-6833
▁показыва	-6834
dle	-6835
şit	-6836
▁kne	-6837
thers	-6838
alität	-6839
▁всему	-6840
▁figure	-6841
▁miliarde	-6842
ум	-6843
oasă	-6844
plně	-6845
folg	-6846
ění	-6847
щие	-6848
ском	-6849
bit	-6850
▁ostat	-6851
▁măr	-6852
▁оке	-6853
▁rése	-6854
▁whether	-6855
▁jeu	-6856
▁достаточно	-6857
▁zb	-6858
▁îşi	-6859
▁demandé	-6860
oires	-6861
▁team	-6862
▁favor	-6863
ăl	-6864
accord	-6865
▁voulez	-6866
éro	-6867
рами	-6868
▁fix	-6869
▁Brit	-6870
▁примерно	-6871
ibile	-6872
▁result	-6873
▁uman	-6874
▁víc	-6875
▁capt	-6876
▁tête	-6877
▁Selbst	-6878
▁ép	-6879
oase	-6880
▁rece	-6881
▁wasn	-6882
▁ск	-6883
lug	-6884
▁cru	-6885
bas	-6886
льше	-6887
▁бед	-6888
▁hodně	-6889
▁ém	-6890
▁Protože	-6891
▁sw	-6892
▁Этот	-6893
▁зо	-6894
▁San	-6895
lichkeit	-6896
sí	-6897
▁Twitter	-6898
▁znamená	-6899
▁спи	-6900
vant	-6901
zeich	-6902
▁života	-6903
▁gute	-6904
▁cuvin	-6905
▁изменить	-6906
▁entire	-6907
▁digital	-6908
▁зда	-6909
▁allez	-6910
tellung	-6911
▁partout	-6912
ráv	-6913
▁begann	-6914
▁лег	-6915
stand	-6916
▁mode	-6917
▁méde	-6918
achten	-6919
▁élect	-6920
▁someone	-6921
aden	-6922
▁sac	-6923
▁стран	-6924
▁comport	-6925
aute	-6926
▁peur	-6927
▁влия	-6928
col	-6929
▁ради	-6930
gefähr	-6931
▁mâ	-6932
▁Natur	-6933
▁hot	-6934
ствуют	-6935
▁aspect	-6936
▁аб	-6937
▁Bab	-6938
urité	-6939
жде	-6940
▁beim	-6941
▁enfant	-6942
âce	-6943
omes	-6944
чка	-6945
▁нрави	-6946
▁acestei	-6947
▁пои	-6948
▁Erde	-6949
arr	-6950
льного	-6951
тят	-6952
▁stejně	-6953
jde	-6954
▁ní	-6955
▁стру	-6956
▁del	-6957
yslím	-6958
▁helfen	-6959
▁demande	-6960
▁lăs	-6961
▁mij	-6962
ерт	-6963
▁gândit	-6964
▁друз	-6965
▁urb	-6966
▁бра	-6967
▁практи	-6968
▁говорят	-6969
▁sentiment	-6970
▁количество	-6971
▁dă	-6972
▁words	-6973
can	-6974
ходят	-6975
▁вокруг	-6976
▁vors	-6977
říklad	-6978
▁stále	-6979
▁история	-6980
них	-6981
▁pauv	-6982
▁semn	-6983
▁jedin	-6984
ître	-6985
▁правитель	-6986
▁Всё	-6987
nete	-6988
▁chois	-6989
▁căr	-6990
▁Wahr	-6991
▁David	-6992
▁člově	-6993
▁системы	-6994
▁спосо	-6995
▁cinq	-6996
The	-6997
▁link	-6998
▁terri	-6999
▁climat	-7000
▁media	-7001
▁regardez	-7002
osten	-7003
▁внутри	-7004
▁Afgh	-7005
▁Kunst	-7006
▁nucle	-7007
▁показать	-7008
žu	-7009
бро	-7010
▁кру	-7011
▁150	-7012
▁absolut	-7013
▁экспери	-7014
▁миру	-7015
▁proté	-7016
▁prostřed	-7017
eff	-7018
altă	-7019
aţia	-7020
▁nov	-7021
▁свобо	-7022
▁ersch	-7023
▁mulţi	-7024
▁nutzen	-7025
ried	-7026
▁наше	-7027
▁neces	-7028
▁mobil	-7029
▁decided	-7030
éli	-7031
▁astea	-7032
▁простран	-7033
▁atte	-7034
ftware	-7035
▁Kont	-7036
▁vine	-7037
▁jumătate	-7038
▁construire	-7039
▁aş	-7040
▁сте	-7041
▁помога	-7042
▁acestor	-7043
▁dva	-7044
▁processus	-7045
ут	-7046
▁lip	-7047
▁vér	-7048
▁intro	-7049
enti	-7050
ingt	-7051
▁mid	-7052
▁ciud	-7053
▁konnten	-7054
št	-7055
вро	-7056
▁sto	-7057
▁allen	-7058
oph	-7059
▁říct	-7060
▁pierd	-7061
univers	-7062
▁căl	-7063
него	-7064
▁Lin	-7065
▁voiture	-7066
▁Mich	-7067
▁mots	-7068
undert	-7069
▁Acest	-7070
▁вами	-7071
▁unele	-7072
рит	-7073
váme	-7074
▁стре	-7075
▁Vreau	-7076
voir	-7077
▁appl	-7078
фер	-7079
▁strateg	-7080
▁chtě	-7081
▁počít	-7082
--	-7083
hled	-7084
▁Publ	-7085
▁série	-7086
▁viaţa	-7087
leur	-7088
▁provoc	-7089
▁dernière	-7090
chmal	-7091
тельные	-7092
пита	-7093
▁диа	-7094
▁complètement	-7095
▁Oui	-7096
▁женщин	-7097
▁erre	-7098
▁kurz	-7099
▁cale	-7100
▁follow	-7101
▁меньше	-7102
▁pů	-7103
нача	-7104
▁land	-7105
▁găsit	-7106
hoto	-7107
▁špat	-7108
ilea	-7109
▁intel	-7110
isches	-7111
▁Однако	-7112
▁government	-7113
▁prů	-7114
▁milit	-7115
▁sociale	-7116
tein	-7117
ums	-7118
▁afac	-7119
▁tomto	-7120
bec	-7121
▁vivre	-7122
▁pouvait	-7123
undred	-7124
▁organis	-7125
ID	-7126
▁mouv	-7127
▁became	-7128
▁miliard	-7129
ritt	-7130
▁vedeți	-7131
novation	-7132
▁внимание	-7133
anță	-7134
▁болез	-7135
▁Aş	-7136
hrer	-7137
▁society	-7138
▁сме	-7139
▁cunos	-7140
ula	-7141
▁celor	-7142
▁music	-7143
▁particular	-7144
ohl	-7145
itud	-7146
▁stup	-7147
▁places	-7148
▁târziu	-7149
▁leaders	-7150
enți	-7151
▁úžas	-7152
▁anders	-7153
▁stát	-7154
▁Cent	-7155
▁ника	-7156
▁vrem	-7157
▁ote	-7158
▁Stre	-7159
mut	-7160
▁Vy	-7161
▁moz	-7162
fahren	-7163
▁pouze	-7164
▁vidíte	-7165
ras	-7166
▁Ми	-7167
даря	-7168
leben	-7169
▁Exper	-7170
▁moyen	-7171
▁многих	-7172
apte	-7173
▁распро	-7174
řeba	-7175
зм	-7176
voll	-7177
▁bol	-7178
▁regarder	-7179
щую	-7180
▁bât	-7181
▁сам	-7182
▁сол	-7183
amente	-7184
▁recherche	-7185
▁heures	-7186
▁сы	-7187
▁tato	-7188
▁aprop	-7189
▁множе	-7190
▁seiner	-7191
▁tohoto	-7192
▁card	-7193
rak	-7194
deck	-7195
heits	-7196
▁neuen	-7197
5,	-7198
▁trou	-7199
▁richtig	-7200
1,	-7201
▁expérience	-7202
▁probablement	-7203
ума	-7204
ivent	-7205
țiile	-7206
▁sistemul	-7207
tats	-7208
▁médic	-7209
▁relativ	-7210
▁můj	-7211
phone	-7212
▁utiliz	-7213
щий	-7214
▁devez	-7215
вили	-7216
▁Sud	-7217
vědom	-7218
▁réfléch	-7219
▁deal	-7220
▁livre	-7221
▁Mensch	-7222
▁photograph	-7223
▁Are	-7224
▁должно	-7225
▁фун	-7226
zintă	-7227
▁pune	-7228
▁22	-7229
plac	-7230
▁locuri	-7231
ín	-7232
▁zeigt	-7233
▁permite	-7234
akter	-7235
▁unserem	-7236
vest	-7237
▁repro	-7238
orge	-7239
▁law	-7240
▁preg	-7241
▁guerre	-7242
тах	-7243
▁schwer	-7244
▁access	-7245
▁пом	-7246
▁Bet	-7247
▁yeux	-7248
▁autor	-7249
ozřejmě	-7250
▁message	-7251
▁juc	-7252
▁бизне	-7253
▁origin	-7254
▁completely	-7255
▁apl	-7256
▁глав	-7257
▁возра	-7258
omme	-7259
▁Gre	-7260
ünst	-7261
▁study	-7262
own	-7263
▁ner	-7264
▁нашего	-7265
▁existe	-7266
▁verk	-7267
▁случи	-7268
▁Pak	-7269
rieben	-7270
▁choix	-7271
▁dolar	-7272
glichen	-7273
▁doctor	-7274
▁делают	-7275
▁myšlen	-7276
▁pros	-7277
▁tuto	-7278
win	-7279
▁Verb	-7280
forder	-7281
▁United	-7282
▁právě	-7283
9,	-7284
aje	-7285
▁persoană	-7286
▁frü	-7287
abilă	-7288
▁усло	-7289
▁naší	-7290
▁against	-7291
?”	-7292
itiv	-7293
▁Před	-7294
▁caus	-7295
▁inse	-7296
▁funcțion	-7297
▁Zu	-7298
▁mers	-7299
▁делает	-7300
▁sum	-7301
▁попа	-7302
▁rău	-7303
▁language	-7304
▁Ви	-7305
odob	-7306
▁Mex	-7307
▁După	-7308
▁cauza	-7309
▁moral	-7310
▁quelle	-7311
▁geb	-7312
asa	-7313
ären	-7314
▁cinci	-7315
reichen	-7316
▁passion	-7317
кар	-7318
хва	-7319
▁příběh	-7320
olf	-7321
▁termin	-7322
▁вто	-7323
▁дети	-7324
▁ox	-7325
▁наи	-7326
▁cert	-7327
ее	-7328
▁contro	-7329
▁poll	-7330
ources	-7331
▁besond	-7332
▁décidé	-7333
ângă	-7334
▁naz	-7335
▁chac	-7336
▁ощу	-7337
▁видим	-7338
▁itself	-7339
нан	-7340
kov	-7341
▁pous	-7342
ec	-7343
▁élé	-7344
ynam	-7345
ières	-7346
deauna	-7347
finden	-7348
▁taking	-7349
spě	-7350
ține	-7351
▁obrá	-7352
▁aktiv	-7353
▁quick	-7354
▁vreme	-7355
▁jede	-7356
çu	-7357
atori	-7358
▁exac	-7359
ipe	-7360
ității	-7361
▁существует	-7362
uși	-7363
řet	-7364
▁скоро	-7365
▁femei	-7366
▁различ	-7367
ired	-7368
▁points	-7369
▁insp	-7370
▁mnohem	-7371
▁gouvernement	-7372
▁mám	-7373
▁spoj	-7374
▁Every	-7375
viz	-7376
ades	-7377
eder	-7378
riez	-7379
▁krá	-7380
▁inner	-7381
▁though	-7382
▁hundred	-7383
éric	-7384
▁новые	-7385
▁Gesund	-7386
▁success	-7387
▁Mäd	-7388
▁мозг	-7389
eze	-7390
нения	-7391
▁endroit	-7392
▁уби	-7393
▁zdrav	-7394
▁mother	-7395
▁clăd	-7396
▁tine	-7397
▁электро	-7398
enţi	-7399
ratie	-7400
▁проду	-7401
▁Erfahr	-7402
▁».	-7403
▁loin	-7404
▁oraş	-7405
onnen	-7406
▁Projekt	-7407
▁electric	-7408
мов	-7409
inger	-7410
▁Meine	-7411
▁взя	-7412
цией	-7413
▁seri	-7414
▁Па	-7415
▁heard	-7416
rès	-7417
▁CO	-7418
bles	-7419
рует	-7420
▁until	-7421
▁împăr	-7422
▁двига	-7423
▁насто	-7424
▁anume	-7425
▁genug	-7426
▁share	-7427
iky	-7428
▁séc	-7429
▁weg	-7430
vention	-7431
▁erzählen	-7432
дут	-7433
▁dne	-7434
▁Gener	-7435
oul	-7436
smích	-7437
▁котором	-7438
▁ю	-7439
▁ko	-7440
▁funcţion	-7441
▁doua	-7442
▁Chine	-7443
▁legăt	-7444
▁flu	-7445
▁meas	-7446
▁ново	-7447
▁предо	-7448
▁interact	-7449
▁Nem	-7450
▁maş	-7451
▁мужчи	-7452
▁ужа	-7453
▁aliment	-7454
▁imagina	-7455
▁politique	-7456
▁зави	-7457
дви	-7458
▁plac	-7459
▁пара	-7460
▁woman	-7461
ized	-7462
▁ungefähr	-7463
▁Op	-7464
▁built	-7465
▁ним	-7466
▁view	-7467
▁multi	-7468
▁hran	-7469
espace	-7470
▁Terre	-7471
▁стоит	-7472
▁nev	-7473
▁впер	-7474
term	-7475
▁liegt	-7476
▁Fin	-7477
▁led	-7478
temps	-7479
▁scri	-7480
sem	-7481
▁isn	-7482
▁микро	-7483
eren	-7484
rice	-7485
льное	-7486
▁name	-7487
▁skvě	-7488
▁прин	-7489
▁Mulțumesc	-7490
▁Mater	-7491
▁species	-7492
▁země	-7493
▁humains	-7494
▁Bed	-7495
▁happening	-7496
,5	-7497
▁întrebare	-7498
чать	-7499
▁рассказать	-7500
uji	-7501
antă	-7502
чных	-7503
cule	-7504
ленно	-7505
▁piece	-7506
▁vois	-7507
▁velice	-7508
imate	-7509
▁amis	-7510
▁voud	-7511
▁историю	-7512
intérieur	-7513
▁продолжа	-7514
шую	-7515
llig	-7516
▁Dis	-7517
▁Ideen	-7518
▁betra	-7519
rire	-7520
isschen	-7521
▁чер	-7522
vů	-7523
ющее	-7524
cheid	-7525
▁инстру	-7526
anţă	-7527
liches	-7528
▁dernières	-7529
ваются	-7530
▁světa	-7531
▁puteți	-7532
▁voulais	-7533
uck	-7534
wend	-7535
▁Astfel	-7536
étique	-7537
▁специ	-7538
▁процен	-7539
▁parad	-7540
судар	-7541
▁nennen	-7542
▁Ro	-7543
▁ignor	-7544
▁kennen	-7545
▁bauen	-7546
▁futur	-7547
ases	-7548
сили	-7549
rug	-7550
▁miș	-7551
uster	-7552
▁solu	-7553
▁erinn	-7554
▁všech	-7555
▁modèle	-7556
▁rendre	-7557
hung	-7558
▁auto	-7559
▁word	-7560
▁отве	-7561
▁Comme	-7562
▁folose	-7563
▁превра	-7564
▁стороны	-7565
сут	-7566
▁Milliarden	-7567
▁wahrscheinlich	-7568
▁материа	-7569
my	-7570
▁radio	-7571
▁photos	-7572
▁bisschen	-7573
▁dispo	-7574
гре	-7575
▁2008	-7576
▁knew	-7577
▁После	-7578
▁devenir	-7579
▁learned	-7580
asi	-7581
▁grâce	-7582
▁folosi	-7583
▁aten	-7584
▁dich	-7585
▁осозна	-7586
▁klar	-7587
▁vide	-7588
▁herum	-7589
▁viaţă	-7590
▁disent	-7591
▁чём	-7592
▁Př	-7593
▁verd	-7594
▁writ	-7595
.)	-7596
appr	-7597
orden	-7598
▁bout	-7599
▁слыша	-7600
▁représent	-7601
tant	-7602
▁père	-7603
hum	-7604
avant	-7605
bringen	-7606
▁ourselves	-7607
oter	-7608
▁означает	-7609
▁cump	-7610
▁процесс	-7611
▁спасибо	-7612
▁Sk	-7613
▁var	-7614
▁vyu	-7615
nisse	-7616
▁combin	-7617
▁artist	-7618
▁Bar	-7619
▁făc	-7620
▁code	-7621
ctions	-7622
▁moder	-7623
▁stehen	-7624
nutí	-7625
▁mei	-7626
▁jí	-7627
▁bevor	-7628
▁svůj	-7629
▁wicht	-7630
▁ați	-7631
ремен	-7632
▁acces	-7633
▁Ty	-7634
▁tool	-7635
▁Od	-7636
zess	-7637
▁uim	-7638
itting	-7639
▁produs	-7640
▁réalis	-7641
▁первый	-7642
aler	-7643
▁серь	-7644
▁Film	-7645
▁vidéo	-7646
▁Em	-7647
▁оши	-7648
▁crea	-7649
▁lange	-7650
▁vlastní	-7651
oru	-7652
дру	-7653
▁sí	-7654
▁wus	-7655
▁гото	-7656
ických	-7657
otriv	-7658
▁sport	-7659
▁Str	-7660
▁along	-7661
alte	-7662
▁всю	-7663
▁жив	-7664
▁curs	-7665
▁pici	-7666
▁education	-7667
▁huge	-7668
▁meilleur	-7669
žité	-7670
onec	-7671
▁efect	-7672
▁astăzi	-7673
▁сказала	-7674
▁ajunge	-7675
▁incredibil	-7676
atul	-7677
▁máte	-7678
▁Nicht	-7679
▁recun	-7680
▁становится	-7681
welt	-7682
▁comporte	-7683
mö	-7684
▁ăsta	-7685
▁přemýš	-7686
▁siècle	-7687
▁Für	-7688
▁gets	-7689
▁бес	-7690
ering	-7691
▁essayer	-7692
▁Fähigkeit	-7693
▁sometimes	-7694
inez	-7695
▁настолько	-7696
ница	-7697
▁Кита	-7698
▁nächsten	-7699
2,	-7700
wand	-7701
▁iub	-7702
▁los	-7703
▁mam	-7704
▁предло	-7705
▁măsură	-7706
heiten	-7707
▁призна	-7708
▁reality	-7709
▁принима	-7710
aven	-7711
esent	-7712
▁marche	-7713
▁Ceci	-7714
▁místo	-7715
▁собра	-7716
▁überall	-7717
IT	-7718
école	-7719
▁нами	-7720
▁поко	-7721
ůžete	-7722
agă	-7723
▁lep	-7724
abord	-7725
ficient	-7726
▁případ	-7727
▁odpově	-7728
▁rather	-7729
qué	-7730
ází	-7731
▁Амери	-7732
дьми	-7733
▁anul	-7734
opul	-7735
unge	-7736
orgen	-7737
ereich	-7738
▁continue	-7739
▁начала	-7740
▁Pas	-7741
▁Chiar	-7742
▁Hol	-7743
▁unii	-7744
▁последние	-7745
ße	-7746
view	-7747
▁créé	-7748
▁complic	-7749
▁Just	-7750
▁Quel	-7751
▁aider	-7752
rán	-7753
▁chy	-7754
▁Tu	-7755
▁Нет	-7756
ished	-7757
▁Musik	-7758
▁Ter	-7759
▁gândim	-7760
erein	-7761
▁communauté	-7762
▁pove	-7763
▁людьми	-7764
▁Mă	-7765
uchte	-7766
▁adop	-7767
▁objet	-7768
▁заня	-7769
eng	-7770
iku	-7771
▁același	-7772
▁știu	-7773
▁diagnost	-7774
äre	-7775
èces	-7776
▁created	-7777
един	-7778
▁ange	-7779
▁Punkt	-7780
▁engine	-7781
rost	-7782
▁erkl	-7783
▁Arten	-7784
▁restaur	-7785
▁American	-7786
▁everybody	-7787
oun	-7788
▁él	-7789
▁tři	-7790
▁неё	-7791
▁против	-7792
▁глаза	-7793
▁хотим	-7794
▁implic	-7795
bracht	-7796
ческая	-7797
▁stabil	-7798
▁hö	-7799
▁separ	-7800
go	-7801
▁existen	-7802
▁энергии	-7803
▁Antwort	-7804
▁uș	-7805
▁terre	-7806
▁жу	-7807
kennen	-7808
▁Сегодня	-7809
▁приходи	-7810
riff	-7811
▁skup	-7812
▁exactly	-7813
nic	-7814
nier	-7815
rile	-7816
zept	-7817
▁Part	-7818
▁дерев	-7819
unk	-7820
▁Mc	-7821
▁stimul	-7822
▁услови	-7823
▁stories	-7824
луч	-7825
▁lety	-7826
igence	-7827
▁Europa	-7828
▁ши	-7829
▁сла	-7830
▁drag	-7831
▁eins	-7832
▁auzit	-7833
▁вроде	-7834
▁jeunes	-7835
fs	-7836
há	-7837
▁néc	-7838
▁însă	-7839
▁Așadar	-7840
рак	-7841
чет	-7842
▁materi	-7843
▁osob	-7844
▁digit	-7845
▁écrit	-7846
▁сни	-7847
▁город	-7848
▁тысяч	-7849
bare	-7850
▁schön	-7851
ahl	-7852
ikro	-7853
стов	-7854
▁farm	-7855
ove	-7856
▁Mil	-7857
▁мет	-7858
▁dobře	-7859
▁Dieses	-7860
▁carbon	-7861
ducation	-7862
▁23	-7863
▁repede	-7864
nel	-7865
irii	-7866
▁Far	-7867
▁тран	-7868
▁Putem	-7869
▁infrast	-7870
ray	-7871
▁uş	-7872
▁гру	-7873
▁since	-7874
▁Glück	-7875
▁acasă	-7876
▁bărba	-7877
žít	-7878
▁Cl	-7879
▁mim	-7880
▁отли	-7881
bert	-7882
▁дли	-7883
ulture	-7884
▁retr	-7885
gende	-7886
▁Kopf	-7887
▁Informationen	-7888
▁получить	-7889
cine	-7890
▁mere	-7891
▁parfois	-7892
ган	-7893
ческое	-7894
▁développement	-7895
▁anf	-7896
▁учё	-7897
▁wind	-7898
▁behav	-7899
▁schwier	-7900
ická	-7901
▁Schule	-7902
▁verändern	-7903
ösen	-7904
▁sei	-7905
▁Ents	-7906
▁сделал	-7907
▁Mädchen	-7908
▁entendu	-7909
urii	-7910
iving	-7911
assion	-7912
▁color	-7913
▁appelé	-7914
dez	-7915
heure	-7916
▁succes	-7917
des	-7918
▁опу	-7919
▁svou	-7920
▁ressemble	-7921
▁descoperit	-7922
▁ваш	-7923
▁страны	-7924
▁persoane	-7925
▁incroyable	-7926
▁Num	-7927
▁těž	-7928
▁přest	-7929
▁chirurg	-7930
▁Kol	-7931
▁secret	-7932
▁capacité	-7933
▁коман	-7934
▁45	-7935
зма	-7936
▁trat	-7937
▁жела	-7938
▁разме	-7939
▁komun	-7940
▁называется	-7941
▁creativ	-7942
▁mulţumesc	-7943
▁dete	-7944
▁окружа	-7945
▁musique	-7946
▁majoritatea	-7947
гие	-7948
▁1.	-7949
▁Из	-7950
▁počítač	-7951
▁spați	-7952
haps	-7953
▁Fragen	-7954
▁puteţi	-7955
▁находится	-7956
▁Ainsi	-7957
▁mii	-7958
▁срав	-7959
▁Wissen	-7960
sible	-7961
▁grands	-7962
7,	-7963
▁miş	-7964
iller	-7965
▁její	-7966
▁musí	-7967
▁менее	-7968
▁Non	-7969
▁virtu	-7970
wards	-7971
▁социаль	-7972
разу	-7973
▁emo	-7974
▁chest	-7975
▁cít	-7976
ření	-7977
▁fran	-7978
▁company	-7979
▁certaines	-7980
▁насколько	-7981
▁ей	-7982
ților	-7983
нение	-7984
▁моих	-7985
ièrement	-7986
▁чувство	-7987
Am	-7988
äche	-7989
▁вдо	-7990
anzen	-7991
ulent	-7992
▁поме	-7993
ush	-7994
▁nécess	-7995
▁живу	-7996
▁centre	-7997
▁структу	-7998
▁информации	-7999
odí	-8000
ump	-8001
▁поте	-8002
▁Bei	-8003
▁ton	-8004
▁strat	-8005
▁anderes	-8006
ёх	-8007
▁confr	-8008
▁învăţ	-8009
▁Си	-8010
▁diferit	-8011
oden	-8012
▁erl	-8013
cteur	-8014
▁долго	-8015
▁lov	-8016
▁решения	-8017
rons	-8018
▁hold	-8019
▁black	-8020
▁house	-8021
▁Ceea	-8022
▁Krie	-8023
▁aucune	-8024
schl	-8025
▁fly	-8026
▁listen	-8027
▁Video	-8028
▁начать	-8029
▁кого	-8030
▁одну	-8031
▁Jahrh	-8032
▁arăta	-8033
▁приро	-8034
▁disease	-8035
грани	-8036
▁City	-8037
▁vždy	-8038
▁Angst	-8039
▁důvod	-8040
орошо	-8041
▁моего	-8042
▁Washing	-8043
▁dram	-8044
▁grat	-8045
▁algor	-8046
▁встре	-8047
твер	-8048
▁facile	-8049
▁rapidement	-8050
ței	-8051
▁Nat	-8052
▁sexu	-8053
▁студен	-8054
стли	-8055
шать	-8056
▁зако	-8057
▁hours	-8058
▁répond	-8059
▁говорю	-8060
▁animaux	-8061
▁network	-8062
▁времен	-8063
▁mulțumesc	-8064
stí	-8065
raum	-8066
▁fen	-8067
▁Îmi	-8068
▁trag	-8069
бри	-8070
цов	-8071
ющая	-8072
▁Con	-8073
▁envo	-8074
▁всей	-8075
▁themselves	-8076
▁eing	-8077
ognit	-8078
▁ekonom	-8079
▁standard	-8080
▁game	-8081
▁jestli	-8082
▁source	-8083
amin	-8084
▁dět	-8085
chaft	-8086
veille	-8087
▁World	-8088
itation	-8089
▁Jsou	-8090
▁pensé	-8091
▁mijloc	-8092
▁исследования	-8093
лют	-8094
ința	-8095
▁Gebä	-8096
▁croy	-8097
▁ştiu	-8098
▁niște	-8099
▁třeba	-8100
▁systems	-8101
шта	-8102
iesc	-8103
chnitt	-8104
ikum	-8105
▁obi	-8106
▁ус	-8107
ging	-8108
▁tel	-8109
▁Some	-8110
zkum	-8111
▁циф	-8112
ona	-8113
amour	-8114
iilor	-8115
anken	-8116
indu	-8117
▁нако	-8118
▁vytvá	-8119
umb	-8120
ford	-8121
mement	-8122
чат	-8123
▁демо	-8124
ouvrir	-8125
▁jedna	-8126
▁разных	-8127
2.	-8128
▁diferen	-8129
ieu	-8130
aller	-8131
▁slov	-8132
▁Afrika	-8133
▁musste	-8134
▁Washington	-8135
▁echip	-8136
▁nourriture	-8137
öhn	-8138
шли	-8139
▁sembl	-8140
▁podle	-8141
▁States	-8142
▁rezult	-8143
▁цент	-8144
▁contact	-8145
▁государ	-8146
▁един	-8147
▁Trans	-8148
▁kinds	-8149
čení	-8150
▁least	-8151
▁mesure	-8152
▁intéressant	-8153
▁afin	-8154
ustrie	-8155
▁transm	-8156
пом	-8157
alten	-8158
▁spend	-8159
▁начал	-8160
▁seinen	-8161
icule	-8162
ither	-8163
▁изоб	-8164
▁hinter	-8165
▁ха	-8166
▁194	-8167
▁стол	-8168
▁dernier	-8169
ţiile	-8170
стить	-8171
▁obiect	-8172
▁aim	-8173
▁hon	-8174
▁vit	-8175
ătorii	-8176
▁compos	-8177
ép	-8178
▁NA	-8179
лоба	-8180
▁bem	-8181
▁раст	-8182
▁gânde	-8183
▁somebody	-8184
erk	-8185
▁ones	-8186
▁early	-8187
▁locul	-8188
anistan	-8189
▁Bilder	-8190
▁Gu	-8191
▁secol	-8192
▁úplně	-8193
▁Myslím	-8194
ipul	-8195
znam	-8196
▁violence	-8197
▁Например	-8198
▁Gesellschaft	-8199
▁besonders	-8200
uror	-8201
▁sait	-8202
ií	-8203
▁nimeni	-8204
▁měsí	-8205
▁воды	-8206
рт	-8207
▁tisí	-8208
▁muncă	-8209
▁тя	-8210
bild	-8211
▁Verg	-8212
▁полностью	-8213
tz	-8214
▁Ben	-8215
▁мере	-8216
▁război	-8217
elte	-8218
fang	-8219
iers	-8220
▁ord	-8221
лению	-8222
▁Netz	-8223
▁сооб	-8224
▁základ	-8225
▁sche	-8226
ielle	-8227
▁reden	-8228
▁деньги	-8229
kr	-8230
abet	-8231
▁Sam	-8232
imension	-8233
exp	-8234
ссе	-8235
▁край	-8236
▁сама	-8237
▁американ	-8238
▁представить	-8239
▁ži	-8240
▁строи	-8241
zd	-8242
пли	-8243
▁miss	-8244
▁nord	-8245
▁хотя	-8246
▁Oamen	-8247
▁podstat	-8248
тен	-8249
igung	-8250
▁animals	-8251
▁pick	-8252
▁terror	-8253
▁exactement	-8254
șe	-8255
мыш	-8256
▁magn	-8257
aie	-8258
ostí	-8259
adevăr	-8260
▁помочь	-8261
рети	-8262
atoare	-8263
▁travaille	-8264
umne	-8265
▁May	-8266
▁oui	-8267
тории	-8268
▁Пред	-8269
▁publi	-8270
agement	-8271
amentul	-8272
▁corect	-8273
▁întrebat	-8274
бер	-8275
▁прода	-8276
duit	-8277
▁Männer	-8278
▁наша	-8279
▁данных	-8280
▁éle	-8281
▁объек	-8282
▁machte	-8283
▁цель	-8284
▁чита	-8285
▁risk	-8286
▁dois	-8287
▁aucun	-8288
rite	-8289
▁zajímav	-8290
▁amen	-8291
▁folosit	-8292
▁Planeten	-8293
▁,	-8294
там	-8295
uche	-8296
▁ули	-8297
▁prefer	-8298
▁cann	-8299
âne	-8300
выми	-8301
▁behind	-8302
sled	-8303
▁lit	-8304
▁наблюда	-8305
кси	-8306
▁death	-8307
immen	-8308
ited	-8309
▁duce	-8310
▁Sa	-8311
▁ia	-8312
▁turns	-8313
▁automat	-8314
▁jde	-8315
▁verg	-8316
rement	-8317
▁práci	-8318
▁самых	-8319
▁worked	-8320
▁Wirtschaft	-8321
▁Нью	-8322
▁стало	-8323
▁conditions	-8324
▁Люди	-8325
▁Leuten	-8326
▁feed	-8327
oduch	-8328
▁voyons	-8329
zav	-8330
▁lik	-8331
▁trebu	-8332
▁montre	-8333
▁sagten	-8334
рования	-8335
▁fragen	-8336
▁gehört	-8337
▁lequel	-8338
ias	-8339
лон	-8340
▁Ро	-8341
urat	-8342
▁Krank	-8343
▁приме	-8344
ception	-8345
тельный	-8346
▁sécurité	-8347
▁ря	-8348
▁ними	-8349
▁Конечно	-8350
aimer	-8351
▁easy	-8352
▁rapport	-8353
PS	-8354
дят	-8355
▁adult	-8356
voj	-8357
idge	-8358
▁někter	-8359
rij	-8360
хра	-8361
ächt	-8362
▁прове	-8363
▁медици	-8364
▁resp	-8365
rael	-8366
▁def	-8367
▁запа	-8368
▁нравится	-8369
баты	-8370
auche	-8371
▁Then	-8372
uß	-8373
▁Vors	-8374
▁kolem	-8375
▁Tady	-8376
▁conduc	-8377
▁couldn	-8378
▁instead	-8379
▁bio	-8380
▁pořád	-8381
▁interior	-8382
▁тебя	-8383
▁others	-8384
nitř	-8385
▁сим	-8386
inile	-8387
▁enorm	-8388
hler	-8389
▁Kar	-8390
▁atmos	-8391
▁компании	-8392
izin	-8393
▁věd	-8394
envir	-8395
ling	-8396
ommt	-8397
▁MIT	-8398
▁žen	-8399
▁родите	-8400
ops	-8401
ilos	-8402
ţine	-8403
▁Pământ	-8404
▁capable	-8405
▁context	-8406
▁определ	-8407
кам	-8408
ktor	-8409
▁Iran	-8410
▁колле	-8411
▁jaz	-8412
помина	-8413
aime	-8414
▁prend	-8415
▁práce	-8416
▁police	-8417
▁acelaşi	-8418
ss	-8419
iant	-8420
Video	-8421
▁blog	-8422
▁робо	-8423
▁invol	-8424
▁Geschichten	-8425
▁Doch	-8426
▁guys	-8427
▁Prin	-8428
▁abord	-8429
▁Familie	-8430
▁întreaga	-8431
чёт	-8432
льным	-8433
▁ihrem	-8434
ema	-8435
▁devenu	-8436
▁trebuit	-8437
▁которым	-8438
▁clar	-8439
issons	-8440
▁jouer	-8441
▁иногда	-8442
▁acord	-8443
▁darum	-8444
▁благодаря	-8445
uv	-8446
erii	-8447
▁general	-8448
4,	-8449
ufen	-8450
isent	-8451
▁semble	-8452
▁anti	-8453
▁ressembl	-8454
▁Де	-8455
lepší	-8456
▁пове	-8457
ibly	-8458
▁erh	-8459
țeles	-8460
▁идеи	-8461
▁зрения	-8462
▁schimba	-8463
iuni	-8464
▁dipl	-8465
▁entwickelt	-8466
werk	-8467
élior	-8468
▁news	-8469
▁воспри	-8470
▁гор	-8471
▁неу	-8472
zy	-8473
▁кре	-8474
enii	-8475
▁sle	-8476
▁hled	-8477
anta	-8478
▁Vir	-8479
▁perio	-8480
▁großart	-8481
▁everyone	-8482
heim	-8483
▁Californ	-8484
bă	-8485
▁règ	-8486
▁позволи	-8487
wohl	-8488
▁plein	-8489
▁женщины	-8490
▁national	-8491
rale	-8492
▁cod	-8493
▁Oder	-8494
▁voie	-8495
▁vedere	-8496
▁изменения	-8497
▁ау	-8498
▁meet	-8499
дем	-8500
раздо	-8501
avait	-8502
▁Unternehmen	-8503
ocí	-8504
ilfe	-8505
ücken	-8506
▁outside	-8507
▁dific	-8508
▁возможности	-8509
med	-8510
mele	-8511
ющим	-8512
▁focus	-8513
▁histor	-8514
Nu	-8515
fä	-8516
▁меч	-8517
▁Will	-8518
▁oblast	-8519
▁povestea	-8520
▁histoires	-8521
son	-8522
руд	-8523
▁Ре	-8524
▁taille	-8525
▁tuturor	-8526
стри	-8527
▁Каж	-8528
onnes	-8529
▁Puis	-8530
▁clos	-8531
▁мето	-8532
▁steht	-8533
▁relationship	-8534
zin	-8535
erez	-8536
▁cân	-8537
coală	-8538
ský	-8539
▁жа	-8540
▁gerne	-8541
eler	-8542
expl	-8543
▁prison	-8544
▁compassion	-8545
âge	-8546
мом	-8547
▁slu	-8548
▁Или	-8549
▁точки	-8550
▁century	-8551
▁financi	-8552
▁support	-8553
ever	-8554
▁systèmes	-8555
Af	-8556
тиво	-8557
▁gave	-8558
érence	-8559
▁secur	-8560
▁folosesc	-8561
▁compris	-8562
▁úč	-8563
▁rapp	-8564
▁цвет	-8565
ibli	-8566
▁kamen	-8567
▁domin	-8568
▁вещей	-8569
▁parten	-8570
рее	-8571
▁aţi	-8572
▁dator	-8573
▁grandes	-8574
▁выглядит	-8575
bou	-8576
▁миро	-8577
▁переда	-8578
Music	-8579
▁tiss	-8580
▁bereits	-8581
▁voulons	-8582
▁devant	-8583
вар	-8584
▁Су	-8585
ției	-8586
ivement	-8587
▁musíme	-8588
▁такого	-8589
нных	-8590
▁зале	-8591
▁планет	-8592
чку	-8593
▁ine	-8594
▁industri	-8595
eded	-8596
етесь	-8597
▁crescut	-8598
▁realize	-8599
ané	-8600
▁math	-8601
▁přek	-8602
▁universe	-8603
iua	-8604
▁famili	-8605
▁village	-8606
▁биологи	-8607
▁большой	-8608
▁которого	-8609
enten	-8610
▁iată	-8611
▁darin	-8612
▁Lös	-8613
▁changed	-8614
Pro	-8615
▁erkennen	-8616
chter	-8617
▁namens	-8618
bed	-8619
tat	-8620
рей	-8621
▁full	-8622
▁maladie	-8623
▁ed	-8624
▁tax	-8625
rogen	-8626
Un	-8627
▁самый	-8628
▁Mot	-8629
▁направ	-8630
▁students	-8631
▁dop	-8632
▁sow	-8633
▁sine	-8634
▁takes	-8635
▁никто	-8636
▁avions	-8637
▁dimens	-8638
▁economic	-8639
▁nau	-8640
▁bott	-8641
▁aurait	-8642
éh	-8643
▁rost	-8644
▁Indien	-8645
▁dispon	-8646
▁spielen	-8647
itié	-8648
▁third	-8649
▁responsabil	-8650
солют	-8651
узыка	-8652
issement	-8653
▁dynam	-8654
▁défin	-8655
▁schimbat	-8656
koliv	-8657
▁jist	-8658
▁folosim	-8659
wor	-8660
▁vul	-8661
▁taken	-8662
▁беспо	-8663
▁discut	-8664
▁kni	-8665
itet	-8666
▁бро	-8667
▁vesmí	-8668
▁jednoduch	-8669
▁кос	-8670
▁exista	-8671
díl	-8672
▁happy	-8673
alog	-8674
▁ferici	-8675
▁primit	-8676
▁termen	-8677
▁неза	-8678
▁porte	-8679
gu	-8680
▁aib	-8681
▁seinem	-8682
änger	-8683
▁Macht	-8684
▁научи	-8685
▁milliers	-8686
▁découvert	-8687
▁Vielleicht	-8688
▁flo	-8689
▁nuit	-8690
▁lângă	-8691
▁универ	-8692
▁tehnologia	-8693
▁Kön	-8694
няя	-8695
▁Bud	-8696
▁Los	-8697
▁vies	-8698
▁impossible	-8699
▁путе	-8700
▁hören	-8701
▁иметь	-8702
minist	-8703
▁прекрас	-8704
▁компьютер	-8705
deut	-8706
ového	-8707
лении	-8708
▁mereu	-8709
▁погово	-8710
hlte	-8711
▁perfe	-8712
▁Entscheid	-8713
ceau	-8714
лены	-8715
▁Мар	-8716
▁villes	-8717
lav	-8718
▁zk	-8719
▁Cong	-8720
▁ries	-8721
▁Já	-8722
▁lég	-8723
▁știm	-8724
▁projekt	-8725
▁znovu	-8726
▁wunder	-8727
▁устрой	-8728
▁conserv	-8729
▁feu	-8730
▁nor	-8731
▁verschiedene	-8732
гов	-8733
▁fro	-8734
▁profession	-8735
ams	-8736
olesc	-8737
крати	-8738
▁reprezintă	-8739
шка	-8740
▁lots	-8741
▁Таким	-8742
▁halten	-8743
yes	-8744
rare	-8745
▁God	-8746
▁čty	-8747
▁океа	-8748
▁event	-8749
▁bâtiment	-8750
тера	-8751
▁писа	-8752
▁arrivé	-8753
▁genera	-8754
ista	-8755
▁Wort	-8756
▁dítě	-8757
▁souff	-8758
▁spéci	-8759
▁letech	-8760
▁transpar	-8761
oty	-8762
imag	-8763
▁sever	-8764
▁nation	-8765
▁думать	-8766
▁správ	-8767
▁клетки	-8768
▁National	-8769
▁жить	-8770
▁должна	-8771
▁увеличи	-8772
âni	-8773
țiune	-8774
▁euch	-8775
tii	-8776
▁évid	-8777
▁глоба	-8778
▁Sprache	-8779
íl	-8780
▁mozku	-8781
▁budouc	-8782
▁mechan	-8783
▁поверх	-8784
▁ultimii	-8785
▁гораздо	-8786
▁fii	-8787
haupt	-8788
immer	-8789
▁changé	-8790
čné	-8791
▁Proč	-8792
rou	-8793
nice	-8794
▁Sol	-8795
▁agric	-8796
▁dokonce	-8797
▁learning	-8798
jed	-8799
▁nerv	-8800
▁Web	-8801
▁field	-8802
▁обычно	-8803
юда	-8804
▁sust	-8805
▁бук	-8806
▁types	-8807
▁devine	-8808
▁devient	-8809
▁service	-8810
▁absolute	-8811
ino	-8812
▁дня	-8813
igten	-8814
▁ster	-8815
▁meilleure	-8816
▁75	-8817
▁idei	-8818
▁magaz	-8819
▁Можно	-8820
▁close	-8821
▁traite	-8822
▁nyní	-8823
▁finally	-8824
▁american	-8825
▁erreichen	-8826
lel	-8827
▁neb	-8828
ediat	-8829
▁cate	-8830
▁green	-8831
▁racon	-8832
▁Mag	-8833
▁det	-8834
▁chce	-8835
▁выбра	-8836
▁произошло	-8837
ísk	-8838
шки	-8839
lají	-8840
▁față	-8841
▁arriver	-8842
ье	-8843
▁camera	-8844
▁проект	-8845
▁petites	-8846
▁Verhalten	-8847
▁croiss	-8848
▁вообще	-8849
otdeauna	-8850
▁ähn	-8851
▁prix	-8852
ennent	-8853
▁réellement	-8854
rik	-8855
řen	-8856
▁nen	-8857
atten	-8858
istic	-8859
▁заболе	-8860
▁puterea	-8861
▁reprezent	-8862
▁rê	-8863
▁rok	-8864
▁yourself	-8865
▁zat	-8866
▁Auto	-8867
▁commer	-8868
▁neuron	-8869
▁возду	-8870
▁эффектив	-8871
▁psycholog	-8872
▁Program	-8873
grund	-8874
ickou	-8875
iegen	-8876
ступи	-8877
▁short	-8878
▁știți	-8879
vím	-8880
▁Res	-8881
▁map	-8882
влека	-8883
▁cazul	-8884
irer	-8885
▁glück	-8886
▁sechs	-8887
▁Kultur	-8888
▁benutzen	-8889
▁difference	-8890
▁depr	-8891
▁leave	-8892
им	-8893
▁voix	-8894
▁мной	-8895
▁tradi	-8896
▁финан	-8897
▁seeing	-8898
▁komplex	-8899
cen	-8900
▁cla	-8901
▁gag	-8902
▁серд	-8903
▁pattern	-8904
▁împotriv	-8905
telor	-8906
▁treat	-8907
▁énorme	-8908
▁правда	-8909
mlich	-8910
▁улуч	-8911
▁thousands	-8912
▁sed	-8913
▁record	-8914
enken	-8915
▁free	-8916
▁skutečně	-8917
▁augment	-8918
▁пси	-8919
inder	-8920
▁Fort	-8921
▁simul	-8922
▁нечто	-8923
▁cuvinte	-8924
”,	-8925
▁ry	-8926
▁suite	-8927
uşi	-8928
еры	-8929
annte	-8930
▁braucht	-8931
▁gaz	-8932
anete	-8933
▁eyes	-8934
йн	-8935
▁»,	-8936
icon	-8937
▁cra	-8938
▁vaše	-8939
▁запу	-8940
▁сколько	-8941
▁Park	-8942
▁gauche	-8943
▁принци	-8944
▁okay	-8945
шение	-8946
▁дать	-8947
▁куда	-8948
▁приня	-8949
▁amint	-8950
▁náš	-8951
▁préf	-8952
▁allem	-8953
▁sunte	-8954
▁dessus	-8955
▁či	-8956
▁zví	-8957
▁fire	-8958
▁čast	-8959
▁formă	-8960
▁будем	-8961
▁pensez	-8962
hne	-8963
ovi	-8964
icken	-8965
▁turned	-8966
▁безопасно	-8967
▁individual	-8968
ié	-8969
▁Бу	-8970
▁Francis	-8971
ular	-8972
▁cities	-8973
▁permis	-8974
ărut	-8975
▁Rich	-8976
▁музы	-8977
лый	-8978
▁rent	-8979
ulpt	-8980
▁Ziel	-8981
▁creierul	-8982
▁occ	-8983
▁longtemps	-8984
▁fur	-8985
▁march	-8986
▁”	-8987
xte	-8988
▁proti	-8989
▁způsobem	-8990
фа	-8991
plan	-8992
▁leb	-8993
▁demander	-8994
▁év	-8995
▁sage	-8996
▁делаем	-8997
▁масшта	-8998
▁Această	-8999
sa	-9000
▁našich	-9001
▁revolu	-9002
▁díky	-9003
▁terms	-9004
▁информацию	-9005
▁Fü	-9006
▁туда	-9007
▁rychle	-9008
▁sănătate	-9009
честве	-9010
▁unique	-9011
▁Patienten	-9012
▁râ	-9013
леко	-9014
▁тео	-9015
▁fish	-9016
▁jedem	-9017
yst	-9018
▁своё	-9019
▁сильно	-9020
iqué	-9021
▁fiu	-9022
unile	-9023
▁chci	-9024
atorul	-9025
▁during	-9026
▁стране	-9027
▁четыре	-9028
▁instant	-9029
ération	-9030
▁Gefühl	-9031
▁irgendwie	-9032
St	-9033
▁atom	-9034
▁angaj	-9035
▁gândesc	-9036
▁Regierung	-9037
▁Uns	-9038
По	-9039
lub	-9040
▁GPS	-9041
▁attend	-9042
aste	-9043
toar	-9044
▁unor	-9045
ждение	-9046
▁счастли	-9047
mm	-9048
ützen	-9049
▁бога	-9050
▁kdyby	-9051
Musique	-9052
▁спустя	-9053
▁informations	-9054
rač	-9055
issez	-9056
▁limba	-9057
▁постоянно	-9058
sh	-9059
urb	-9060
▁oben	-9061
▁réal	-9062
▁Stück	-9063
ability	-9064
ließlich	-9065
▁Ed	-9066
▁poor	-9067
▁твор	-9068
▁collabor	-9069
ině	-9070
äten	-9071
чай	-9072
aring	-9073
▁však	-9074
▁press	-9075
▁simply	-9076
доб	-9077
▁influen	-9078
roll	-9079
vânt	-9080
▁given	-9081
▁seven	-9082
ifen	-9083
oles	-9084
▁area	-9085
ленной	-9086
ровали	-9087
▁Durch	-9088
▁Polit	-9089
▁abyste	-9090
iance	-9091
▁journal	-9092
▁infrastruct	-9093
тил	-9094
▁Herz	-9095
idem	-9096
▁tat	-9097
▁sold	-9098
▁urma	-9099
▁vrut	-9100
▁минут	-9101
▁dû	-9102
шить	-9103
punkt	-9104
▁противо	-9105
tt	-9106
inţ	-9107
▁оди	-9108
▁nové	-9109
нём	-9110
ньше	-9111
▁cos	-9112
ităţii	-9113
▁někdo	-9114
▁равно	-9115
▁множество	-9116
icei	-9117
Музыка	-9118
ämp	-9119
ссо	-9120
▁lepší	-9121
вари	-9122
▁devrait	-9123
ям	-9124
han	-9125
sam	-9126
inner	-9127
pf	-9128
▁arh	-9129
▁nejsou	-9130
▁profit	-9131
aimerais	-9132
▁svého	-9133
▁bacter	-9134
ezi	-9135
edi	-9136
▁hack	-9137
▁okol	-9138
▁дево	-9139
ставить	-9140
▁dolarů	-9141
▁месяцев	-9142
▁mouvement	-9143
хран	-9144
▁manchmal	-9145
▁Ergeb	-9146
▁хотят	-9147
▁tap	-9148
ölker	-9149
▁wait	-9150
▁Richt	-9151
▁budeme	-9152
▁milieu	-9153
▁современ	-9154
ipp	-9155
fall	-9156
▁paci	-9157
▁Instit	-9158
êts	-9159
▁tab	-9160
▁Städ	-9161
▁содер	-9162
▁Eltern	-9163
▁father	-9164
▁раньше	-9165
▁vorstellen	-9166
ăp	-9167
ktu	-9168
▁vzděl	-9169
▁vorbim	-9170
▁большое	-9171
▁différence	-9172
inc	-9173
▁Ko	-9174
indung	-9175
ář	-9176
inţa	-9177
▁Kor	-9178
▁driv	-9179
▁scale	-9180
▁другом	-9181
▁ожида	-9182
▁Oamenii	-9183
▁mém	-9184
ţiune	-9185
▁mondiale	-9186
▁chví	-9187
▁chiff	-9188
▁statt	-9189
▁абсолют	-9190
ifer	-9191
endet	-9192
èrent	-9193
▁стала	-9194
wood	-9195
▁drog	-9196
▁beginning	-9197
étés	-9198
▁дальше	-9199
▁помощи	-9200
▁doivent	-9201
gent	-9202
льная	-9203
▁societate	-9204
▁Pap	-9205
▁efe	-9206
▁ан	-9207
tive	-9208
▁graph	-9209
▁services	-9210
▁moving	-9211
chnik	-9212
▁плохо	-9213
▁замети	-9214
▁specific	-9215
▁27	-9216
▁ță	-9217
ávají	-9218
▁pohy	-9219
▁повед	-9220
▁tol	-9221
▁parts	-9222
▁prive	-9223
▁inn	-9224
▁Кто	-9225
▁radi	-9226
30	-9227
ows	-9228
нки	-9229
itan	-9230
▁vent	-9231
▁hands	-9232
▁ды	-9233
▁kap	-9234
▁секу	-9235
▁companies	-9236
▁kr	-9237
inct	-9238
▁Beweg	-9239
▁потря	-9240
▁perhaps	-9241
▁veulent	-9242
▁нор	-9243
▁vezi	-9244
▁cannot	-9245
▁contrôle	-9246
ptem	-9247
▁scen	-9248
▁touch	-9249
▁той	-9250
▁лекар	-9251
▁намного	-9252
ляр	-9253
рио	-9254
▁urme	-9255
▁ändern	-9256
▁случай	-9257
▁apprendre	-9258
▁production	-9259
▁pren	-9260
▁droit	-9261
▁jeune	-9262
▁symbol	-9263
▁относи	-9264
ota	-9265
put	-9266
ěst	-9267
▁box	-9268
▁blue	-9269
▁слово	-9270
▁chacun	-9271
čen	-9272
icol	-9273
▁Něk	-9274
indet	-9275
▁perd	-9276
▁stell	-9277
oute	-9278
▁lost	-9279
▁plant	-9280
▁Luft	-9281
▁simt	-9282
▁включа	-9283
▁erhalten	-9284
▁rezultat	-9285
▁Minuten	-9286
obs	-9287
věř	-9288
▁Nej	-9289
adem	-9290
▁hätten	-9291
▁являются	-9292
▁kid	-9293
ůžeme	-9294
▁Bill	-9295
▁Bine	-9296
сур	-9297
▁приве	-9298
▁гражда	-9299
▁Интер	-9300
▁instru	-9301
věd	-9302
щему	-9303
ource	-9304
▁какие	-9305
▁Certain	-9306
гру	-9307
▁îți	-9308
▁effic	-9309
▁action	-9310
tah	-9311
ницы	-9312
esprit	-9313
ванием	-9314
▁обеспе	-9315
▁bul	-9316
▁větší	-9317
▁entier	-9318
▁Большо	-9319
▁dál	-9320
▁evol	-9321
тельных	-9322
▁postav	-9323
гна	-9324
▁Bang	-9325
▁Chin	-9326
▁objev	-9327
▁behavior	-9328
▁scientifiques	-9329
mai	-9330
мых	-9331
▁mlad	-9332
▁dramat	-9333
oke	-9334
чит	-9335
▁iPh	-9336
▁Arbe	-9337
▁bază	-9338
▁краси	-9339
hood	-9340
▁duc	-9341
▁дене	-9342
nos	-9343
häng	-9344
nými	-9345
▁ADN	-9346
hnt	-9347
roz	-9348
rée	-9349
▁мате	-9350
▁microb	-9351
моби	-9352
▁aște	-9353
▁пути	-9354
▁selon	-9355
▁thank	-9356
mêmes	-9357
▁круп	-9358
▁needs	-9359
▁Afghanistan	-9360
▁hart	-9361
▁adapt	-9362
ju	-9363
▁fot	-9364
▁Зна	-9365
▁Weil	-9366
▁месте	-9367
▁deuxième	-9368
▁challenge	-9369
▁gla	-9370
Musik	-9371
carea	-9372
▁curi	-9373
▁employ	-9374
▁uvědom	-9375
▁emotion	-9376
▁fiindcă	-9377
▁vreodată	-9378
▁dreap	-9379
▁находя	-9380
▁appelle	-9381
lip	-9382
ясь	-9383
auer	-9384
▁кое	-9385
▁пой	-9386
▁здоро	-9387
▁voudrais	-9388
▁jíd	-9389
▁Paul	-9390
▁Sicher	-9391
▁fonctionne	-9392
▁samozřejmě	-9393
ями	-9394
stre	-9395
stoff	-9396
▁obvi	-9397
▁împotriva	-9398
ху	-9399
▁поз	-9400
▁sang	-9401
▁dévelop	-9402
▁Gruppe	-9403
▁bestimm	-9404
▁oil	-9405
стави	-9406
▁zach	-9407
▁заключа	-9408
рах	-9409
▁Aşadar	-9410
▁посмотреть	-9411
uie	-9412
anten	-9413
hnout	-9414
▁Dieu	-9415
▁daca	-9416
▁потеря	-9417
▁потреб	-9418
▁complexe	-9419
щь	-9420
ктор	-9421
▁fim	-9422
▁ziua	-9423
lossen	-9424
richten	-9425
▁friend	-9426
▁temper	-9427
rog	-9428
▁Christ	-9429
▁position	-9430
▁programme	-9431
▁potriv	-9432
▁Его	-9433
MS	-9434
▁různ	-9435
▁stav	-9436
тельной	-9437
▁модель	-9438
Muz	-9439
zahl	-9440
▁Bru	-9441
ifall	-9442
▁ball	-9443
▁forma	-9444
▁nejlepší	-9445
шения	-9446
▁foot	-9447
▁danger	-9448
▁rom	-9449
▁YouT	-9450
▁hosp	-9451
▁break	-9452
▁путеше	-9453
▁důležit	-9454
▁ито	-9455
années	-9456
tens	-9457
▁Voi	-9458
▁lua	-9459
▁aibă	-9460
▁невоз	-9461
▁prostě	-9462
▁вопросы	-9463
▁particulier	-9464
▁большинство	-9465
rip	-9466
сить	-9467
▁здоров	-9468
▁считаю	-9469
▁Gemeins	-9470
žně	-9471
яза	-9472
▁low	-9473
▁reach	-9474
▁middle	-9475
▁endroits	-9476
стоит	-9477
▁démoc	-9478
▁производ	-9479
шен	-9480
führt	-9481
▁intre	-9482
▁Stunden	-9483
▁baz	-9484
▁longer	-9485
▁ограни	-9486
▁говорил	-9487
álně	-9488
igte	-9489
▁нашу	-9490
amment	-9491
▁области	-9492
▁accident	-9493
pose	-9494
▁čem	-9495
unch	-9496
▁excit	-9497
▁salle	-9498
▁своим	-9499
▁několik	-9500
aze	-9501
▁600	-9502
▁YouTube	-9503
▁составля	-9504
нной	-9505
▁Yeah	-9506
▁anii	-9507
▁nişte	-9508
▁195	-9509
▁новый	-9510
ruption	-9511
▁desigur	-9512
▁pt	-9513
onde	-9514
▁zpr	-9515
▁găsi	-9516
▁interpre	-9517
▁ř	-9518
чек	-9519
руют	-9520
▁nas	-9521
▁aduc	-9522
▁Masch	-9523
▁evolution	-9524
▁2.	-9525
▁felt	-9526
▁richt	-9527
eur	-9528
▁effet	-9529
nat	-9530
▁Дру	-9531
▁spectac	-9532
▁direction	-9533
berg	-9534
gere	-9535
▁пару	-9536
imme	-9537
▁Cop	-9538
fully	-9539
▁Veränder	-9540
itori	-9541
▁mediu	-9542
▁suprav	-9543
▁pouvais	-9544
рос	-9545
▁Pos	-9546
ham	-9547
▁sly	-9548
▁vei	-9549
▁zic	-9550
aktion	-9551
▁humaine	-9552
▁entreprises	-9553
пас	-9554
▁dori	-9555
▁Einstein	-9556
▁мед	-9557
▁Într	-9558
▁обуч	-9559
▁пода	-9560
▁Super	-9561
▁einge	-9562
▁возвра	-9563
▁verändert	-9564
льте	-9565
▁réf	-9566
▁gesam	-9567
igu	-9568
leil	-9569
▁ern	-9570
▁непо	-9571
▁взять	-9572
▁эволю	-9573
▁doilea	-9574
▁voyage	-9575
▁erk	-9576
▁méně	-9577
▁beiden	-9578
жит	-9579
vůli	-9580
▁Noi	-9581
▁egal	-9582
▁fy	-9583
cles	-9584
▁fand	-9585
▁recht	-9586
Beifall	-9587
▁needed	-9588
▁similar	-9589
▁wollten	-9590
симо	-9591
ěla	-9592
чем	-9593
ději	-9594
▁Pal	-9595
▁ofer	-9596
▁вместо	-9597
ственный	-9598
žná	-9599
▁сказали	-9600
▁merveille	-9601
▁bill	-9602
▁step	-9603
ležité	-9604
▁nouveaux	-9605
▁вся	-9606
▁Angel	-9607
▁знать	-9608
ческую	-9609
▁puisse	-9610
▁сотруд	-9611
▁нач	-9612
podob	-9613
▁biologie	-9614
▁Sü	-9615
▁Tur	-9616
▁muž	-9617
▁архи	-9618
▁software	-9619
лии	-9620
icks	-9621
▁sco	-9622
чного	-9623
▁oare	-9624
▁Bezie	-9625
▁profond	-9626
▁perspective	-9627
ässt	-9628
▁Sim	-9629
▁шта	-9630
▁află	-9631
▁umane	-9632
▁common	-9633
▁видели	-9634
▁Cha	-9635
▁obicei	-9636
▁прошло	-9637
▁решение	-9638
▁Sinn	-9639
▁machines	-9640
▁ense	-9641
▁save	-9642
aissez	-9643
▁Затем	-9644
▁present	-9645
▁ul	-9646
▁ești	-9647
▁глубо	-9648
▁Heraus	-9649
▁Vater	-9650
▁ansch	-9651
▁propres	-9652
▁Kom	-9653
▁scre	-9654
▁ženy	-9655
▁Mulţumesc	-9656
arul	-9657
jete	-9658
стно	-9659
▁eight	-9660
ola	-9661
▁singură	-9662
▁SU	-9663
roje	-9664
▁ode	-9665
▁risc	-9666
atever	-9667
▁сможем	-9668
▁rech	-9669
▁measure	-9670
▁aw	-9671
alul	-9672
uste	-9673
vision	-9674
▁příklad	-9675
НК	-9676
ой	-9677
рию	-9678
▁său	-9679
▁профе	-9680
▁People	-9681
▁хотели	-9682
▁систему	-9683
▁né	-9684
▁phone	-9685
▁přesně	-9686
▁интересно	-9687
лые	-9688
▁Freund	-9689
leb	-9690
berfl	-9691
▁doká	-9692
▁získ	-9693
▁nämlich	-9694
▁каждого	-9695
gi	-9696
ску	-9697
▁pét	-9698
▁faţă	-9699
тельность	-9700
information	-9701
ingu	-9702
▁mama	-9703
▁gas	-9704
▁опера	-9705
▁Именно	-9706
arii	-9707
year	-9708
▁smě	-9709
děpodob	-9710
▁spaţi	-9711
▁întoar	-9712
▁продук	-9713
▁entwickeln	-9714
▁Gegen	-9715
rž	-9716
▁venir	-9717
▁hodnot	-9718
Je	-9719
дж	-9720
isf	-9721
haft	-9722
ţiei	-9723
▁tău	-9724
▁Krebs	-9725
▁среди	-9726
1.	-9727
▁moje	-9728
▁Hause	-9729
▁появля	-9730
▁построи	-9731
лл	-9732
ilib	-9733
plat	-9734
▁Neu	-9735
eller	-9736
▁einzel	-9737
▁argument	-9738
▁momentul	-9739
▁Ist	-9740
▁мыс	-9741
▁réseau	-9742
▁математи	-9743
▁Va	-9744
asete	-9745
▁deta	-9746
▁roku	-9747
▁Darwin	-9748
ši	-9749
▁spra	-9750
▁сообще	-9751
▁croissance	-9752
▁99	-9753
weit	-9754
▁béb	-9755
▁împărtă	-9756
▁sozi	-9757
▁rod	-9758
▁sale	-9759
▁version	-9760
ák	-9761
isé	-9762
▁Hö	-9763
kají	-9764
▁rov	-9765
▁eher	-9766
▁résult	-9767
íná	-9768
▁Га	-9769
▁Dieser	-9770
▁einigen	-9771
▁Zusammen	-9772
▁beginnen	-9773
▁conversation	-9774
ortex	-9775
▁gone	-9776
▁změn	-9777
▁importantă	-9778
oară	-9779
▁jazy	-9780
▁неда	-9781
▁afară	-9782
▁supraf	-9783
▁неф	-9784
ximativ	-9785
▁Beg	-9786
▁conect	-9787
▁biz	-9788
▁bog	-9789
▁Mond	-9790
ination	-9791
▁mondial	-9792
vání	-9793
ţile	-9794
▁lire	-9795
▁semaines	-9796
Да	-9797
rieb	-9798
▁странах	-9799
▁powerful	-9800
зов	-9801
▁протя	-9802
▁combien	-9803
▁încercat	-9804
▁фа	-9805
haus	-9806
▁wohl	-9807
▁Acestea	-9808
▁Gebäude	-9809
▁ценно	-9810
стер	-9811
▁Kle	-9812
verage	-9813
▁aduce	-9814
▁modif	-9815
▁produits	-9816
▁ded	-9817
▁corre	-9818
▁obrov	-9819
▁mluvit	-9820
▁Kan	-9821
▁droite	-9822
▁výzkum	-9823
▁TV	-9824
▁Fahr	-9825
▁attra	-9826
▁expos	-9827
▁domeni	-9828
риан	-9829
▁hyp	-9830
▁international	-9831
erven	-9832
▁stay	-9833
тически	-9834
bru	-9835
aren	-9836
▁politici	-9837
oho	-9838
▁Cam	-9839
▁abstra	-9840
шла	-9841
anci	-9842
▁size	-9843
▁intens	-9844
arc	-9845
нный	-9846
▁pil	-9847
▁1000	-9848
▁ability	-9849
cke	-9850
▁bure	-9851
▁heut	-9852
▁apart	-9853
▁strong	-9854
▁öffent	-9855
▁причина	-9856
▁derrière	-9857
матри	-9858
▁Gott	-9859
▁děje	-9860
▁доба	-9861
▁рода	-9862
▁dificil	-9863
▁управля	-9864
дили	-9865
ţilor	-9866
▁born	-9867
▁luăm	-9868
скольку	-9869
▁globale	-9870
êter	-9871
▁cuvânt	-9872
▁imagini	-9873
▁unglaublich	-9874
чув	-9875
тельное	-9876
▁concern	-9877
▁vorbi	-9878
▁ştiţi	-9879
▁созна	-9880
▁Erfahrung	-9881
▁führen	-9882
imal	-9883
ènes	-9884
année	-9885
▁péri	-9886
▁полови	-9887
zustellen	-9888
▁finalement	-9889
yons	-9890
▁mou	-9891
▁sout	-9892
▁getan	-9893
▁central	-9894
rove	-9895
дает	-9896
uchten	-9897
▁George	-9898
▁Gleich	-9899
ledge	-9900
▁любой	-9901
▁повто	-9902
▁quickly	-9903
▁utilisé	-9904
▁überhaupt	-9905
▁stole	-9906
▁Anfang	-9907
▁încred	-9908
čil	-9909
▁Sur	-9910
▁arun	-9911
▁выпол	-9912
▁Material	-9913
▁opportunity	-9914
kle	-9915
▁Bes	-9916
▁связ	-9917
▁общества	-9918
▁unterschied	-9919
▁Byl	-9920
▁путь	-9921
▁physical	-9922
▁Возможно	-9923
vard	-9924
▁Zum	-9925
▁восста	-9926
▁Aujourd	-9927
▁fundamental	-9928
▁ген	-9929
▁găse	-9930
▁velké	-9931
▁lat	-9932
igner	-9933
▁пожа	-9934
▁recog	-9935
▁siste	-9936
▁Rad	-9937
▁slo	-9938
▁brill	-9939
▁důležité	-9940
hou	-9941
▁sute	-9942
▁confer	-9943
▁explain	-9944
▁ostatní	-9945
▁întrebări	-9946
ismul	-9947
▁pământ	-9948
▁physique	-9949
rd	-9950
íš	-9951
кли	-9952
▁вдох	-9953
кс	-9954
ceva	-9955
▁emer	-9956
▁мало	-9957
▁aveau	-9958
▁innerhalb	-9959
▁Herausforder	-9960
▁wegen	-9961
▁нейро	-9962
▁взаимодей	-9963
лых	-9964
▁требу	-9965
esten	-9966
▁ukaz	-9967
▁psi	-9968
▁welt	-9969
ătorul	-9970
зывать	-9971
▁engag	-9972
▁perdu	-9973
▁expect	-9974
▁moitié	-9975
▁давайте	-9976
▁Luc	-9977
▁jaké	-9978
▁préd	-9979
▁tiner	-9980
▁femeie	-9981
лён	-9982
▁US	-9983
▁жур	-9984
▁Тогда	-9985
▁Bereich	-9986
▁political	-9987
irm	-9988
staun	-9989
▁vrei	-9990
▁visual	-9991
▁einzige	-9992
▁Som	-9993
▁Pers	-9994
▁page	-9995
▁Times	-9996
▁verschiedenen	-9997
eta	-9998
▁pam	-9999
▁wonderful	-10000
▁cri	-10001
▁vrát	-10002
▁vysok	-10003
▁motive	-10004
▁například	-10005
▁besten	-10006
▁vedeţi	-10007
▁Tages	-10008
▁легко	-10009
▁lungul	-10010
▁signific	-10011
oda	-10012
pekt	-10013
outer	-10014
▁aşte	-10015
▁tried	-10016
éducation	-10017
▁progress	-10018
anu	-10019
oca	-10020
țile	-10021
▁дер	-10022
▁subst	-10023
nui	-10024
ajul	-10025
udba	-10026
▁eşti	-10027
▁выше	-10028
▁vůbec	-10029
▁supravie	-10030
▁автомоби	-10031
dess	-10032
▁пес	-10033
▁sitting	-10034
ujete	-10035
êtres	-10036
▁fert	-10037
atives	-10038
zz	-10039
rant	-10040
▁Ans	-10041
лемен	-10042
▁Priv	-10043
▁ground	-10044
utiliser	-10045
vu	-10046
zí	-10047
▁250	-10048
▁пять	-10049
▁Suntem	-10050
▁трудно	-10051
▁Евро	-10052
▁комна	-10053
duction	-10054
▁associ	-10055
uly	-10056
чная	-10057
▁paper	-10058
▁sortir	-10059
cter	-10060
lang	-10061
▁sobě	-10062
▁разре	-10063
4.	-10064
acy	-10065
▁вст	-10066
▁přím	-10067
кну	-10068
▁tau	-10069
▁appare	-10070
▁termes	-10071
▁Prozess	-10072
▁Stellen	-10073
▁conséqu	-10074
▁călător	-10075
▁gemeins	-10076
▁kvůli	-10077
20	-10078
6,	-10079
▁Braz	-10080
▁решили	-10081
▁животных	-10082
▁либо	-10083
▁surviv	-10084
кре	-10085
▁snad	-10086
▁перио	-10087
рование	-10088
▁Sachen	-10089
▁pochop	-10090
▁dens	-10091
▁slow	-10092
▁навер	-10093
▁mobile	-10094
inii	-10095
lant	-10096
вли	-10097
мира	-10098
▁růz	-10099
▁cere	-10100
▁науч	-10101
▁fabri	-10102
▁fața	-10103
▁parlé	-10104
▁realizat	-10105
ichen	-10106
▁будто	-10107
▁adolesc	-10108
▁наконец	-10109
▁realized	-10110
▁înregist	-10111
▁résultats	-10112
йд	-10113
enci	-10114
ceme	-10115
ково	-10116
мень	-10117
▁Japan	-10118
▁schauen	-10119
.:	-10120
▁Kap	-10121
▁lar	-10122
▁Bylo	-10123
▁источ	-10124
▁лабора	-10125
▁Cre	-10126
▁тво	-10127
▁уровень	-10128
ţeles	-10129
▁Port	-10130
▁offen	-10131
▁имеют	-10132
▁descri	-10133
▁închis	-10134
▁key	-10135
▁limb	-10136
▁внут	-10137
▁Right	-10138
▁value	-10139
8,	-10140
▁PI	-10141
▁попро	-10142
▁suprafa	-10143
lege	-10144
icl	-10145
urse	-10146
▁weeks	-10147
▁Sin	-10148
atell	-10149
▁собы	-10150
▁někdy	-10151
▁предпо	-10152
ills	-10153
umen	-10154
▁Austral	-10155
▁relation	-10156
лиги	-10157
▁Ens	-10158
▁zkou	-10159
back	-10160
▁zwar	-10161
atoire	-10162
▁эмо	-10163
▁обсу	-10164
▁munca	-10165
▁существо	-10166
▁Bas	-10167
Muzică	-10168
genommen	-10169
еня	-10170
▁path	-10171
▁vreo	-10172
▁zero	-10173
▁разру	-10174
▁function	-10175
icit	-10176
ража	-10177
▁toc	-10178
вление	-10179
▁другу	-10180
ického	-10181
▁natur	-10182
▁Kindern	-10183
▁auss	-10184
▁ресур	-10185
▁send	-10186
denken	-10187
▁devin	-10188
▁altceva	-10189
▁Möglichkeiten	-10190
aster	-10191
elten	-10192
▁тела	-10193
▁tox	-10194
▁rot	-10195
▁кле	-10196
ronom	-10197
▁beob	-10198
termin	-10199
▁lesqu	-10200
▁выступ	-10201
рое	-10202
▁buň	-10203
▁entf	-10204
intér	-10205
▁сцен	-10206
▁spoust	-10207
▁environnement	-10208
gy	-10209
itm	-10210
otyp	-10211
▁Ști	-10212
▁запи	-10213
▁разные	-10214
undă	-10215
▁виду	-10216
▁maxim	-10217
▁effort	-10218
▁серьёз	-10219
▁medical	-10220
▁partager	-10221
lení	-10222
▁bank	-10223
▁лично	-10224
▁rol	-10225
▁měla	-10226
▁odată	-10227
▁aproximativ	-10228
▁Бы	-10229
▁Bür	-10230
▁doved	-10231
▁ascult	-10232
▁хотите	-10233
▁allé	-10234
▁zpět	-10235
▁treffen	-10236
▁known	-10237
▁решил	-10238
▁iPhone	-10239
ood	-10240
rif	-10241
▁nan	-10242
▁недоста	-10243
oudre	-10244
ющего	-10245
▁minunat	-10246
▁religion	-10247
▁Sm	-10248
▁fyz	-10249
▁jenom	-10250
▁robots	-10251
jme	-10252
kre	-10253
▁Werk	-10254
▁актив	-10255
ads	-10256
▁Би	-10257
пере	-10258
époque	-10259
▁manif	-10260
▁surpris	-10261
▁conscience	-10262
клады	-10263
▁dark	-10264
▁fear	-10265
▁furt	-10266
▁Forsch	-10267
▁verwenden	-10268
▁vö	-10269
klád	-10270
vali	-10271
wert	-10272
▁Russ	-10273
▁дней	-10274
▁Publikum	-10275
▁možné	-10276
pte	-10277
▁ait	-10278
▁Care	-10279
▁întâmpla	-10280
▁говорили	-10281
▁Ла	-10282
▁Abs	-10283
▁presup	-10284
osc	-10285
abili	-10286
▁úspě	-10287
▁dispozit	-10288
hers	-10289
▁cht	-10290
▁рай	-10291
ctement	-10292
▁filles	-10293
▁dalších	-10294
▁населения	-10295
asst	-10296
ization	-10297
ятся	-10298
▁вещь	-10299
▁иска	-10300
▁nicio	-10301
▁smart	-10302
▁feeling	-10303
nés	-10304
▁руки	-10305
▁alone	-10306
ech	-10307
жете	-10308
▁falsch	-10309
▁laisser	-10310
▁gleichen	-10311
▁comportement	-10312
mon	-10313
▁Lors	-10314
▁často	-10315
▁livres	-10316
isl	-10317
ängt	-10318
▁поку	-10319
▁document	-10320
place	-10321
▁clip	-10322
▁solutions	-10323
gré	-10324
ests	-10325
▁cant	-10326
▁rein	-10327
▁encou	-10328
▁spent	-10329
▁includ	-10330
▁příliš	-10331
▁примен	-10332
ütz	-10333
▁Amaz	-10334
▁snaž	-10335
▁jednou	-10336
rote	-10337
▁новых	-10338
chem	-10339
▁mol	-10340
▁NASA	-10341
▁каса	-10342
▁мета	-10343
▁mètres	-10344
▁approach	-10345
valu	-10346
▁adv	-10347
▁lumină	-10348
▁fondament	-10349
▁определён	-10350
ago	-10351
cii	-10352
iko	-10353
lim	-10354
▁Cor	-10355
gener	-10356
iziert	-10357
▁urban	-10358
▁ребён	-10359
▁peri	-10360
ysteme	-10361
stellen	-10362
▁впервые	-10363
5.	-10364
▁rock	-10365
▁stalo	-10366
had	-10367
▁кры	-10368
▁reag	-10369
▁друзья	-10370
▁будущее	-10371
racy	-10372
▁oppos	-10373
ga	-10374
rz	-10375
▁bomb	-10376
▁bord	-10377
▁нашем	-10378
▁deb	-10379
▁rass	-10380
образи	-10381
▁lidem	-10382
▁участ	-10383
▁whatever	-10384
нам	-10385
iate	-10386
ände	-10387
atiques	-10388
ussi	-10389
▁visu	-10390
▁obten	-10391
▁valeur	-10392
▁частью	-10393
▁bewegen	-10394
▁niemand	-10395
▁podstatě	-10396
▁абсолютно	-10397
rvé	-10398
aise	-10399
ersch	-10400
obody	-10401
лений	-10402
▁реак	-10403
▁miles	-10404
▁uitat	-10405
▁autant	-10406
▁Statele	-10407
▁discuss	-10408
king	-10409
▁issue	-10410
▁mêmes	-10411
эн	-10412
▁Aufgab	-10413
cre	-10414
nelle	-10415
ritte	-10416
▁виру	-10417
illeurs	-10418
▁arhite	-10419
▁встрети	-10420
šli	-10421
▁Není	-10422
▁fight	-10423
▁terme	-10424
roit	-10425
▁apa	-10426
▁vyb	-10427
ivité	-10428
▁solar	-10429
nant	-10430
ächst	-10431
▁pied	-10432
▁réel	-10433
▁роди	-10434
bunătă	-10435
▁distrib	-10436
▁folosind	-10437
amă	-10438
imea	-10439
вших	-10440
▁SUA	-10441
völker	-10442
▁polic	-10443
▁určit	-10444
▁sortes	-10445
▁interested	-10446
▁Их	-10447
anze	-10448
▁practic	-10449
rés	-10450
▁squ	-10451
▁ştim	-10452
ющихся	-10453
▁sculpt	-10454
▁součas	-10455
▁changes	-10456
▁imediat	-10457
▁době	-10458
▁dvou	-10459
▁prior	-10460
▁economy	-10461
▁prostředí	-10462
▁бер	-10463
▁Nein	-10464
▁tort	-10465
▁Zug	-10466
▁humans	-10467
▁niciun	-10468
▁vysvět	-10469
▁raisons	-10470
тых	-10471
▁sho	-10472
▁Keny	-10473
▁appe	-10474
arbeit	-10475
▁svých	-10476
▁Wochen	-10477
▁mussten	-10478
▁будущем	-10479
лки	-10480
▁víte	-10481
▁степ	-10482
▁обяза	-10483
▁interac	-10484
▁confiance	-10485
▁incredible	-10486
ply	-10487
aria	-10488
hode	-10489
asion	-10490
▁Každ	-10491
▁Meer	-10492
▁based	-10493
edia	-10494
▁Red	-10495
▁vypadá	-10496
forme	-10497
▁такая	-10498
▁magnet	-10499
ark	-10500
ibiot	-10501
▁побе	-10502
▁conce	-10503
▁disait	-10504
gra	-10505
inou	-10506
ărie	-10507
▁Peut	-10508
▁dinos	-10509
▁construi	-10510
fit	-10511
řím	-10512
▁Ten	-10513
▁compon	-10514
▁growth	-10515
▁kilomet	-10516
hov	-10517
▁deep	-10518
ký	-10519
anou	-10520
emat	-10521
rosc	-10522
пара	-10523
ским	-10524
▁Our	-10525
▁ДНК	-10526
▁either	-10527
▁Archite	-10528
▁итоге	-10529
▁deschis	-10530
▁cunoscut	-10531
▁picioare	-10532
чную	-10533
▁bil	-10534
▁Wand	-10535
▁fore	-10536
▁furn	-10537
▁analiz	-10538
тельства	-10539
▁semaine	-10540
▁celé	-10541
▁zast	-10542
▁денег	-10543
Afrique	-10544
šet	-10545
▁?"	-10546
▁Dob	-10547
▁bod	-10548
начала	-10549
▁insect	-10550
▁lorsqu	-10551
▁nächste	-10552
▁Typ	-10553
▁drau	-10554
▁sută	-10555
▁entde	-10556
лой	-10557
рели	-10558
▁South	-10559
▁Lassen	-10560
▁потряса	-10561
auso	-10562
rauen	-10563
▁succ	-10564
▁Freunde	-10565
фон	-10566
▁tří	-10567
▁infe	-10568
gangen	-10569
▁acoper	-10570
▁stress	-10571
▁Entwicklung	-10572
▁réuss	-10573
▁shows	-10574
▁fühlen	-10575
▁Один	-10576
▁спраши	-10577
▁molecul	-10578
ilet	-10579
▁matéri	-10580
▁versucht	-10581
sme	-10582
луй	-10583
▁Tom	-10584
oston	-10585
▁electron	-10586
▁étudiants	-10587
rně	-10588
▁thre	-10589
док	-10590
рок	-10591
obil	-10592
veill	-10593
▁motor	-10594
▁часов	-10595
▁смысле	-10596
▁innovation	-10597
льзя	-10598
стати	-10599
▁ușor	-10600
▁связи	-10601
▁produire	-10602
▁menschlichen	-10603
elbe	-10604
▁znám	-10605
▁navig	-10606
▁одном	-10607
▁femeile	-10608
nahme	-10609
смотря	-10610
kn	-10611
лий	-10612
▁рассказыва	-10613
рода	-10614
▁trem	-10615
emment	-10616
▁знают	-10617
▁число	-10618
atif	-10619
▁creș	-10620
zeugen	-10621
▁знает	-10622
inander	-10623
▁Arbeits	-10624
einander	-10625
▁moderne	-10626
гом	-10627
▁Vel	-10628
hemat	-10629
▁schre	-10630
▁premiers	-10631
čet	-10632
дают	-10633
кими	-10634
▁dobré	-10635
▁völlig	-10636
тар	-10637
ături	-10638
▁prime	-10639
▁Zellen	-10640
▁plante	-10641
entially	-10642
▁Anderson	-10643
lea	-10644
erve	-10645
illed	-10646
▁Tage	-10647
économ	-10648
▁părin	-10649
▁spunem	-10650
évolution	-10651
▁mathemat	-10652
fă	-10653
rok	-10654
▁mig	-10655
zieren	-10656
▁inven	-10657
▁mnoha	-10658
▁lucrat	-10659
▁différente	-10660
váte	-10661
▁nevy	-10662
espère	-10663
▁genul	-10664
ivalent	-10665
▁direkt	-10666
▁trebuia	-10667
wär	-10668
▁Ta	-10669
куда	-10670
▁spr	-10671
▁Tent	-10672
▁prez	-10673
▁трёх	-10674
▁Tiere	-10675
▁contrô	-10676
цио	-10677
▁draw	-10678
atorii	-10679
▁suppos	-10680
▁религи	-10681
▁essentiel	-10682
ское	-10683
▁fils	-10684
▁Stand	-10685
▁Может	-10686
▁plastic	-10687
▁temp	-10688
▁Меня	-10689
▁доказа	-10690
▁невозможно	-10691
▁36	-10692
хода	-10693
stell	-10694
terea	-10695
▁baza	-10696
▁vztah	-10697
▁Индии	-10698
▁Grunde	-10699
▁узнать	-10700
тый	-10701
sein	-10702
▁vyp	-10703
▁dětí	-10704
▁otev	-10705
▁reac	-10706
▁různých	-10707
jo	-10708
▁2,	-10709
▁nab	-10710
▁umož	-10711
airement	-10712
Le	-10713
koli	-10714
▁bereit	-10715
▁îmbunătă	-10716
dou	-10717
nač	-10718
aves	-10719
ставьте	-10720
▁soient	-10721
▁étions	-10722
chod	-10723
ární	-10724
воль	-10725
▁vag	-10726
▁jednoho	-10727
▁Некоторы	-10728
▁character	-10729
▁dezvoltare	-10730
ститу	-10731
▁Länder	-10732
▁evident	-10733
▁centaines	-10734
▁Niger	-10735
▁obraz	-10736
▁Boston	-10737
▁Struktur	-10738
▁некоторых	-10739
▁ice	-10740
▁Вто	-10741
▁veți	-10742
▁direc	-10743
▁jednu	-10744
▁stâng	-10745
▁jedoch	-10746
▁maladies	-10747
▁sân	-10748
▁бан	-10749
▁cuno	-10750
▁Însă	-10751
▁rapide	-10752
▁čís	-10753
годно	-10754
enu	-10755
olle	-10756
état	-10757
▁Angeles	-10758
industrie	-10759
ník	-10760
шее	-10761
plin	-10762
▁buy	-10763
▁тор	-10764
▁spez	-10765
▁petrol	-10766
▁cherche	-10767
statt	-10768
▁Vede	-10769
▁сразу	-10770
▁putere	-10771
▁организа	-10772
ема	-10773
äume	-10774
▁Mart	-10775
▁raconter	-10776
▁literally	-10777
mu	-10778
▁pag	-10779
▁îţi	-10780
▁нужны	-10781
▁uneori	-10782
мож	-10783
▁iz	-10784
erei	-10785
▁heureux	-10786
▁caf	-10787
▁Můžete	-10788
▁crimin	-10789
▁général	-10790
▁seconde	-10791
krát	-10792
▁eat	-10793
homme	-10794
▁svým	-10795
▁lidsk	-10796
фици	-10797
▁ras	-10798
▁еди	-10799
▁Tele	-10800
ieg	-10801
▁анали	-10802
▁Denken	-10803
▁manipul	-10804
▁résoudre	-10805
▁миллиардов	-10806
esti	-10807
▁bru	-10808
▁Мно	-10809
achst	-10810
дия	-10811
bene	-10812
alaltă	-10813
▁проте	-10814
▁solche	-10815
▁пользу	-10816
▁развития	-10817
vám	-10818
▁Nap	-10819
▁Lage	-10820
▁logic	-10821
жим	-10822
альной	-10823
▁гу	-10824
▁Who	-10825
▁Flug	-10826
▁Haupt	-10827
▁limit	-10828
▁рядом	-10829
▁смогли	-10830
žel	-10831
щен	-10832
стях	-10833
▁bezpe	-10834
▁amount	-10835
▁eigene	-10836
▁grozav	-10837
▁modele	-10838
▁instrum	-10839
ík	-10840
ované	-10841
более	-10842
ranken	-10843
▁выбор	-10844
▁growing	-10845
▁pere	-10846
▁subject	-10847
▁jiné	-10848
▁исче	-10849
▁seems	-10850
▁televiz	-10851
▁institutions	-10852
чё	-10853
itch	-10854
ключи	-10855
▁Hoff	-10856
▁Situ	-10857
▁celý	-10858
▁другими	-10859
дро	-10860
▁Gh	-10861
▁меха	-10862
▁avion	-10863
▁matin	-10864
▁Umwelt	-10865
▁perman	-10866
3,	-10867
лка	-10868
рко	-10869
▁fu	-10870
▁buni	-10871
▁uşor	-10872
▁aband	-10873
▁права	-10874
▁chemin	-10875
▁credem	-10876
▁philos	-10877
▁verlor	-10878
▁entsche	-10879
▁Ли	-10880
▁vib	-10881
▁bom	-10882
▁знали	-10883
▁cognit	-10884
De	-10885
▁Big	-10886
▁Dal	-10887
▁Оно	-10888
▁malé	-10889
▁meines	-10890
▁группа	-10891
▁potentiel	-10892
You	-10893
▁ha	-10894
▁provo	-10895
пря	-10896
▁Bau	-10897
▁pia	-10898
▁Şti	-10899
ician	-10900
▁Labor	-10901
▁Možná	-10902
▁compet	-10903
▁period	-10904
▁takhle	-10905
▁Harvard	-10906
▁Geschäft	-10907
▁Plus	-10908
▁crée	-10909
▁sami	-10910
annten	-10911
▁понял	-10912
▁sudden	-10913
▁Richard	-10914
▁average	-10915
▁již	-10916
▁svo	-10917
▁coleg	-10918
▁uităm	-10919
▁numită	-10920
▁absolutely	-10921
▁interessant	-10922
▁construction	-10923
imă	-10924
šit	-10925
What	-10926
hrom	-10927
▁list	-10928
antwort	-10929
▁weitere	-10930
ook	-10931
èse	-10932
▁хими	-10933
▁demok	-10934
▁legătură	-10935
▁organism	-10936
ген	-10937
тые	-10938
wusst	-10939
▁Gren	-10940
▁работе	-10941
▁26	-10942
kách	-10943
▁Kat	-10944
▁Tro	-10945
vnitř	-10946
▁Islam	-10947
▁worden	-10948
▁архите	-10949
ctele	-10950
essay	-10951
▁Chic	-10952
тельности	-10953
zii	-10954
▁Unul	-10955
новить	-10956
▁Lehrer	-10957
omo	-10958
uth	-10959
▁rate	-10960
▁одним	-10961
▁consomm	-10962
сок	-10963
inst	-10964
▁мар	-10965
▁psih	-10966
▁сети	-10967
▁adică	-10968
▁wrote	-10969
▁intelligent	-10970
yez	-10971
ček	-10972
▁Dor	-10973
▁čím	-10974
▁clear	-10975
▁scurt	-10976
▁тради	-10977
▁analys	-10978
▁letzte	-10979
▁pomocí	-10980
▁wouldn	-10981
▁Fie	-10982
baren	-10983
▁Kong	-10984
▁feet	-10985
▁функ	-10986
▁concl	-10987
▁Technik	-10988
▁protect	-10989
▁тю	-10990
brig	-10991
▁Mic	-10992
▁deas	-10993
▁kterým	-10994
căm	-10995
вались	-10996
▁Heute	-10997
▁университ	-10998
hör	-10999
▁Ag	-11000
▁имею	-11001
▁Elekt	-11002
▁sufer	-11003
▁bringt	-11004
▁fragte	-11005
▁reduce	-11006
šlo	-11007
▁Sw	-11008
iehen	-11009
жений	-11010
▁Après	-11011
▁mains	-11012
▁Schritt	-11013
afft	-11014
ored	-11015
▁мыш	-11016
▁tată	-11017
▁trec	-11018
▁здра	-11019
Rasete	-11020
▁dessen	-11021
ánu	-11022
нили	-11023
▁défi	-11024
▁Toate	-11025
▁подумал	-11026
▁lab	-11027
рение	-11028
▁wusste	-11029
▁zemi	-11030
istent	-11031
ческим	-11032
▁největ	-11033
▁создания	-11034
▁Francisco	-11035
▁rog	-11036
zellen	-11037
▁infect	-11038
peci	-11039
▁numărul	-11040
isant	-11041
▁batt	-11042
▁fine	-11043
▁păd	-11044
▁vorbit	-11045
▁работают	-11046
PA	-11047
▁Кри	-11048
▁mental	-11049
▁vaccin	-11050
▁mission	-11051
rig	-11052
сон	-11053
▁sty	-11054
plant	-11055
▁Essen	-11056
бов	-11057
ased	-11058
▁stă	-11059
▁adân	-11060
▁vieții	-11061
▁Charles	-11062
шёл	-11063
nici	-11064
▁есте	-11065
▁просты	-11066
▁společnosti	-11067
ael	-11068
рета	-11069
dete	-11070
▁Jen	-11071
▁baby	-11072
▁flex	-11073
▁circul	-11074
▁brought	-11075
▁faisait	-11076
▁Большое	-11077
▁dead	-11078
▁Thema	-11079
▁deren	-11080
▁liste	-11081
▁voice	-11082
▁модели	-11083
▁résultat	-11084
▁Gra	-11085
▁Там	-11086
blick	-11087
▁tolik	-11088
▁studiu	-11089
▁eben	-11090
▁gars	-11091
▁расши	-11092
ichtlich	-11093
▁positive	-11094
▁gh	-11095
▁nást	-11096
▁théorie	-11097
oft	-11098
рот	-11099
▁Ox	-11100
izat	-11101
icale	-11102
▁víme	-11103
▁habit	-11104
тельным	-11105
iam	-11106
pok	-11107
▁Dok	-11108
▁опыт	-11109
▁произ	-11110
▁школу	-11111
▁morning	-11112
▁începem	-11113
▁terrible	-11114
▁невероят	-11115
▁Некоторые	-11116
iza	-11117
elen	-11118
onom	-11119
▁explo	-11120
▁trece	-11121
▁pauvre	-11122
▁nombreux	-11123
воо	-11124
▁Wik	-11125
▁hid	-11126
erele	-11127
▁fail	-11128
▁pièce	-11129
▁прошлом	-11130
▁začal	-11131
▁Каждый	-11132
▁разработа	-11133
zer	-11134
низ	-11135
▁sen	-11136
▁рав	-11137
▁тро	-11138
▁affect	-11139
▁jednot	-11140
стом	-11141
room	-11142
▁Act	-11143
ology	-11144
▁foss	-11145
▁вариан	-11146
чным	-11147
▁institu	-11148
▁économique	-11149
uring	-11150
▁begin	-11151
▁Gedanken	-11152
▁san	-11153
▁bloc	-11154
▁стан	-11155
▁forward	-11156
мые	-11157
▁tar	-11158
ettez	-11159
▁erstaun	-11160
▁.	-11161
тий	-11162
gang	-11163
voří	-11164
▁Sek	-11165
ively	-11166
▁образ	-11167
▁Afrique	-11168
▁электри	-11169
▁фотографии	-11170
▁вет	-11171
▁мою	-11172
asing	-11173
▁mark	-11174
▁bottom	-11175
▁telling	-11176
▁Tento	-11177
▁купи	-11178
▁acelea	-11179
▁constant	-11180
▁Vše	-11181
▁réun	-11182
▁ajuta	-11183
▁lässt	-11184
▁этими	-11185
▁docela	-11186
▁essayé	-11187
▁скорее	-11188
No	-11189
hel	-11190
uld	-11191
▁condi	-11192
▁propo	-11193
▁разно	-11194
▁Dingen	-11195
▁frumos	-11196
▁другим	-11197
▁mention	-11198
▁предпри	-11199
▁Представьте	-11200
▁ram	-11201
issant	-11202
ărilor	-11203
▁Hilfe	-11204
▁beein	-11205
▁parmi	-11206
▁viennent	-11207
▁inteligen	-11208
7.	-11209
▁семьи	-11210
▁несколь	-11211
▁Sl	-11212
řebu	-11213
alter	-11214
occup	-11215
▁тебе	-11216
▁măcar	-11217
▁Чтобы	-11218
▁langage	-11219
▁которыми	-11220
▁pokus	-11221
▁pensons	-11222
ida	-11223
▁Ensuite	-11224
▁schimbă	-11225
▁чувству	-11226
▁pourrions	-11227
▁întotdeauna	-11228
▁Kn	-11229
▁books	-11230
▁grund	-11231
▁oblig	-11232
▁write	-11233
▁хотела	-11234
▁gleiche	-11235
▁oportun	-11236
▁století	-11237
▁поддержи	-11238
lungs	-11239
▁areas	-11240
ственной	-11241
▁knowledge	-11242
▁realitate	-11243
bau	-11244
▁Zač	-11245
▁angl	-11246
▁rare	-11247
рабаты	-11248
▁champ	-11249
▁region	-11250
cela	-11251
▁vál	-11252
rolog	-11253
▁preu	-11254
▁Mittel	-11255
▁caracter	-11256
ská	-11257
чное	-11258
▁Oze	-11259
▁Vol	-11260
▁soon	-11261
▁домой	-11262
▁демократи	-11263
ôp	-11264
вления	-11265
▁facut	-11266
▁satisf	-11267
▁communication	-11268
abă	-11269
▁cob	-11270
▁kos	-11271
žství	-11272
ierend	-11273
rument	-11274
делить	-11275
▁soleil	-11276
▁instrument	-11277
тесь	-11278
range	-11279
▁bist	-11280
▁coin	-11281
ötzlich	-11282
▁arătat	-11283
▁Ты	-11284
ving	-11285
▁борь	-11286
▁kterých	-11287
▁однажды	-11288
▁scientifique	-11289
▁Dou	-11290
▁ghe	-11291
▁пти	-11292
▁nápad	-11293
▁могла	-11294
▁элемен	-11295
▁отношения	-11296
хе	-11297
înd	-11298
▁dok	-11299
▁blood	-11300
▁deloc	-11301
▁napro	-11302
▁утвер	-11303
▁pravděpodob	-11304
arcă	-11305
▁Alle	-11306
▁nice	-11307
▁dělají	-11308
▁Phil	-11309
▁bizar	-11310
▁протяжении	-11311
рон	-11312
ores	-11313
ключ	-11314
▁люб	-11315
▁умер	-11316
arbeite	-11317
▁оказыва	-11318
▁favorite	-11319
rus	-11320
жей	-11321
▁Alex	-11322
▁řekla	-11323
▁Amazon	-11324
▁center	-11325
▁genetic	-11326
cel	-11327
▁šk	-11328
▁spatele	-11329
▁scientists	-11330
чик	-11331
▁пя	-11332
ived	-11333
▁Моя	-11334
▁оте	-11335
льном	-11336
▁mour	-11337
porter	-11338
▁lösen	-11339
▁movement	-11340
▁téléphone	-11341
▁asem	-11342
istance	-11343
▁změnit	-11344
▁proiecte	-11345
▁pourraient	-11346
▁Kr	-11347
▁ţă	-11348
▁veh	-11349
▁фер	-11350
liber	-11351
▁reci	-11352
▁simţ	-11353
▁буква	-11354
şe	-11355
cate	-11356
▁încet	-11357
▁săptămâni	-11358
▁Vorstellung	-11359
▁попу	-11360
▁verst	-11361
▁administ	-11362
▁developed	-11363
▁réfléchir	-11364
▁troisième	-11365
нев	-11366
стан	-11367
ținut	-11368
▁захо	-11369
▁Viele	-11370
▁führt	-11371
▁takto	-11372
flanzen	-11373
▁Monate	-11374
▁бизнес	-11375
▁vytvořit	-11376
iber	-11377
▁Lib	-11378
▁berü	-11379
▁fals	-11380
▁isol	-11381
▁wären	-11382
▁встреча	-11383
▁случилось	-11384
▁угро	-11385
▁смогу	-11386
imi	-11387
hrte	-11388
arele	-11389
▁aflat	-11390
▁element	-11391
ţei	-11392
▁Hum	-11393
▁prv	-11394
▁Tier	-11395
▁desp	-11396
▁trotz	-11397
▁nakonec	-11398
erc	-11399
▁Qui	-11400
▁zah	-11401
äsent	-11402
▁potom	-11403
▁полез	-11404
▁risque	-11405
▁говорим	-11406
тай	-11407
чей	-11408
▁benöt	-11409
▁supra	-11410
▁видов	-11411
▁damals	-11412
▁install	-11413
▁Unterschied	-11414
ivé	-11415
тан	-11416
ștri	-11417
▁Bel	-11418
▁мор	-11419
anele	-11420
essed	-11421
▁mulț	-11422
▁ochii	-11423
▁numesc	-11424
▁groupes	-11425
▁разгово	-11426
▁шо	-11427
ract	-11428
▁Sal	-11429
hören	-11430
▁kill	-11431
▁teilen	-11432
▁Universum	-11433
ls	-11434
ští	-11435
▁32	-11436
ozum	-11437
гами	-11438
▁lev	-11439
▁colon	-11440
▁žádné	-11441
ственное	-11442
▁небольшо	-11443
izi	-11444
Well	-11445
▁Nik	-11446
▁năs	-11447
roveň	-11448
▁metri	-11449
▁acești	-11450
▁Африке	-11451
▁объеди	-11452
bi	-11453
âm	-11454
▁zná	-11455
bsite	-11456
hé	-11457
▁sig	-11458
▁béné	-11459
▁liebe	-11460
▁револю	-11461
▁zů	-11462
▁sand	-11463
▁stellt	-11464
▁тысячи	-11465
▁případě	-11466
▁schimbare	-11467
atom	-11468
etic	-11469
isson	-11470
▁übers	-11471
▁rester	-11472
▁prakt	-11473
▁audience	-11474
▁Ди	-11475
▁minte	-11476
тельная	-11477
▁kleiner	-11478
înt	-11479
лему	-11480
▁идёт	-11481
▁Kraft	-11482
▁nejen	-11483
kü	-11484
енци	-11485
▁Rei	-11486
▁zas	-11487
▁Мой	-11488
▁цели	-11489
▁Gesicht	-11490
▁ordinateur	-11491
▁anci	-11492
▁creş	-11493
▁kompl	-11494
▁покажу	-11495
▁numbers	-11496
▁ax	-11497
▁Sym	-11498
▁Fern	-11499
▁худо	-11500
▁German	-11501
▁améric	-11502
▁caract	-11503
▁forces	-11504
▁genauso	-11505
▁distance	-11506
▁creierului	-11507
ěti	-11508
▁adus	-11509
▁сигна	-11510
▁celles	-11511
▁моё	-11512
▁ausge	-11513
▁teren	-11514
▁chvíli	-11515
▁иннова	-11516
▁přístup	-11517
▁pourtant	-11518
uh	-11519
▁poli	-11520
▁Frank	-11521
▁изуча	-11522
▁каким	-11523
▁решить	-11524
gestellt	-11525
▁starting	-11526
▁наиболее	-11527
▁мя	-11528
nání	-11529
ávat	-11530
▁pla	-11531
▁неде	-11532
▁white	-11533
▁longue	-11534
▁задума	-11535
▁datele	-11536
▁besteht	-11537
▁процентов	-11538
раб	-11539
▁Street	-11540
▁corpul	-11541
▁většina	-11542
ikt	-11543
hnen	-11544
tout	-11545
yond	-11546
▁dél	-11547
▁note	-11548
▁Liebe	-11549
▁mecan	-11550
▁самым	-11551
▁молоды	-11552
▁faisant	-11553
oč	-11554
▁fou	-11555
▁kor	-11556
▁Раз	-11557
▁nombreuses	-11558
▁результате	-11559
cing	-11560
▁Rel	-11561
lagen	-11562
▁воду	-11563
▁London	-11564
▁voulait	-11565
▁зе	-11566
ielt	-11567
jekte	-11568
▁Tats	-11569
▁câşt	-11570
▁Vš	-11571
▁doct	-11572
▁spot	-11573
▁reflect	-11574
icles	-11575
▁Math	-11576
▁пита	-11577
▁équipe	-11578
ériences	-11579
▁проблему	-11580
expérience	-11581
нка	-11582
umin	-11583
▁Vid	-11584
▁dad	-11585
▁све	-11586
boren	-11587
▁Wind	-11588
▁mite	-11589
].	-11590
лла	-11591
▁уж	-11592
▁Revolution	-11593
děli	-11594
role	-11595
▁času	-11596
▁choice	-11597
yc	-11598
рыв	-11599
ront	-11600
ňuje	-11601
ließen	-11602
▁giving	-11603
▁funguje	-11604
▁chercher	-11605
▁Tem	-11606
▁eye	-11607
▁факт	-11608
▁English	-11609
▁subiect	-11610
▁создали	-11611
сл	-11612
ulă	-11613
▁okam	-11614
▁состоит	-11615
рам	-11616
▁Máme	-11617
gebung	-11618
▁gives	-11619
▁Israel	-11620
▁demonst	-11621
▁domaine	-11622
▁development	-11623
▁tw	-11624
▁Му	-11625
rift	-11626
▁част	-11627
▁Woche	-11628
▁tools	-11629
▁climate	-11630
fern	-11631
yant	-11632
ètes	-11633
▁aceşti	-11634
▁numele	-11635
ico	-11636
ţinut	-11637
▁kultur	-11638
▁revolution	-11639
dent	-11640
ivní	-11641
wart	-11642
▁Stan	-11643
▁bate	-11644
▁распо	-11645
▁tocmai	-11646
▁democra	-11647
▁datorită	-11648
▁menschliche	-11649
bez	-11650
nul	-11651
▁ther	-11652
▁apărut	-11653
hält	-11654
știg	-11655
▁fini	-11656
itesse	-11657
▁attack	-11658
▁größer	-11659
▁unters	-11660
▁architect	-11661
▁Gesundheits	-11662
▁сих	-11663
▁With	-11664
▁agen	-11665
▁чему	-11666
▁пришлось	-11667
ному	-11668
▁anc	-11669
▁Verl	-11670
▁самые	-11671
▁obwohl	-11672
▁rozdíl	-11673
▁уровне	-11674
▁journée	-11675
▁большая	-11676
▁расскажу	-11677
▁erlau	-11678
▁active	-11679
▁výsled	-11680
лена	-11681
hrung	-11682
▁beau	-11683
▁dosá	-11684
▁zvíř	-11685
стойчи	-11686
сона	-11687
▁обу	-11688
eníze	-11689
▁Kenya	-11690
▁bleiben	-11691
▁попроси	-11692
▁schreiben	-11693
▁сохра	-11694
▁машины	-11695
▁schwierig	-11696
▁încredere	-11697
9.	-11698
vap	-11699
▁fabric	-11700
▁dreapta	-11701
▁planetă	-11702
▁fotografie	-11703
bal	-11704
▁zo	-11705
▁dispos	-11706
▁člověk	-11707
▁amélior	-11708
▁întrebarea	-11709
▁65	-11710
щать	-11711
▁succès	-11712
anie	-11713
wirk	-11714
rolle	-11715
▁rouge	-11716
▁umană	-11717
▁Bürger	-11718
▁группы	-11719
▁позволяет	-11720
ativă	-11721
▁ocup	-11722
▁inclu	-11723
▁мысли	-11724
▁качестве	-11725
▁невероятно	-11726
yg	-11727
kyt	-11728
рез	-11729
▁bras	-11730
▁doby	-11731
▁hlas	-11732
▁strán	-11733
▁moarte	-11734
▁persön	-11735
▁încercăm	-11736
▁Wahl	-11737
toarea	-11738
▁aufge	-11739
▁dostat	-11740
▁obtenir	-11741
▁создавать	-11742
▁révolution	-11743
estre	-11744
▁выяс	-11745
▁идею	-11746
isions	-11747
▁assis	-11748
šší	-11749
пад	-11750
head	-11751
▁клю	-11752
▁знал	-11753
лением	-11754
▁Kü	-11755
наче	-11756
льную	-11757
▁hine	-11758
▁zept	-11759
▁мину	-11760
izieren	-11761
▁основа	-11762
▁inginer	-11763
▁understanding	-11764
жил	-11765
▁chl	-11766
icien	-11767
▁casă	-11768
▁забы	-11769
țional	-11770
▁stark	-11771
▁весьма	-11772
▁Jahrhundert	-11773
áp	-11774
oro	-11775
hors	-11776
unii	-11777
étud	-11778
élect	-11779
aments	-11780
▁opin	-11781
erează	-11782
▁Nacht	-11783
▁analy	-11784
▁track	-11785
▁vědom	-11786
▁étant	-11787
▁vitesse	-11788
▁Ри	-11789
▁Eram	-11790
▁маль	-11791
▁istorie	-11792
▁meaning	-11793
ification	-11794
We	-11795
Was	-11796
лок	-11797
▁taux	-11798
▁parti	-11799
▁conclu	-11800
▁utilisant	-11801
áno	-11802
▁jedné	-11803
▁rendu	-11804
▁spolu	-11805
▁applic	-11806
▁bineîn	-11807
▁papier	-11808
-1	-11809
чер	-11810
olit	-11811
▁org	-11812
▁ску	-11813
▁Vort	-11814
▁графи	-11815
▁travel	-11816
▁Chinese	-11817
lei	-11818
▁Frei	-11819
▁бере	-11820
▁Steve	-11821
▁zuvor	-11822
▁pensent	-11823
▁réalisé	-11824
▁ged	-11825
▁scă	-11826
▁нес	-11827
verse	-11828
▁aura	-11829
▁ochi	-11830
▁труд	-11831
▁spiritu	-11832
▁informații	-11833
nehm	-11834
hledu	-11835
ibilă	-11836
gefühl	-11837
aissance	-11838
▁creating	-11839
▁компьюте	-11840
žití	-11841
ником	-11842
▁sehe	-11843
▁uvid	-11844
dessus	-11845
▁dream	-11846
▁neigh	-11847
▁закончи	-11848
▁ал	-11849
ссии	-11850
▁стар	-11851
▁типа	-11852
▁cover	-11853
▁mozek	-11854
▁report	-11855
▁modèles	-11856
▁continent	-11857
▁Бе	-11858
▁Dam	-11859
▁circ	-11860
▁pravid	-11861
▁représente	-11862
▁hig	-11863
▁gent	-11864
▁ritu	-11865
▁essen	-11866
▁girls	-11867
▁expert	-11868
▁theory	-11869
▁parties	-11870
▁infin	-11871
▁puteam	-11872
▁suchen	-11873
▁названием	-11874
цени	-11875
leurs	-11876
▁největší	-11877
ther	-11878
▁cup	-11879
▁atac	-11880
▁punem	-11881
▁puternic	-11882
▁заключается	-11883
uraj	-11884
izare	-11885
▁soud	-11886
▁zones	-11887
▁objets	-11888
▁zweite	-11889
▁qualité	-11890
▁vot	-11891
печат	-11892
▁naps	-11893
▁Namen	-11894
▁prise	-11895
▁montré	-11896
▁Chicago	-11897
▁pierdut	-11898
▁învățat	-11899
▁cach	-11900
▁дета	-11901
▁неиз	-11902
schnitt	-11903
bele	-11904
▁тол	-11905
ответ	-11906
atures	-11907
▁надеюсь	-11908
),	-11909
trat	-11910
țiva	-11911
▁conflict	-11912
▁funcţionează	-11913
lar	-11914
ètre	-11915
▁Che	-11916
▁ště	-11917
▁ваши	-11918
worten	-11919
▁stane	-11920
▁право	-11921
su	-11922
▁phr	-11923
▁Doar	-11924
lywood	-11925
▁spațiu	-11926
▁recently	-11927
▁voitures	-11928
▁Wert	-11929
▁ceil	-11930
▁hinaus	-11931
▁reconn	-11932
▁sociétés	-11933
▁potřebujeme	-11934
hai	-11935
âte	-11936
▁gig	-11937
▁кем	-11938
▁devrions	-11939
▁используя	-11940
▁kilom	-11941
▁velký	-11942
pecially	-11943
▁California	-11944
▁Ir	-11945
akes	-11946
▁Inde	-11947
▁Kons	-11948
▁blind	-11949
▁époque	-11950
Das	-11951
víme	-11952
▁Cht	-11953
ardez	-11954
▁Demok	-11955
▁Modell	-11956
▁Verein	-11957
▁peníze	-11958
▁content	-11959
▁materiale	-11960
над	-11961
хов	-11962
▁rôle	-11963
▁бума	-11964
▁déplac	-11965
▁seront	-11966
▁marcher	-11967
▁observa	-11968
▁практически	-11969
řel	-11970
▁Val	-11971
▁fat	-11972
▁пово	-11973
▁price	-11974
▁issues	-11975
▁отправи	-11976
▁pourriez	-11977
▁funcționează	-11978
IDS	-11979
▁tâ	-11980
ätze	-11981
▁lif	-11982
▁cealaltă	-11983
äuft	-11984
▁Jsem	-11985
▁Etats	-11986
ompl	-11987
ющую	-11988
▁нём	-11989
▁приво	-11990
▁întâln	-11991
▁ressources	-11992
iken	-11993
▁budu	-11994
▁ermö	-11995
▁reduc	-11996
ünstler	-11997
▁becomes	-11998
▁посмотрим	-11999
fore	-12000
▁gene	-12001
▁Markt	-12002
▁outils	-12003
▁капита	-12004
▁surtout	-12005
was	-12006
áze	-12007
▁ší	-12008
onen	-12009
леку	-12010
▁sea	-12011
onner	-12012
▁Cine	-12013
▁Nici	-12014
▁mulţ	-12015
▁simț	-12016
▁tare	-12017
▁dépend	-12018
▁règles	-12019
▁Realität	-12020
uren	-12021
žili	-12022
▁Dep	-12023
▁soi	-12024
▁stá	-12025
bauen	-12026
▁Дума	-12027
▁ужас	-12028
▁Alles	-12029
▁самой	-12030
▁концов	-12031
cím	-12032
ücke	-12033
▁Ris	-12034
▁кам	-12035
▁Zahl	-12036
▁deose	-12037
▁hervor	-12038
▁участи	-12039
▁Ещё	-12040
▁suficient	-12041
▁funktionieren	-12042
▁lok	-12043
orter	-12044
rires	-12045
▁asking	-12046
▁behand	-12047
▁companie	-12048
▁tal	-12049
▁Mont	-12050
▁речь	-12051
▁сути	-12052
▁among	-12053
▁running	-12054
▁перемен	-12055
ёд	-12056
ниц	-12057
aben	-12058
▁jas	-12059
▁block	-12060
▁formes	-12061
▁součást	-12062
▁ошиб	-12063
▁synth	-12064
▁sollen	-12065
▁Просто	-12066
▁отлича	-12067
▁Staaten	-12068
Ce	-12069
utes	-12070
▁bitte	-12071
▁Familien	-12072
▁Ме	-12073
▁zav	-12074
▁Lösung	-12075
▁notion	-12076
ственные	-12077
▁později	-12078
äss	-12079
▁Об	-12080
▁pui	-12081
нению	-12082
▁trăi	-12083
▁сюда	-12084
espoir	-12085
lection	-12086
▁leicht	-12087
igkeiten	-12088
tent	-12089
▁tiny	-12090
▁chelt	-12091
▁войны	-12092
▁граждан	-12093
▁tendance	-12094
▁développer	-12095
▁Sing	-12096
▁myst	-12097
▁scène	-12098
▁începutul	-12099
ève	-12100
▁pět	-12101
▁yes	-12102
▁Team	-12103
▁stol	-12104
▁suggest	-12105
adu	-12106
lui	-12107
ovo	-12108
▁mého	-12109
▁anyone	-12110
▁sustain	-12111
3.	-12112
nahmen	-12113
êmement	-12114
▁classe	-12115
▁professe	-12116
▁náz	-12117
▁дом	-12118
▁Prof	-12119
▁stem	-12120
▁magnif	-12121
▁beginnt	-12122
▁glücklich	-12123
měr	-12124
ărat	-12125
licht	-12126
видно	-12127
▁Nahr	-12128
▁raus	-12129
▁achie	-12130
▁mache	-12131
▁треть	-12132
▁durant	-12133
▁intelle	-12134
▁societă	-12135
äuf	-12136
wesen	-12137
▁Avec	-12138
▁bons	-12139
▁interag	-12140
▁contează	-12141
jähr	-12142
▁fus	-12143
ждать	-12144
▁mamm	-12145
▁sunet	-12146
▁Stimme	-12147
▁nějaké	-12148
▁structures	-12149
тили	-12150
▁fair	-12151
▁săra	-12152
▁коло	-12153
gewöhn	-12154
▁druhé	-12155
▁genom	-12156
▁pocit	-12157
▁Muster	-12158
▁răspând	-12159
▁arhitect	-12160
того	-12161
▁Pun	-12162
▁привы	-12163
▁takové	-12164
▁unseres	-12165
▁результат	-12166
нул	-12167
пуска	-12168
▁kolik	-12169
▁публи	-12170
erweise	-12171
▁нельзя	-12172
▁utilise	-12173
▁verbunden	-12174
ikal	-12175
▁fib	-12176
▁sní	-12177
druck	-12178
▁nový	-12179
▁sled	-12180
▁станет	-12181
▁scheint	-12182
▁poslední	-12183
égr	-12184
▁Arm	-12185
▁bor	-12186
▁ran	-12187
▁близ	-12188
▁regulă	-12189
▁anumite	-12190
▁Mad	-12191
▁Пре	-12192
▁ран	-12193
▁cham	-12194
▁крас	-12195
ţional	-12196
▁deshalb	-12197
▁răspunsul	-12198
ered	-12199
нная	-12200
▁taky	-12201
▁tief	-12202
▁udrž	-12203
▁střed	-12204
ausende	-12205
▁actual	-12206
▁größten	-12207
мос	-12208
ovní	-12209
▁Paci	-12210
▁lans	-12211
▁Fisch	-12212
▁obiecte	-12213
▁технологий	-12214
▁Ici	-12215
▁Yes	-12216
▁terrain	-12217
▁фе	-12218
▁dělá	-12219
▁peine	-12220
▁Imaginez	-12221
ăn	-12222
ksam	-12223
▁Ster	-12224
▁tomb	-12225
▁Boden	-12226
▁Unsere	-12227
▁našeho	-12228
▁resurse	-12229
▁distribu	-12230
spr	-12231
kami	-12232
▁Gal	-12233
▁Gef	-12234
▁zku	-12235
▁mâna	-12236
▁отец	-12237
▁trucs	-12238
▁воспо	-12239
▁réussi	-12240
▁Многие	-12241
▁услыша	-12242
ographie	-12243
▁следует	-12244
▁erklären	-12245
▁industry	-12246
öße	-12247
átky	-12248
▁réd	-12249
▁beyond	-12250
▁vérité	-12251
▁certaine	-12252
ommun	-12253
▁țări	-12254
▁nemoc	-12255
▁Позво	-12256
▁allait	-12257
▁местах	-12258
▁â	-12259
▁Jul	-12260
▁rug	-12261
▁vend	-12262
▁spună	-12263
▁zatím	-12264
▁teorie	-12265
▁remarqu	-12266
▁algorith	-12267
▁changing	-12268
uze	-12269
▁Даже	-12270
▁unten	-12271
▁draußen	-12272
▁propria	-12273
▁verschw	-12274
▁betrachten	-12275
äß	-12276
razy	-12277
друг	-12278
▁Prob	-12279
▁route	-12280
▁совме	-12281
itze	-12282
▁мощ	-12283
ологи	-12284
▁alta	-12285
▁drug	-12286
▁soir	-12287
▁životě	-12288
▁700	-12289
▁iau	-12290
▁Stat	-12291
▁graf	-12292
▁jeux	-12293
▁Notre	-12294
▁lesen	-12295
▁shape	-12296
▁stopp	-12297
▁харак	-12298
▁ид	-12299
ünde	-12300
▁Sil	-12301
▁Tor	-12302
inzip	-12303
▁song	-12304
▁veţi	-12305
▁poser	-12306
▁altele	-12307
▁proper	-12308
▁похоже	-12309
zeigt	-12310
▁přímo	-12311
▁visage	-12312
▁Ländern	-12313
▁beeinfl	-12314
▁gelernt	-12315
▁progres	-12316
▁existuje	-12317
▁Tatsächlich	-12318
▁krát	-12319
▁trust	-12320
▁anderer	-12321
RI	-12322
▁Ev	-12323
▁rat	-12324
▁nahm	-12325
ensive	-12326
▁lidmi	-12327
▁însem	-12328
▁fanden	-12329
▁microsc	-12330
▁потенци	-12331
ria	-12332
рел	-12333
▁câştig	-12334
▁intuit	-12335
▁reasons	-12336
▁continuer	-12337
▁Gemeinschaft	-12338
рту	-12339
esea	-12340
▁esc	-12341
ellow	-12342
▁Kamp	-12343
▁Krieg	-12344
▁женщина	-12345
▁evidence	-12346
▁discovered	-12347
▁поговорить	-12348
bin	-12349
del	-12350
appe	-12351
кова	-12352
system	-12353
▁afric	-12354
▁neuro	-12355
▁vieţii	-12356
▁compagn	-12357
▁возника	-12358
▁několika	-12359
füg	-12360
▁Thom	-12361
import	-12362
▁далее	-12363
▁думаете	-12364
edom	-12365
▁Tat	-12366
▁экс	-12367
ённых	-12368
▁Cons	-12369
▁годы	-12370
▁budete	-12371
▁některé	-12372
où	-12373
ллю	-12374
▁Dí	-12375
comp	-12376
ious	-12377
▁hra	-12378
ălalt	-12379
▁masă	-12380
▁stage	-12381
▁разум	-12382
▁stânga	-12383
▁moments	-12384
▁trăiesc	-12385
▁hundreds	-12386
Ne	-12387
▁ano	-12388
inele	-12389
▁rodi	-12390
▁concer	-12391
▁увидите	-12392
▁principal	-12393
▁reconstru	-12394
▁marg	-12395
▁Autos	-12396
▁condu	-12397
▁deveni	-12398
völkerung	-12399
▁petrecut	-12400
▁schlecht	-12401
▁poté	-12402
▁moléc	-12403
▁truth	-12404
věřitel	-12405
▁Kranken	-12406
▁nuclear	-12407
▁potential	-12408
ос	-12409
eux	-12410
▁dot	-12411
▁dale	-12412
▁далеко	-12413
▁результаты	-12414
▁schließlich	-12415
ницу	-12416
▁Don	-12417
astro	-12418
▁toti	-12419
▁expon	-12420
▁îndre	-12421
▁sounds	-12422
économie	-12423
▁matière	-12424
▁contribu	-12425
▁обнаружили	-12426
wa	-12427
▁BG	-12428
▁lic	-12429
▁sta	-12430
▁осу	-12431
▁role	-12432
▁Platz	-12433
▁scrie	-12434
arbeitet	-12435
▁pictures	-12436
▁înțelege	-12437
▁posledních	-12438
▁28	-12439
▁méc	-12440
rodní	-12441
▁unbe	-12442
gliche	-12443
▁North	-12444
▁zcela	-12445
▁aștept	-12446
▁colect	-12447
▁mathém	-12448
▁rămâne	-12449
▁прежде	-12450
▁Mathemat	-12451
▁încearcă	-12452
▁absolument	-12453
▁obiș	-12454
cteurs	-12455
▁toții	-12456
▁sterben	-12457
▁Tatsache	-12458
▁Natürlich	-12459
ývá	-12460
гно	-12461
▁Fo	-12462
abol	-12463
cience	-12464
▁поряд	-12465
▁limite	-12466
▁savent	-12467
▁spread	-12468
schaften	-12469
▁justice	-12470
▁Wissenschaftler	-12471
hli	-12472
ințe	-12473
▁20.	-12474
▁nast	-12475
▁широ	-12476
▁guess	-12477
▁return	-12478
▁condition	-12479
▁PM	-12480
▁zás	-12481
▁concep	-12482
▁manger	-12483
▁0,	-12484
▁Ea	-12485
▁bur	-12486
▁tum	-12487
▁nest	-12488
▁sept	-12489
▁норма	-12490
▁batter	-12491
▁распростран	-12492
Ar	-12493
▁Ле	-12494
itzen	-12495
ctează	-12496
▁подро	-12497
▁управ	-12498
▁уровня	-12499
▁bewusst	-12500
▁Wahrheit	-12501
▁boy	-12502
▁všem	-12503
▁țară	-12504
▁bonnes	-12505
▁deasupra	-12506
▁quantité	-12507
éan	-12508
iche	-12509
▁dăm	-12510
▁obč	-12511
▁pian	-12512
▁scară	-12513
▁Primul	-12514
▁analog	-12515
▁pozi	-12516
izarea	-12517
zeitig	-12518
▁безопасности	-12519
AR	-12520
гой	-12521
▁Blick	-12522
▁Sehen	-12523
▁apare	-12524
▁perce	-12525
▁Gewalt	-12526
▁current	-12527
▁viitorul	-12528
rän	-12529
▁прид	-12530
führen	-12531
▁Canada	-12532
▁câștig	-12533
▁respir	-12534
▁contrib	-12535
▁diminea	-12536
▁private	-12537
▁придума	-12538
▁extrêmement	-12539
ieb	-12540
▁Ah	-12541
iell	-12542
more	-12543
▁reçu	-12544
itaire	-12545
▁tímto	-12546
▁психо	-12547
▁chcete	-12548
▁ressent	-12549
▁geworden	-12550
▁Of	-12551
anter	-12552
▁Jeder	-12553
▁Вам	-12554
▁noir	-12555
▁Dumne	-12556
▁Michael	-12557
▁espèces	-12558
etă	-12559
▁Rest	-12560
▁autom	-12561
▁stare	-12562
воохран	-12563
▁kreativ	-12564
▁especially	-12565
▁génération	-12566
human	-12567
▁nein	-12568
▁lumina	-12569
impression	-12570
▁meilleurs	-12571
▁Spo	-12572
▁asa	-12573
▁loi	-12574
▁murit	-12575
▁occup	-12576
▁Pakistan	-12577
▁designed	-12578
▁naprosto	-12579
вшие	-12580
нное	-12581
▁новое	-12582
▁daraus	-12583
▁vorher	-12584
▁Посмот	-12585
íč	-12586
▁vzd	-12587
▁váš	-12588
▁přij	-12589
itäten	-12590
▁nikdo	-12591
▁описа	-12592
▁zkušen	-12593
▁планеты	-12594
▁incredibly	-12595
▁umí	-12596
▁globală	-12597
▁travaillé	-12598
év	-12599
▁Ба	-12600
umat	-12601
▁сет	-12602
стрее	-12603
▁Best	-12604
▁Ihren	-12605
▁minim	-12606
ède	-12607
▁vacc	-12608
▁groups	-12609
abe	-12610
▁съ	-12611
cond	-12612
geme	-12613
▁ami	-12614
▁fis	-12615
▁сожа	-12616
▁avail	-12617
hromady	-12618
▁informace	-12619
atea	-12620
iene	-12621
átku	-12622
▁died	-12623
▁obráz	-12624
▁afaceri	-12625
▁Certains	-12626
▁распростра	-12627
weis	-12628
▁Arab	-12629
▁uria	-12630
▁Medik	-12631
▁najít	-12632
▁стара	-12633
▁Quelle	-12634
▁istoria	-12635
▁problémy	-12636
нил	-12637
ails	-12638
▁ear	-12639
▁fit	-12640
▁кур	-12641
▁aren	-12642
▁тело	-12643
▁talent	-12644
cier	-12645
▁vod	-12646
ровал	-12647
▁bemer	-12648
how	-12649
nek	-12650
oni	-12651
▁hit	-12652
▁ауди	-12653
▁vivent	-12654
íše	-12655
resp	-12656
izont	-12657
▁Byla	-12658
▁inov	-12659
▁teil	-12660
▁poată	-12661
▁bekannt	-12662
▁conférence	-12663
dit	-12664
▁riv	-12665
▁ecos	-12666
▁absor	-12667
▁dovol	-12668
▁genannt	-12669
▁определя	-12670
▁Su	-12671
▁minus	-12672
▁думал	-12673
▁иначе	-12674
▁întors	-12675
▁станов	-12676
▁планете	-12677
chy	-12678
zei	-12679
▁нару	-12680
▁Apple	-12681
▁klein	-12682
étaient	-12683
▁oblasti	-12684
▁pouvaient	-12685
mun	-12686
umul	-12687
uvre	-12688
▁biom	-12689
▁Ведь	-12690
▁chtěl	-12691
íž	-12692
жили	-12693
▁Hig	-12694
▁века	-12695
довать	-12696
▁Bewegung	-12697
нце	-12698
auss	-12699
text	-12700
zeuge	-12701
▁déch	-12702
▁zvlá	-12703
▁vechi	-12704
▁necess	-12705
▁generation	-12706
gal	-12707
щим	-12708
▁120	-12709
▁Fun	-12710
▁Lidé	-12711
▁cars	-12712
щается	-12713
▁playing	-12714
▁gefunden	-12715
nění	-12716
▁тюрь	-12717
brauch	-12718
▁Phys	-12719
▁anzu	-12720
▁găsim	-12721
▁связь	-12722
▁several	-12723
▁amerikan	-12724
▁Atunci	-12725
▁Chaque	-12726
kce	-12727
▁scur	-12728
▁ajută	-12729
▁surprise	-12730
▁miteinander	-12731
!»	-12732
mod	-12733
тора	-12734
шает	-12735
▁даёт	-12736
▁rempl	-12737
▁измер	-12738
▁книги	-12739
▁percep	-12740
environnement	-12741
tte	-12742
▁Fä	-12743
▁zak	-12744
▁рак	-12745
▁слы	-12746
▁entreprene	-12747
▁problemele	-12748
▁Hy	-12749
bere	-12750
chsel	-12751
▁demi	-12752
▁vlád	-12753
▁nevid	-12754
▁kterém	-12755
▁самого	-12756
▁уверен	-12757
▁moyenne	-12758
▁sociaux	-12759
berfläche	-12760
▁copiilor	-12761
▁traitement	-12762
▁Eis	-12763
▁Mes	-12764
▁Ser	-12765
ющими	-12766
▁rezolv	-12767
▁sieben	-12768
▁încerca	-12769
▁контроли	-12770
ieß	-12771
▁nepo	-12772
▁Brazil	-12773
▁bigger	-12774
▁viděli	-12775
▁nivelul	-12776
mus	-12777
нит	-12778
▁tvr	-12779
ounds	-12780
▁fakt	-12781
▁вижу	-12782
▁Städte	-12783
▁inclus	-12784
▁ultima	-12785
▁Wirklich	-12786
pěl	-12787
▁Nor	-12788
▁zon	-12789
▁Очень	-12790
▁autism	-12791
▁ann	-12792
▁rét	-12793
▁низ	-12794
работ	-12795
ziehen	-12796
▁offer	-12797
▁précis	-12798
▁pai	-12799
▁mist	-12800
▁Klima	-12801
▁entsch	-12802
▁экологи	-12803
▁поскольку	-12804
▁Erk	-12805
▁hör	-12806
▁odp	-12807
▁Mikro	-12808
▁velik	-12809
▁příležit	-12810
▁Herausforderung	-12811
aș	-12812
шин	-12813
ovým	-12814
▁Cal	-12815
louch	-12816
▁bran	-12817
▁смерти	-12818
▁erinnern	-12819
▁diz	-12820
▁шту	-12821
▁except	-12822
▁computers	-12823
Sch	-12824
rang	-12825
няет	-12826
▁pack	-12827
▁femin	-12828
▁Roboter	-12829
▁towards	-12830
▁udělali	-12831
▁verbess	-12832
▁движение	-12833
zud	-12834
гло	-12835
▁dorm	-12836
▁pull	-12837
▁James	-12838
▁lived	-12839
▁Bedeut	-12840
▁dohromady	-12841
дил	-12842
лог	-12843
▁če	-12844
heur	-12845
obel	-12846
▁hil	-12847
▁fing	-12848
▁Strom	-12849
▁numim	-12850
▁secre	-12851
▁înche	-12852
▁необы	-12853
▁света	-12854
▁pauvres	-12855
▁verloren	-12856
aba	-12857
hern	-12858
zentr	-12859
▁Gene	-12860
▁моби	-12861
issage	-12862
▁First	-12863
▁estim	-12864
▁nimmt	-12865
▁začali	-12866
▁хва	-12867
entes	-12868
▁zice	-12869
▁неко	-12870
▁Japon	-12871
▁showed	-12872
▁kleines	-12873
▁fantastic	-12874
▁rencontré	-12875
▁Позвольте	-12876
▁University	-12877
▁politiques	-12878
их	-12879
țul	-12880
▁tv	-12881
osex	-12882
stac	-12883
ovaly	-12884
älfte	-12885
▁Erst	-12886
▁hers	-12887
ichter	-12888
ческом	-12889
▁drugs	-12890
▁zpráv	-12891
▁erfolg	-12892
▁присут	-12893
▁permett	-12894
оти	-12895
▁mel	-12896
falls	-12897
▁near	-12898
▁сила	-12899
▁часа	-12900
▁odliš	-12901
▁téměř	-12902
▁übrig	-12903
▁клима	-12904
▁люблю	-12905
▁kaufen	-12906
▁erschaffen	-12907
écu	-12908
▁état	-12909
▁преступ	-12910
▁extraordinar	-12911
▁Ps	-12912
▁oni	-12913
▁voc	-12914
▁Сле	-12915
ently	-12916
teilt	-12917
▁sell	-12918
щаться	-12919
▁espace	-12920
▁größte	-12921
ína	-12922
cere	-12923
enir	-12924
▁зая	-12925
▁изо	-12926
▁rand	-12927
▁růst	-12928
▁доби	-12929
▁worth	-12930
▁stellte	-12931
▁здравоохран	-12932
цами	-12933
▁email	-12934
▁самая	-12935
▁mediul	-12936
▁spunea	-12937
▁музыка	-12938
▁медицин	-12939
▁perioadă	-12940
▁значение	-12941
exist	-12942
▁Même	-12943
▁naši	-12944
prochen	-12945
▁signal	-12946
▁talked	-12947
▁verbre	-12948
▁попыта	-12949
clé	-12950
ulf	-12951
epăr	-12952
▁Deux	-12953
▁нужна	-12954
▁форма	-12955
▁Einige	-12956
▁allein	-12957
▁suivre	-12958
▁interven	-12959
enschaften	-12960
ştri	-12961
▁obd	-12962
▁бак	-12963
phere	-12964
▁oferă	-12965
▁Lorsque	-12966
▁množství	-12967
▁используют	-12968
▁react	-12969
▁solve	-12970
▁câțiva	-12971
▁jemals	-12972
▁jiného	-12973
▁restul	-12974
▁удалось	-12975
▁несмотря	-12976
dek	-12977
stě	-12978
orile	-12979
▁neob	-12980
▁умень	-12981
▁putting	-12982
hdy	-12983
the	-12984
▁газ	-12985
ibility	-12986
▁région	-12987
▁опреде	-12988
▁writing	-12989
▁examples	-12990
ext	-12991
vil	-12992
énom	-12993
▁wid	-12994
hnung	-12995
irile	-12996
▁нена	-12997
▁aceeași	-12998
▁littéra	-12999
▁partici	-13000
ms	-13001
▁Irak	-13002
▁vznik	-13003
▁školy	-13004
тировать	-13005
ags	-13006
▁Pf	-13007
▁scan	-13008
▁Sicht	-13009
▁romant	-13010
inţe	-13011
leli	-13012
▁venu	-13013
▁роль	-13014
▁croire	-13015
▁expériences	-13016
▁emis	-13017
rosoft	-13018
▁device	-13019
▁reală	-13020
▁crezut	-13021
▁simplă	-13022
▁týd	-13023
▁Foto	-13024
▁krás	-13025
▁knows	-13026
▁corpor	-13027
▁испыта	-13028
▁independ	-13029
рий	-13030
argă	-13031
usch	-13032
ators	-13033
вался	-13034
▁Cont	-13035
▁mécan	-13036
▁verde	-13037
▁recherches	-13038
vet	-13039
řít	-13040
▁suf	-13041
▁Dnes	-13042
▁drop	-13043
ulaire	-13044
ментов	-13045
▁incon	-13046
▁dépens	-13047
▁niemals	-13048
wirtschaft	-13049
▁trib	-13050
▁étude	-13051
▁успеш	-13052
▁schrieb	-13053
▁95	-13054
▁уме	-13055
▁игры	-13056
▁отда	-13057
▁vârst	-13058
respond	-13059
▁cameră	-13060
▁sofort	-13061
▁liberté	-13062
▁observat	-13063
▁tehnologii	-13064
мое	-13065
сед	-13066
fois	-13067
fluss	-13068
▁pire	-13069
▁стоя	-13070
▁vérit	-13071
▁другое	-13072
▁möchten	-13073
▁laborator	-13074
▁ordinateurs	-13075
kul	-13076
мый	-13077
▁Tas	-13078
oarea	-13079
народ	-13080
▁cunoa	-13081
pendant	-13082
▁podnik	-13083
▁convain	-13084
▁Experiment	-13085
▁techniques	-13086
Re	-13087
чены	-13088
▁zehn	-13089
▁язык	-13090
первых	-13091
▁ready	-13092
▁rules	-13093
▁starts	-13094
▁čin	-13095
▁тка	-13096
icial	-13097
▁esen	-13098
▁изуч	-13099
▁aufzu	-13100
▁живут	-13101
▁солне	-13102
▁Richtung	-13103
zel	-13104
▁rue	-13105
▁adul	-13106
▁gard	-13107
▁možnost	-13108
▁большие	-13109
ев	-13110
▁wert	-13111
▁doute	-13112
▁второй	-13113
▁Nigeria	-13114
▁passieren	-13115
▁médicaments	-13116
ую	-13117
▁Sand	-13118
▁haven	-13119
▁espèce	-13120
▁řešení	-13121
▁gewesen	-13122
▁смотреть	-13123
▁démocratie	-13124
▁jet	-13125
▁уго	-13126
▁упо	-13127
▁spat	-13128
▁traf	-13129
▁проя	-13130
▁plais	-13131
▁скажу	-13132
▁totuși	-13133
▁различных	-13134
дая	-13135
▁sest	-13136
▁Where	-13137
▁начале	-13138
▁combust	-13139
▁py	-13140
▁чёр	-13141
onder	-13142
▁Pres	-13143
▁Vert	-13144
▁скры	-13145
▁Medien	-13146
▁молеку	-13147
▁welches	-13148
▁pís	-13149
piele	-13150
vejte	-13151
▁1990	-13152
▁Rück	-13153
▁répon	-13154
▁detect	-13155
▁predict	-13156
▁printre	-13157
▁образование	-13158
вало	-13159
▁entste	-13160
▁Sicherheit	-13161
бере	-13162
▁amin	-13163
▁пози	-13164
terior	-13165
▁celém	-13166
▁disci	-13167
▁движения	-13168
гази	-13169
▁See	-13170
▁court	-13171
▁integr	-13172
▁transl	-13173
▁быстрее	-13174
▁společnost	-13175
▁alternative	-13176
ských	-13177
▁dobu	-13178
▁ieft	-13179
▁renun	-13180
▁вашей	-13181
▁реаль	-13182
bur	-13183
tím	-13184
тии	-13185
▁ат	-13186
skou	-13187
ziale	-13188
▁Hall	-13189
▁části	-13190
issions	-13191
▁pétrole	-13192
▁entreprise	-13193
lage	-13194
onge	-13195
гать	-13196
▁urč	-13197
▁facil	-13198
▁invis	-13199
▁мечта	-13200
▁смысл	-13201
▁ajutor	-13202
▁gebaut	-13203
▁отвеча	-13204
pom	-13205
zeugt	-13206
▁Post	-13207
▁search	-13208
▁компания	-13209
ţiva	-13210
ллек	-13211
round	-13212
▁afla	-13213
▁repar	-13214
▁născut	-13215
▁содержа	-13216
▁manifest	-13217
▁нескольких	-13218
öst	-13219
▁nég	-13220
atura	-13221
▁géni	-13222
▁угле	-13223
▁Aktiv	-13224
▁Ihrem	-13225
▁faite	-13226
▁falls	-13227
wohn	-13228
жной	-13229
ovalo	-13230
▁trăim	-13231
▁видел	-13232
cemment	-13233
▁période	-13234
▁security	-13235
▁Microsoft	-13236
▁découvrir	-13237
▁intelligence	-13238
ahn	-13239
ped	-13240
▁hm	-13241
▁tř	-13242
▁zm	-13243
▁dog	-13244
▁род	-13245
▁jaký	-13246
▁умира	-13247
▁dirige	-13248
▁droits	-13249
▁îndepăr	-13250
▁соответ	-13251
▁entfernt	-13252
▁Technologien	-13253
▁Ан	-13254
▁bege	-13255
▁инжен	-13256
▁available	-13257
▁conception	-13258
ал	-13259
šem	-13260
навли	-13261
▁veřej	-13262
▁likely	-13263
▁взгляд	-13264
hmer	-13265
▁шан	-13266
ломет	-13267
▁2010	-13268
▁Nebo	-13269
▁vieux	-13270
▁Потом	-13271
▁urmare	-13272
▁Umgebung	-13273
▁ajutorul	-13274
▁récemment	-13275
▁Organisation	-13276
▁particularly	-13277
änge	-13278
▁aveți	-13279
▁samot	-13280
▁площа	-13281
▁полага	-13282
▁imaginer	-13283
ăug	-13284
руем	-13285
▁jud	-13286
▁jít	-13287
ávání	-13288
▁конф	-13289
▁citiz	-13290
▁projets	-13291
▁aussehen	-13292
▁interiorul	-13293
▁totalement	-13294
емых	-13295
▁offens	-13296
▁порази	-13297
▁plötzlich	-13298
зер	-13299
▁tö	-13300
▁rig	-13301
mosph	-13302
océan	-13303
ваете	-13304
▁Chci	-13305
▁fier	-13306
▁nine	-13307
▁crazy	-13308
▁walking	-13309
▁ад	-13310
▁nád	-13311
енное	-13312
▁жерт	-13313
▁Schwe	-13314
▁basic	-13315
▁citoy	-13316
▁screen	-13317
▁laborato	-13318
kop	-13319
oid	-13320
сят	-13321
▁каза	-13322
▁опять	-13323
▁Regier	-13324
▁мужчин	-13325
▁appelée	-13326
▁ultimul	-13327
▁antibiot	-13328
▁creative	-13329
▁миллиона	-13330
▁scientific	-13331
▁Del	-13332
▁Pri	-13333
▁navr	-13334
▁nábo	-13335
▁Вели	-13336
▁birth	-13337
▁работ	-13338
ităţile	-13339
▁interview	-13340
▁посмотрите	-13341
ctu	-13342
▁kü	-13343
▁přá	-13344
rarea	-13345
▁dang	-13346
▁chans	-13347
▁minul	-13348
▁teror	-13349
▁adesea	-13350
▁orient	-13351
imet	-13352
▁рост	-13353
▁Teile	-13354
▁Wikip	-13355
▁alții	-13356
▁otázku	-13357
▁journey	-13358
nam	-13359
Inde	-13360
okol	-13361
▁déte	-13362
otions	-13363
▁хочет	-13364
▁otázka	-13365
▁printr	-13366
▁conscious	-13367
▁utilisent	-13368
hib	-13369
ocol	-13370
▁ими	-13371
▁ovliv	-13372
▁drumul	-13373
▁mergem	-13374
▁institution	-13375
тей	-13376
ieur	-13377
▁oby	-13378
▁Glob	-13379
▁exci	-13380
▁connu	-13381
unately	-13382
▁aştept	-13383
▁rights	-13384
▁cellule	-13385
ätz	-13386
▁ок	-13387
produ	-13388
▁hast	-13389
▁Prima	-13390
▁Reihe	-13391
▁musíte	-13392
▁Deshalb	-13393
▁přesvěd	-13394
▁învăţat	-13395
▁находятся	-13396
aví	-13397
band	-13398
▁Net	-13399
▁cresc	-13400
▁cânte	-13401
▁Pendant	-13402
▁unterst	-13403
▁обратно	-13404
▁band	-13405
▁čtyři	-13406
▁familiar	-13407
šla	-13408
чис	-13409
itar	-13410
▁Dre	-13411
силия	-13412
▁jung	-13413
avenir	-13414
nement	-13415
▁crime	-13416
▁résol	-13417
▁potřeb	-13418
▁Produkt	-13419
%,	-13420
anche	-13421
▁flow	-13422
▁neben	-13423
▁zákon	-13424
▁specii	-13425
▁делали	-13426
▁anfangen	-13427
кло	-13428
êche	-13429
aking	-13430
▁cite	-13431
▁flux	-13432
▁verm	-13433
▁okolo	-13434
bră	-13435
▁анг	-13436
▁Zent	-13437
▁bureau	-13438
▁studii	-13439
▁medicine	-13440
cr	-13441
dă	-13442
gre	-13443
ливо	-13444
стры	-13445
▁rup	-13446
▁Пере	-13447
▁zerst	-13448
▁Între	-13449
▁Thomas	-13450
▁explic	-13451
▁метров	-13452
▁Aufgabe	-13453
▁represent	-13454
▁verwendet	-13455
▁neuvěřitel	-13456
pa	-13457
lit	-13458
тре	-13459
▁II	-13460
orig	-13461
▁Chem	-13462
▁bekam	-13463
țională	-13464
▁brachte	-13465
▁основном	-13466
iné	-13467
mín	-13468
onul	-13469
лями	-13470
▁dát	-13471
▁tân	-13472
▁join	-13473
▁gradu	-13474
▁вдруг	-13475
▁покупа	-13476
▁hospital	-13477
▁общество	-13478
▁developing	-13479
▁nachdenken	-13480
▁силы	-13481
▁Všechn	-13482
▁неправи	-13483
▁informaţii	-13484
uen	-13485
apes	-13486
▁Jeden	-13487
▁grade	-13488
▁proje	-13489
▁соеди	-13490
▁collèg	-13491
▁produse	-13492
▁involved	-13493
kut	-13494
▁sor	-13495
▁реа	-13496
ursul	-13497
▁King	-13498
▁cases	-13499
potlesk	-13500
▁Studie	-13501
▁couleur	-13502
▁obrázek	-13503
▁тон	-13504
▁Maybe	-13505
▁enfin	-13506
▁combat	-13507
ery	-13508
мую	-13509
▁pož	-13510
▁аль	-13511
тации	-13512
naître	-13513
ходить	-13514
▁Můžeme	-13515
▁satell	-13516
▁pensais	-13517
▁Verbindung	-13518
▁océ	-13519
▁sequ	-13520
▁безу	-13521
▁Bildung	-13522
▁сегодняш	-13523
▁soul	-13524
▁efici	-13525
▁пригла	-13526
▁atteint	-13527
▁вопроса	-13528
▁chiffres	-13529
▁correspond	-13530
емые	-13531
▁Inst	-13532
▁Tato	-13533
▁elektr	-13534
▁suivante	-13535
▁Generation	-13536
▁Aud	-13537
▁vas	-13538
endes	-13539
ändig	-13540
▁Mark	-13541
▁Podí	-13542
▁celou	-13543
▁știin	-13544
▁savais	-13545
▁Bewusst	-13546
▁Während	-13547
▁restaurant	-13548
last	-13549
▁cot	-13550
▁engle	-13551
▁guten	-13552
▁danach	-13553
▁prépar	-13554
▁familia	-13555
▁lucrează	-13556
ěz	-13557
шед	-13558
▁nec	-13559
▁веще	-13560
▁nennt	-13561
▁everywhere	-13562
рори	-13563
▁brut	-13564
▁pron	-13565
▁films	-13566
▁sites	-13567
▁bekommt	-13568
▁punctul	-13569
▁переста	-13570
▁resources	-13571
lec	-13572
крет	-13573
▁nai	-13574
ației	-13575
▁Blut	-13576
▁sleep	-13577
▁teste	-13578
merksam	-13579
▁memory	-13580
cky	-13581
élé	-13582
čky	-13583
raven	-13584
▁Paris	-13585
▁décenn	-13586
▁știință	-13587
ovy	-13588
▁mie	-13589
▁grew	-13590
▁State	-13591
▁cycle	-13592
▁gross	-13593
▁знако	-13594
▁verwand	-13595
▁exemples	-13596
▁хотелось	-13597
ffee	-13598
▁Fuß	-13599
▁kou	-13600
izing	-13601
▁Flor	-13602
▁mimo	-13603
▁vinde	-13604
▁Prinzip	-13605
▁geboren	-13606
▁éléments	-13607
▁cercetare	-13608
▁Sex	-13609
▁Today	-13610
▁Думаю	-13611
▁further	-13612
▁provide	-13613
▁enregist	-13614
▁individuals	-13615
▁исследований	-13616
ADN	-13617
нью	-13618
▁Mer	-13619
innov	-13620
▁дере	-13621
▁вызыва	-13622
▁certainly	-13623
ом	-13624
▁faţa	-13625
▁Straße	-13626
▁chceme	-13627
▁pokrač	-13628
rozen	-13629
▁Muse	-13630
▁Oper	-13631
rieden	-13632
▁determ	-13633
▁calculator	-13634
ugh	-13635
зии	-13636
ряз	-13637
▁anz	-13638
▁поро	-13639
▁холо	-13640
▁modal	-13641
ременно	-13642
▁civiliz	-13643
▁totally	-13644
▁ответил	-13645
лин	-13646
▁jap	-13647
▁envoy	-13648
ственных	-13649
▁километ	-13650
йт	-13651
isst	-13652
▁лицо	-13653
ichtet	-13654
▁merci	-13655
▁vraie	-13656
▁epidem	-13657
▁regardé	-13658
▁mauvaise	-13659
usă	-13660
ivil	-13661
▁800	-13662
▁třet	-13663
▁повы	-13664
▁nemus	-13665
▁speed	-13666
▁schwar	-13667
▁подели	-13668
▁инвести	-13669
adě	-13670
▁Vom	-13671
▁půl	-13672
▁gefähr	-13673
▁здания	-13674
▁знания	-13675
▁магази	-13676
▁Amerika	-13677
▁massive	-13678
▁popular	-13679
▁schopni	-13680
▁exciting	-13681
▁правильно	-13682
▁architecture	-13683
ieri	-13684
▁tur	-13685
▁afect	-13686
▁сотни	-13687
▁Fehler	-13688
▁esprit	-13689
▁limbaj	-13690
▁povest	-13691
▁tineri	-13692
▁road	-13693
▁After	-13694
▁Hälfte	-13695
▁länger	-13696
▁клеток	-13697
▁energia	-13698
▁["	-13699
прос	-13700
▁dès	-13701
личие	-13702
▁Obama	-13703
▁генети	-13704
▁courage	-13705
▁sisteme	-13706
▁herauszu	-13707
▁получили	-13708
▁democracy	-13709
▁experimente	-13710
▁extraordinaire	-13711
ieben	-13712
uiesc	-13713
▁băie	-13714
▁пись	-13715
▁корот	-13716
▁столько	-13717
▁diferită	-13718
▁Gesundheit	-13719
▁исследование	-13720
жены	-13721
▁191	-13722
титься	-13723
▁hoffe	-13724
▁Straßen	-13725
▁einfache	-13726
▁réaliser	-13727
бом	-13728
вез	-13729
gypt	-13730
říve	-13731
▁daher	-13732
▁rămas	-13733
bildung	-13734
▁charge	-13735
▁daleko	-13736
тельство	-13737
kos	-13738
▁äl	-13739
▁Lab	-13740
ktive	-13741
zutage	-13742
▁nedost	-13743
▁stimmt	-13744
▁takový	-13745
▁ştiinţă	-13746
▁Regardez	-13747
▁erreicht	-13748
▁întâlnit	-13749
ners	-13750
hungen	-13751
▁худож	-13752
▁aplica	-13753
▁použít	-13754
▁street	-13755
▁похожи	-13756
▁companii	-13757
▁существу	-13758
8.	-13759
▁zl	-13760
tează	-13761
▁izol	-13762
▁ţară	-13763
▁clean	-13764
▁aleger	-13765
▁своими	-13766
▁results	-13767
▁platform	-13768
hru	-13769
idi	-13770
вит	-13771
▁hâr	-13772
говари	-13773
доволь	-13774
▁любов	-13775
▁gingen	-13776
▁ouvert	-13777
▁transformer	-13778
važ	-13779
▁Ai	-13780
ieso	-13781
lide	-13782
▁gal	-13783
▁vast	-13784
▁afara	-13785
▁crise	-13786
▁нашли	-13787
▁сверх	-13788
▁форму	-13789
èrement	-13790
▁спросил	-13791
▁Situation	-13792
▁ecran	-13793
▁подумать	-13794
▁специали	-13795
▁interpret	-13796
▁Cy	-13797
prim	-13798
ällt	-13799
▁safe	-13800
▁horri	-13801
▁mintea	-13802
▁gezeigt	-13803
▁překvap	-13804
▁répondu	-13805
pet	-13806
▁öff	-13807
arriv	-13808
rient	-13809
▁East	-13810
▁études	-13811
▁сотрудни	-13812
▁schimbarea	-13813
▁Von	-13814
icans	-13815
▁zalo	-13816
indern	-13817
▁depend	-13818
▁прибли	-13819
▁trimite	-13820
лик	-13821
kehr	-13822
oins	-13823
▁Geme	-13824
▁horm	-13825
▁Anzahl	-13826
▁grandi	-13827
▁langue	-13828
▁словами	-13829
▁konzentr	-13830
apie	-13831
reme	-13832
▁gol	-13833
▁чет	-13834
alele	-13835
▁push	-13836
▁spui	-13837
▁vním	-13838
▁zaří	-13839
▁веща	-13840
ritten	-13841
никами	-13842
▁Rolle	-13843
▁общем	-13844
tek	-13845
теги	-13846
▁Higgs	-13847
▁vulner	-13848
▁рабочи	-13849
▁Fiecare	-13850
▁revenir	-13851
▁șans	-13852
▁rychl	-13853
▁überw	-13854
žil	-13855
▁Hel	-13856
▁SMS	-13857
▁kous	-13858
▁stau	-13859
перату	-13860
▁creăm	-13861
▁nuclé	-13862
▁response	-13863
▁начинает	-13864
.'	-13865
atic	-13866
lebt	-13867
nict	-13868
▁kur	-13869
front	-13870
▁vizu	-13871
ellent	-13872
ificat	-13873
▁ceilal	-13874
▁рассматри	-13875
лая	-13876
rian	-13877
▁artă	-13878
▁coût	-13879
▁mașină	-13880
▁socială	-13881
▁Hoffnung	-13882
▁changements	-13883
▁littéralement	-13884
isp	-13885
вок	-13886
rückt	-13887
▁drive	-13888
▁plate	-13889
▁těžké	-13890
▁Erfolg	-13891
▁double	-13892
▁phénom	-13893
▁увидел	-13894
▁Veränderung	-13895
wegen	-13896
▁banii	-13897
▁Kosten	-13898
▁некото	-13899
▁erfolgreich	-13900
▁bee	-13901
▁bla	-13902
▁zbo	-13903
▁имени	-13904
▁forest	-13905
▁hypoth	-13906
▁сторону	-13907
▁ап	-13908
știa	-13909
▁Bank	-13910
▁artif	-13911
▁Jahrze	-13912
▁поняли	-13913
▁familie	-13914
▁останови	-13915
6.	-13916
itte	-13917
lech	-13918
wind	-13919
▁inj	-13920
▁реги	-13921
▁Reise	-13922
▁natura	-13923
▁article	-13924
▁Beaucoup	-13925
▁сви	-13926
▁nejd	-13927
heimer	-13928
▁hodin	-13929
▁sépar	-13930
▁Vortrag	-13931
après	-13932
lalte	-13933
stech	-13934
▁Vide	-13935
интере	-13936
▁ridic	-13937
▁încăl	-13938
▁wachsen	-13939
Ch	-13940
čka	-13941
▁rac	-13942
циони	-13943
▁month	-13944
▁évolu	-13945
▁higher	-13946
▁schneller	-13947
▁wissenschaft	-13948
нете	-13949
▁sugg	-13950
▁Nobel	-13951
▁мысль	-13952
▁spoustu	-13953
▁интеллек	-13954
▁буквально	-13955
gleich	-13956
▁neues	-13957
▁stojí	-13958
▁beschäft	-13959
▁пользова	-13960
▁prochaine	-13961
▁leadership	-13962
▁obě	-13963
▁orb	-13964
Hudba	-13965
▁Mult	-13966
▁virt	-13967
▁imens	-13968
▁volont	-13969
▁Imagina	-13970
▁conduce	-13971
▁quality	-13972
▁sám	-13973
▁сен	-13974
oming	-13975
▁Star	-13976
▁harm	-13977
▁верю	-13978
▁опти	-13979
▁cross	-13980
▁stres	-13981
▁câţiva	-13982
▁организации	-13983
ppe	-13984
íská	-13985
▁tir	-13986
▁înve	-13987
indest	-13988
▁всеми	-13989
▁такую	-13990
▁помощь	-13991
писы	-13992
▁chud	-13993
▁pose	-13994
▁obstac	-13995
▁друзей	-13996
▁подход	-13997
▁imaginea	-13998
▁contraire	-13999
▁Entscheidungen	-14000
▁CE	-14001
▁Dere	-14002
▁belle	-14003
▁moyens	-14004
▁şcoală	-14005
▁степени	-14006
▁вероятно	-14007
▁Pod	-14008
astru	-14009
▁паль	-14010
▁adăug	-14011
▁check	-14012
▁слуша	-14013
▁школе	-14014
▁bonheur	-14015
▁zajímavé	-14016
▁вернуться	-14017
Что	-14018
▁strad	-14019
▁děláme	-14020
▁ziehen	-14021
cată	-14022
like	-14023
▁Tra	-14024
aison	-14025
▁идей	-14026
▁коллек	-14027
▁experts	-14028
▁Rio	-14029
▁Süd	-14030
▁сум	-14031
ionen	-14032
▁Manh	-14033
▁Tyto	-14034
▁zahr	-14035
▁мама	-14036
тилети	-14037
▁видно	-14038
möglich	-14039
▁Wachst	-14040
▁pohled	-14041
▁vidíme	-14042
▁aceeaşi	-14043
▁Интернет	-14044
▁technique	-14045
▁Вме	-14046
▁jich	-14047
▁wish	-14048
▁explos	-14049
▁постро	-14050
▁Sy	-14051
клад	-14052
▁выс	-14053
▁blanc	-14054
▁deliv	-14055
▁Martin	-14056
▁tempor	-14057
▁задача	-14058
▁explore	-14059
tei	-14060
▁Erf	-14061
▁pon	-14062
▁pul	-14063
▁dále	-14064
▁вида	-14065
▁noroc	-14066
▁peace	-14067
▁sympt	-14068
▁техни	-14069
▁killed	-14070
▁prenez	-14071
▁soziale	-14072
▁Dumnezeu	-14073
▁огромное	-14074
▁marketing	-14075
ёг	-14076
вший	-14077
смех	-14078
щает	-14079
▁toll	-14080
▁китай	-14081
▁findet	-14082
▁представи	-14083
öne	-14084
anța	-14085
йдёт	-14086
▁Kam	-14087
▁bătr	-14088
▁joue	-14089
▁onto	-14090
▁игру	-14091
álních	-14092
▁movie	-14093
▁urmăr	-14094
▁invers	-14095
▁přesto	-14096
entissage	-14097
▁aide	-14098
▁wall	-14099
▁Ihrer	-14100
▁smysl	-14101
▁угодно	-14102
▁showing	-14103
▁заставля	-14104
aş	-14105
umer	-14106
▁Ско	-14107
▁Norm	-14108
itățile	-14109
▁Zahlen	-14110
▁crește	-14111
▁façons	-14112
▁univer	-14113
▁partage	-14114
▁бактери	-14115
▁rassembl	-14116
BI	-14117
▁bic	-14118
anner	-14119
зиден	-14120
▁zůst	-14121
▁games	-14122
entrepr	-14123
▁Manhatt	-14124
▁mâncare	-14125
▁маленькие	-14126
ißen	-14127
▁telle	-14128
▁école	-14129
ственного	-14130
▁procesul	-14131
▁profonde	-14132
bil	-14133
дания	-14134
▁arme	-14135
▁nimi	-14136
▁анти	-14137
▁beide	-14138
▁posit	-14139
▁нашим	-14140
▁decide	-14141
▁milionů	-14142
▁planete	-14143
▁Wal	-14144
▁aid	-14145
лакти	-14146
▁puzz	-14147
луйста	-14148
▁Politik	-14149
▁stratég	-14150
wür	-14151
▁Os	-14152
▁păs	-14153
▁Gând	-14154
▁boli	-14155
▁одина	-14156
▁конкрет	-14157
▁Představ	-14158
▁Information	-14159
▁directement	-14160
▁possibilité	-14161
kel	-14162
ály	-14163
лях	-14164
▁Ros	-14165
готов	-14166
▁depl	-14167
▁buňky	-14168
▁mount	-14169
▁quart	-14170
▁Island	-14171
▁altfel	-14172
▁budget	-14173
▁предлага	-14174
▁пространство	-14175
erty	-14176
▁huit	-14177
▁older	-14178
▁закры	-14179
▁испол	-14180
▁очере	-14181
▁tipuri	-14182
▁voastră	-14183
▁zdravot	-14184
оне	-14185
gens	-14186
▁10,	-14187
▁Ano	-14188
▁hyd	-14189
▁ome	-14190
▁High	-14191
entele	-14192
▁Ghana	-14193
▁carry	-14194
▁кризи	-14195
▁возмож	-14196
▁benutzt	-14197
▁показывает	-14198
čili	-14199
▁Tür	-14200
essor	-14201
▁Even	-14202
ikaner	-14203
▁somme	-14204
▁начало	-14205
▁objects	-14206
innovation	-14207
оз	-14208
emp	-14209
unul	-14210
▁boj	-14211
▁chod	-14212
▁desen	-14213
▁normale	-14214
▁известно	-14215
▁професси	-14216
▁veröffent	-14217
aß	-14218
▁spl	-14219
▁Вер	-14220
▁сна	-14221
ünden	-14222
▁cens	-14223
▁decl	-14224
▁alten	-14225
▁cooper	-14226
▁faszin	-14227
▁Schauen	-14228
▁программы	-14229
вай	-14230
feld	-14231
reze	-14232
▁Any	-14233
isser	-14234
▁reform	-14235
▁уничто	-14236
▁simples	-14237
▁urmează	-14238
▁правила	-14239
▁contexte	-14240
▁répondre	-14241
come	-14242
rabă	-14243
▁Roz	-14244
urent	-14245
▁intim	-14246
▁contem	-14247
▁monitor	-14248
▁begannen	-14249
▁neighbor	-14250
все	-14251
▁Ки	-14252
atter	-14253
▁кому	-14254
▁Genau	-14255
▁postup	-14256
▁význam	-14257
čem	-14258
▁kg	-14259
isons	-14260
▁чуть	-14261
▁aplic	-14262
▁office	-14263
▁comunitate	-14264
▁dispozitiv	-14265
ège	-14266
▁Nur	-14267
▁arch	-14268
▁dneš	-14269
▁late	-14270
▁samm	-14271
▁deset	-14272
▁ohrom	-14273
▁worse	-14274
▁захва	-14275
ționale	-14276
▁paradig	-14277
▁představit	-14278
gele	-14279
örter	-14280
isiert	-14281
▁přich	-14282
▁serie	-14283
▁Китай	-14284
▁шесть	-14285
▁former	-14286
▁website	-14287
▁внутрен	-14288
▁слышали	-14289
▁собираюсь	-14290
▁communities	-14291
aged	-14292
rame	-14293
▁hop	-14294
avère	-14295
ented	-14296
▁acht	-14297
▁School	-14298
▁înțeles	-14299
рд	-14300
ăra	-14301
ienst	-14302
▁hors	-14303
▁nachdem	-14304
▁другого	-14305
▁Mitgefühl	-14306
▁ль	-14307
ares	-14308
▁Nim	-14309
▁reç	-14310
йтесь	-14311
▁grij	-14312
▁noștri	-14313
▁trimis	-14314
▁мужчины	-14315
▁continuă	-14316
▁uniquement	-14317
Wir	-14318
нес	-14319
▁čt	-14320
nels	-14321
думы	-14322
▁упа	-14323
▁моим	-14324
icaine	-14325
тельного	-14326
▁descend	-14327
▁недавно	-14328
▁profesor	-14329
▁programm	-14330
▁Bedeutung	-14331
▁Krankheit	-14332
Eu	-14333
lov	-14334
immel	-14335
▁poză	-14336
▁named	-14337
▁spital	-14338
▁freedom	-14339
▁mijlocul	-14340
▁стратеги	-14341
▁naturelle	-14342
upa	-14343
▁Là	-14344
▁fos	-14345
▁Všichni	-14346
▁enseign	-14347
▁получил	-14348
▁capables	-14349
▁including	-14350
▁deviennent	-14351
▁performance	-14352
▁Tex	-14353
▁sop	-14354
▁уди	-14355
▁verh	-14356
▁Druck	-14357
archite	-14358
ţională	-14359
▁pracovat	-14360
inf	-14361
рта	-14362
тая	-14363
angs	-14364
▁vez	-14365
▁jiný	-14366
▁lose	-14367
▁mile	-14368
▁возь	-14369
▁avans	-14370
▁links	-14371
▁myslí	-14372
▁rozum	-14373
▁момента	-14374
▁Asa	-14375
▁coc	-14376
стили	-14377
▁hour	-14378
▁séqu	-14379
▁efort	-14380
▁mohla	-14381
▁watching	-14382
apă	-14383
aţiei	-14384
▁Hoch	-14385
▁ador	-14386
▁práv	-14387
▁skin	-14388
телями	-14389
▁sebou	-14390
isieren	-14391
▁investi	-14392
▁amintesc	-14393
gie	-14394
ips	-14395
aptă	-14396
yslu	-14397
▁wild	-14398
▁glace	-14399
▁inova	-14400
wachsen	-14401
▁lidské	-14402
▁podpor	-14403
▁suivant	-14404
▁uimitor	-14405
▁betrachte	-14406
rot	-14407
▁Fer	-14408
▁nevě	-14409
▁zonă	-14410
▁cumva	-14411
▁joacă	-14412
▁zeige	-14413
▁сокра	-14414
▁stejné	-14415
▁индиви	-14416
ationale	-14417
▁Entwicklungs	-14418
▁vč	-14419
▁Ern	-14420
▁дея	-14421
▁син	-14422
ffent	-14423
ienen	-14424
▁quot	-14425
▁Alter	-14426
▁нарко	-14427
▁cazuri	-14428
▁immedi	-14429
▁gegeben	-14430
▁constitu	-14431
▁ситуации	-14432
▁технология	-14433
zial	-14434
вобо	-14435
▁har	-14436
▁tvá	-14437
▁смог	-14438
pected	-14439
ricité	-14440
▁laser	-14441
▁sector	-14442
▁creează	-14443
▁fenomen	-14444
▁Beziehung	-14445
▁expliquer	-14446
▁extraordinary	-14447
мас	-14448
▁kone	-14449
▁rout	-14450
▁Relig	-14451
▁coast	-14452
ческими	-14453
▁großer	-14454
▁multip	-14455
▁tragen	-14456
▁astronom	-14457
mile	-14458
▁Spr	-14459
auten	-14460
▁aspe	-14461
▁chau	-14462
▁pace	-14463
arbeiten	-14464
▁choisir	-14465
▁chování	-14466
▁servici	-14467
rui	-14468
nize	-14469
▁Son	-14470
▁Most	-14471
▁clair	-14472
▁школы	-14473
▁предполо	-14474
▁connected	-14475
▁extremely	-14476
ány	-14477
▁zer	-14478
▁magic	-14479
▁meant	-14480
▁různé	-14481
▁écrire	-14482
▁recunoa	-14483
▁работал	-14484
▁impression	-14485
80	-14486
aker	-14487
atte	-14488
falt	-14489
▁Air	-14490
▁Adam	-14491
▁испы	-14492
▁пяти	-14493
▁radical	-14494
▁democrat	-14495
öp	-14496
▁redu	-14497
▁incep	-14498
▁minds	-14499
▁Invest	-14500
▁parfai	-14501
▁privile	-14502
новременно	-14503
orc	-14504
îne	-14505
▁Ul	-14506
0,000	-14507
▁golf	-14508
▁știe	-14509
nehmer	-14510
▁aveţi	-14511
▁секун	-14512
itaires	-14513
▁accord	-14514
▁choose	-14515
▁cortex	-14516
▁úžasné	-14517
▁другая	-14518
▁extreme	-14519
▁температу	-14520
▁способность	-14521
▁malý	-14522
▁města	-14523
▁étonn	-14524
▁fahren	-14525
▁štěstí	-14526
ственным	-14527
▁comunic	-14528
▁Künstler	-14529
▁komplett	-14530
▁occident	-14531
▁industrie	-14532
Al	-14533
эй	-14534
empl	-14535
▁Schü	-14536
▁nobody	-14537
▁поиска	-14538
▁Konzept	-14539
▁celulele	-14540
any	-14541
auft	-14542
ájem	-14543
▁sek	-14544
▁atta	-14545
▁орга	-14546
▁тяже	-14547
▁Adică	-14548
▁незави	-14549
▁obviously	-14550
bei	-14551
циях	-14552
▁офи	-14553
телем	-14554
▁Sper	-14555
▁faim	-14556
▁внеш	-14557
ătoare	-14558
▁Größe	-14559
▁každé	-14560
▁paral	-14561
▁moduri	-14562
▁террори	-14563
▁imaginez	-14564
▁médecine	-14565
▁rezultate	-14566
▁поведение	-14567
▁Mám	-14568
▁Сан	-14569
obile	-14570
üssel	-14571
▁elev	-14572
gendes	-14573
виться	-14574
▁altul	-14575
▁форми	-14576
▁locale	-14577
▁protest	-14578
▁системе	-14579
▁laboratoire	-14580
▁Bob	-14581
▁Kore	-14582
▁frei	-14583
roffen	-14584
▁discu	-14585
▁moved	-14586
▁поста	-14587
▁продви	-14588
▁întreba	-14589
▁поддерж	-14590
▁Evolution	-14591
▁gegenüber	-14592
▁corruption	-14593
avy	-14594
ason	-14595
▁cél	-14596
▁ана	-14597
▁гри	-14598
▁neut	-14599
▁roky	-14600
▁stock	-14601
▁tells	-14602
▁dehors	-14603
▁intrat	-14604
▁reușit	-14605
▁primele	-14606
▁daughter	-14607
▁investig	-14608
▁становятся	-14609
▁Ně	-14610
▁oră	-14611
▁звук	-14612
▁laufen	-14613
paravant	-14614
▁sunteți	-14615
▁Studenten	-14616
▁уро	-14617
țiuni	-14618
▁lois	-14619
▁peau	-14620
▁Meter	-14621
▁hotăr	-14622
▁стати	-14623
▁machten	-14624
▁Ergebnis	-14625
▁выжи	-14626
▁мини	-14627
▁dlouho	-14628
▁găsesc	-14629
▁Laissez	-14630
▁Meinung	-14631
▁înțeleg	-14632
fo	-14633
▁Nic	-14634
▁jug	-14635
▁întâi	-14636
▁poprvé	-14637
▁express	-14638
▁телефон	-14639
▁siguranță	-14640
иму	-14641
тон	-14642
жешь	-14643
▁еже	-14644
▁adun	-14645
abhäng	-14646
ющиеся	-14647
▁facult	-14648
▁address	-14649
▁anybody	-14650
▁college	-14651
▁introduce	-14652
▁wichtiger	-14653
ruh	-14654
zug	-14655
▁cab	-14656
▁эпи	-14657
▁всём	-14658
▁retra	-14659
▁терри	-14660
▁Америке	-14661
▁designer	-14662
▁начинают	-14663
▁versuchte	-14664
urr	-14665
▁Vě	-14666
▁Maj	-14667
ciden	-14668
▁руку	-14669
phones	-14670
▁aufre	-14671
▁таком	-14672
▁impres	-14673
▁neurolog	-14674
▁weltweit	-14675
▁geschieht	-14676
anul	-14677
unte	-14678
▁pén	-14679
▁race	-14680
▁ката	-14681
▁раза	-14682
▁celălalt	-14683
▁prietenii	-14684
сю	-14685
ägt	-14686
▁33	-14687
gence	-14688
▁Jako	-14689
▁skon	-14690
▁деву	-14691
▁místa	-14692
▁řekli	-14693
▁devait	-14694
▁illust	-14695
▁poskyt	-14696
▁diverse	-14697
▁десятилети	-14698
хом	-14699
шем	-14700
kých	-14701
ôpital	-14702
▁chtějí	-14703
▁Только	-14704
Amérique	-14705
▁поднима	-14706
▁приходится	-14707
▁soins	-14708
▁sprij	-14709
avaient	-14710
▁lieben	-14711
humanité	-14712
зировать	-14713
▁largest	-14714
▁magazine	-14715
▁eventually	-14716
neme	-14717
nern	-14718
iolog	-14719
střed	-14720
ängen	-14721
нного	-14722
▁bărbat	-14723
▁nějaký	-14724
▁сердце	-14725
▁regener	-14726
uto	-14727
дий	-14728
iety	-14729
aisse	-14730
ettes	-14731
▁впечат	-14732
▁опасно	-14733
▁anstatt	-14734
▁schools	-14735
▁принять	-14736
▁касается	-14737
▁premières	-14738
▁puternică	-14739
▁Fähigkeiten	-14740
▁правительство	-14741
gé	-14742
▁sca	-14743
iesen	-14744
▁Orte	-14745
▁Besch	-14746
▁slova	-14747
▁îngrij	-14748
▁atteindre	-14749
oon	-14750
▁iron	-14751
настоя	-14752
▁imméd	-14753
▁junge	-14754
▁pregă	-14755
▁trees	-14756
▁studie	-14757
něte	-14758
▁běž	-14759
▁domest	-14760
bte	-14761
zul	-14762
isté	-14763
меры	-14764
держи	-14765
▁chin	-14766
▁diss	-14767
▁rain	-14768
▁чрез	-14769
▁Mitte	-14770
▁mögen	-14771
▁прибы	-14772
▁dragos	-14773
▁пришли	-14774
▁accompl	-14775
▁национа	-14776
▁training	-14777
],	-14778
äu	-14779
ок	-14780
▁Ку	-14781
odes	-14782
▁Erd	-14783
▁vadă	-14784
▁водо	-14785
▁cyber	-14786
▁indic	-14787
▁jakým	-14788
▁журна	-14789
▁своём	-14790
▁vârstă	-14791
kat	-14792
▁něm	-14793
▁smr	-14794
▁инф	-14795
ätzen	-14796
▁Firma	-14797
▁jinak	-14798
▁ciudat	-14799
▁studen	-14800
▁abandon	-14801
▁jednodu	-14802
▁Demokratie	-14803
▁поверхности	-14804
▁3.	-14805
▁Při	-14806
▁шаг	-14807
board	-14808
ктора	-14809
▁bact	-14810
▁quar	-14811
▁Musíme	-14812
▁anilor	-14813
▁Monaten	-14814
uș	-14815
čím	-14816
plex	-14817
ragt	-14818
▁лёг	-14819
▁zlep	-14820
▁accès	-14821
enfants	-14822
▁англий	-14823
▁politică	-14824
вёр	-14825
arbe	-14826
ledu	-14827
▁провер	-14828
▁arrière	-14829
▁cultures	-14830
▁prieteni	-14831
nů	-14832
дко	-14833
▁Maß	-14834
▁riz	-14835
▁poet	-14836
▁imple	-14837
▁tipul	-14838
▁elimin	-14839
▁indeed	-14840
▁singura	-14841
▁traiter	-14842
▁kontroll	-14843
▁influence	-14844
▁kilomètres	-14845
▁Hinter	-14846
▁механи	-14847
▁réseaux	-14848
oe	-14849
mis	-14850
pla	-14851
core	-14852
zkou	-14853
▁Test	-14854
▁Unii	-14855
érature	-14856
▁Norden	-14857
▁komunik	-14858
▁pratique	-14859
arf	-14860
ády	-14861
colo	-14862
▁выз	-14863
▁medi	-14864
▁оцен	-14865
▁causes	-14866
▁переме	-14867
▁такими	-14868
▁Versuch	-14869
▁original	-14870
▁называем	-14871
▁incroyablement	-14872
▁liqu	-14873
▁senz	-14874
▁сель	-14875
▁Orten	-14876
▁capit	-14877
▁biology	-14878
▁explica	-14879
▁выступа	-14880
▁permettre	-14881
▁mix	-14882
▁srd	-14883
▁cris	-14884
▁diam	-14885
▁международ	-14886
pun	-14887
▁tôt	-14888
▁zda	-14889
▁zne	-14890
енных	-14891
▁Those	-14892
▁nejví	-14893
▁žádný	-14894
▁sauver	-14895
▁școală	-14896
▁předtím	-14897
▁устойчи	-14898
▁thousand	-14899
▁vé	-14900
▁Pet	-14901
▁vyd	-14902
ifier	-14903
▁Eink	-14904
▁innov	-14905
▁intra	-14906
▁нужда	-14907
prechen	-14908
échelle	-14909
▁перево	-14910
▁ребёнка	-14911
▁secondes	-14912
▁образования	-14913
prá	-14914
▁Zá	-14915
čeká	-14916
▁193	-14917
▁roș	-14918
▁tým	-14919
▁depă	-14920
▁inqu	-14921
▁Sonne	-14922
▁mikro	-14923
▁pages	-14924
▁sonst	-14925
▁říkám	-14926
▁Robert	-14927
▁předná	-14928
▁возник	-14929
▁природы	-14930
▁buildings	-14931
▁imagination	-14932
hom	-14933
lymp	-14934
мена	-14935
arily	-14936
▁акти	-14937
▁Север	-14938
▁цифро	-14939
▁liegen	-14940
▁основе	-14941
hes	-14942
шек	-14943
▁První	-14944
▁Texas	-14945
▁семей	-14946
▁parent	-14947
▁pensée	-14948
▁motivul	-14949
▁vesmíru	-14950
▁Reaktion	-14951
▁Zw	-14952
ague	-14953
ieră	-14954
▁Roy	-14955
стями	-14956
▁Nyní	-14957
▁Psych	-14958
▁подня	-14959
▁семья	-14960
▁asigur	-14961
▁devină	-14962
▁используем	-14963
▁interessiert	-14964
îte	-14965
šky	-14966
▁gam	-14967
▁zvy	-14968
▁mise	-14969
▁tale	-14970
▁Každý	-14971
▁above	-14972
▁rakov	-14973
▁новую	-14974
▁solaire	-14975
▁sozialen	-14976
вин	-14977
влечь	-14978
▁cosm	-14979
▁gata	-14980
▁вверх	-14981
abilité	-14982
▁vivons	-14983
▁счасть	-14984
žení	-14985
нице	-14986
▁Kir	-14987
▁PIB	-14988
ießen	-14989
itele	-14990
полне	-14991
▁пора	-14992
▁новой	-14993
▁curând	-14994
▁disant	-14995
▁gagner	-14996
▁biggest	-14997
▁построить	-14998
heureusement	-14999
poň	-15000
čin	-15001
uner	-15002
utul	-15003
▁Аль	-15004
right	-15005
▁cold	-15006
валось	-15007
жением	-15008
zheimer	-15009
▁faster	-15010
▁victim	-15011
▁začíná	-15012
▁голову	-15013
▁каждой	-15014
▁colabor	-15015
▁написал	-15016
▁разговари	-15017
▁Bot	-15018
▁dix	-15019
▁Leid	-15020
▁dove	-15021
▁yeah	-15022
▁evalu	-15023
▁mascul	-15024
▁benefic	-15025
▁irgende	-15026
▁échelle	-15027
▁крайней	-15028
▁одновременно	-15029
inal	-15030
inse	-15031
▁vân	-15032
aving	-15033
▁léka	-15034
▁mění	-15035
▁sarc	-15036
▁metod	-15037
▁začít	-15038
▁нужен	-15039
NG	-15040
Не	-15041
hent	-15042
weet	-15043
таки	-15044
image	-15045
▁pasă	-15046
▁wife	-15047
▁вста	-15048
▁danke	-15049
▁непри	-15050
▁почув	-15051
▁ukazuje	-15052
▁familles	-15053
▁процессе	-15054
▁puissance	-15055
▁transformation	-15056
eda	-15057
▁Auch	-15058
▁baze	-15059
▁bébé	-15060
▁compt	-15061
▁симво	-15062
▁пласти	-15063
▁ridicat	-15064
▁silence	-15065
▁времена	-15066
▁Stanford	-15067
▁dá	-15068
▁аку	-15069
▁mých	-15070
▁sentir	-15071
▁Medizin	-15072
▁финансо	-15073
▁domeniul	-15074
▁dreptate	-15075
▁protéger	-15076
▁développé	-15077
жай	-15078
▁ори	-15079
▁точ	-15080
▁exerc	-15081
▁secolul	-15082
▁воспринима	-15083
▁complicated	-15084
wasser	-15085
▁haute	-15086
▁vizual	-15087
▁zpátky	-15088
▁подвер	-15089
▁напомина	-15090
▁следующий	-15091
▁climatique	-15092
▁těm	-15093
▁cetă	-15094
▁rule	-15095
▁finir	-15096
▁îngri	-15097
▁médias	-15098
▁Erinner	-15099
▁wichtige	-15100
ilí	-15101
oit	-15102
тым	-15103
▁ВИ	-15104
▁КА	-15105
atie	-15106
форми	-15107
▁Gand	-15108
▁теря	-15109
▁dobrý	-15110
▁forêt	-15111
▁aminte	-15112
▁eliber	-15113
▁obchod	-15114
▁proven	-15115
▁suddenly	-15116
ат	-15117
ned	-15118
oby	-15119
▁blí	-15120
ickým	-15121
▁näher	-15122
▁obsah	-15123
▁tests	-15124
▁gesamte	-15125
▁последний	-15126
▁auparavant	-15127
.»	-15128
opt	-15129
део	-15130
мым	-15131
▁MS	-15132
ured	-15133
▁vámi	-15134
▁legal	-15135
▁Aufmerksam	-15136
дки	-15137
rică	-15138
éros	-15139
жите	-15140
▁Ker	-15141
▁Pan	-15142
▁Wel	-15143
▁dee	-15144
▁umění	-15145
▁lucrez	-15146
▁langsam	-15147
▁patterns	-15148
▁получается	-15149
fa	-15150
ogram	-15151
▁dore	-15152
▁scop	-15153
▁силу	-15154
▁ferme	-15155
▁morts	-15156
▁ramen	-15157
▁Также	-15158
▁aminti	-15159
▁mourir	-15160
▁период	-15161
▁Innovation	-15162
▁x	-15163
лета	-15164
стую	-15165
▁20-	-15166
▁Bus	-15167
▁Mat	-15168
▁nel	-15169
▁нер	-15170
▁1980	-15171
▁dein	-15172
▁zona	-15173
▁zvuk	-15174
▁lands	-15175
▁фильм	-15176
▁будете	-15177
ût	-15178
iná	-15179
гры	-15180
▁cí	-15181
▁Eig	-15182
▁Jim	-15183
▁Jack	-15184
▁acqu	-15185
▁Eines	-15186
▁finde	-15187
▁rodin	-15188
▁convin	-15189
▁мальчи	-15190
▁сможет	-15191
▁approche	-15192
настоящему	-15193
bie	-15194
arct	-15195
delà	-15196
▁ВИЧ	-15197
▁транс	-15198
▁remark	-15199
▁confort	-15200
▁discipl	-15201
▁мужчина	-15202
ске	-15203
coli	-15204
oret	-15205
▁80%	-15206
▁AIDS	-15207
▁obiş	-15208
▁stars	-15209
▁затра	-15210
▁кроме	-15211
▁думают	-15212
▁projects	-15213
▁propriile	-15214
пан	-15215
▁Че	-15216
artă	-15217
ifica	-15218
▁2007	-15219
▁Ozean	-15220
▁adânc	-15221
▁chlap	-15222
▁власти	-15223
интересо	-15224
▁allowed	-15225
▁création	-15226
arie	-15227
▁Nan	-15228
▁hall	-15229
▁экра	-15230
▁Земле	-15231
▁notice	-15232
▁začala	-15233
▁Иногда	-15234
▁serious	-15235
▁согласи	-15236
▁zg	-15237
сист	-15238
romos	-15239
▁поги	-15240
▁bunch	-15241
▁génial	-15242
▁pomoci	-15243
▁pregăt	-15244
ственная	-15245
▁African	-15246
▁plantes	-15247
riz	-15248
зор	-15249
▁lí	-15250
▁kept	-15251
▁Indian	-15252
▁violen	-15253
▁carbone	-15254
bran	-15255
oure	-15256
▁202	-15257
▁Asia	-15258
▁autob	-15259
▁strug	-15260
▁отлич	-15261
▁Septem	-15262
▁attach	-15263
▁doresc	-15264
▁někoho	-15265
▁Manhattan	-15266
arat	-15267
▁ade	-15268
▁jobs	-15269
▁krit	-15270
▁přit	-15271
▁tran	-15272
▁посе	-15273
▁силь	-15274
▁détru	-15275
▁целью	-15276
зоваться	-15277
▁importe	-15278
▁poverty	-15279
▁Maschine	-15280
▁наверное	-15281
▁архитекту	-15282
▁85	-15283
▁50%	-15284
▁koup	-15285
▁mână	-15286
▁șase	-15287
ленная	-15288
▁атмос	-15289
▁какое	-15290
▁покры	-15291
▁Auswirk	-15292
▁pauvreté	-15293
▁последова	-15294
зяй	-15295
▁Bu	-15296
anţa	-15297
bych	-15298
▁măn	-15299
▁zní	-15300
artet	-15301
▁cuis	-15302
▁nahe	-15303
▁pomá	-15304
▁wants	-15305
▁înloc	-15306
▁paradox	-15307
▁fericire	-15308
▁libertate	-15309
лым	-15310
říme	-15311
▁sky	-15312
▁хра	-15313
ousta	-15314
ствии	-15315
▁bucur	-15316
▁chtěli	-15317
▁интернет	-15318
▁wirtschaft	-15319
kan	-15320
key	-15321
Это	-15322
čila	-15323
мини	-15324
▁Kil	-15325
▁Tal	-15326
▁vyj	-15327
ropri	-15328
▁Look	-15329
▁goal	-15330
▁imprim	-15331
▁ukázat	-15332
▁ui	-15333
ania	-15334
omer	-15335
▁pis	-15336
fique	-15337
inent	-15338
▁Gold	-15339
lungen	-15340
способ	-15341
▁forms	-15342
▁стары	-15343
▁vremea	-15344
▁думаем	-15345
▁poisson	-15346
▁siguranţă	-15347
▁următoare	-15348
apprentissage	-15349
aw	-15350
▁рам	-15351
▁Mand	-15352
▁capul	-15353
▁dokáz	-15354
▁sahen	-15355
▁индивиду	-15356
▁gleichzeitig	-15357
aper	-15358
▁Mah	-15359
▁kop	-15360
▁mně	-15361
образ	-15362
▁dites	-15363
▁pouss	-15364
▁shown	-15365
▁slide	-15366
▁skvělé	-15367
▁ähnlich	-15368
▁chemical	-15369
▁celelalte	-15370
▁profesion	-15371
▁объяснить	-15372
joy	-15373
pie	-15374
țat	-15375
ходы	-15376
▁Det	-15377
▁Job	-15378
▁dea	-15379
▁stick	-15380
▁creşte	-15381
▁muzica	-15382
▁городе	-15383
indungen	-15384
▁Schulen	-15385
▁изображение	-15386
Is	-15387
▁dai	-15388
▁pesc	-15389
▁roll	-15390
▁vědět	-15391
inaires	-15392
шинство	-15393
▁plants	-15394
▁sexual	-15395
▁zuerst	-15396
▁Знаете	-15397
▁increase	-15398
▁прекрасно	-15399
▁essentially	-15400
пов	-15401
ферен	-15402
▁Angl	-15403
▁Like	-15404
▁выпу	-15405
▁опас	-15406
▁Exist	-15407
▁match	-15408
▁otázky	-15409
▁efficace	-15410
▁prennent	-15411
▁понимать	-15412
▁CD	-15413
šeli	-15414
▁Sohn	-15415
▁auzi	-15416
iciens	-15417
▁grijă	-15418
▁hinzu	-15419
▁zaměř	-15420
unehmen	-15421
▁fliegen	-15422
▁galaxies	-15423
▁Посмотрите	-15424
▁29	-15425
коле	-15426
▁door	-15427
▁ended	-15428
▁позна	-15429
▁legate	-15430
▁actions	-15431
▁Mac	-15432
▁Sat	-15433
ollen	-15434
▁Víte	-15435
▁gern	-15436
▁выда	-15437
▁осве	-15438
▁našem	-15439
▁sorts	-15440
▁Благо	-15441
▁обита	-15442
▁плани	-15443
▁Geheim	-15444
▁setzen	-15445
▁Programm	-15446
▁effectivement	-15447
usc	-15448
abel	-15449
dire	-15450
▁beza	-15451
▁těla	-15452
▁lines	-15453
▁systému	-15454
▁negative	-15455
▁capacitatea	-15456
эт	-15457
жён	-15458
oral	-15459
▁hrá	-15460
▁Zwei	-15461
▁bald	-15462
▁ghea	-15463
▁truly	-15464
▁оружи	-15465
▁cherch	-15466
▁прогре	-15467
▁Gruppen	-15468
▁простой	-15469
▁families	-15470
▁genommen	-15471
▁logiciel	-15472
▁increasing	-15473
▁Gut	-15474
▁aug	-15475
▁Сол	-15476
klady	-15477
▁Dorf	-15478
▁Bücher	-15479
▁phrase	-15480
▁identity	-15481
▁миллиарда	-15482
На	-15483
uzi	-15484
▁prêt	-15485
▁допол	-15486
▁пусты	-15487
▁taught	-15488
▁comportament	-15489
тек	-15490
шку	-15491
hore	-15492
onym	-15493
▁avan	-15494
ologia	-15495
▁indiv	-15496
▁decade	-15497
▁făcând	-15498
▁larger	-15499
▁noapte	-15500
▁anymore	-15501
▁numeşte	-15502
▁Pflanzen	-15503
hra	-15504
вут	-15505
рин	-15506
▁mos	-15507
▁1950	-15508
▁avoc	-15509
▁nebu	-15510
▁velká	-15511
▁England	-15512
▁ständig	-15513
▁рассмот	-15514
▁entscheiden	-15515
▁Ис	-15516
conj	-15517
▁Uhr	-15518
▁Prot	-15519
▁enth	-15520
▁Gerät	-15521
▁noştri	-15522
Th	-15523
tete	-15524
▁Haw	-15525
▁toi	-15526
ského	-15527
▁casa	-15528
▁сеть	-15529
▁faits	-15530
▁oprav	-15531
▁author	-15532
▁hinein	-15533
▁дизайн	-15534
▁Imagine	-15535
▁consecin	-15536
▁вопросом	-15537
▁работали	-15538
nuit	-15539
ёнок	-15540
▁vym	-15541
inken	-15542
▁déci	-15543
▁rádi	-15544
▁виды	-15545
▁Karte	-15546
▁tatăl	-15547
erstoff	-15548
▁dialog	-15549
▁располо	-15550
▁сначала	-15551
▁caractér	-15552
▁guvernul	-15553
so	-15554
▁фон	-15555
руется	-15556
▁tehdy	-15557
▁Regeln	-15558
▁morceau	-15559
▁транспо	-15560
▁средства	-15561
▁Beispiele	-15562
▁Forschung	-15563
▁somewhere	-15564
cip	-15565
ikel	-15566
inta	-15567
zusch	-15568
▁ernst	-15569
▁выбира	-15570
▁другую	-15571
ственность	-15572
▁традицион	-15573
▁поделиться	-15574
krie	-15575
▁émer	-15576
▁bleibt	-15577
▁gesche	-15578
▁partag	-15579
▁verurs	-15580
▁interna	-15581
▁continua	-15582
▁products	-15583
▁существуют	-15584
▁communautés	-15585
▁geschrieben	-15586
▁certainement	-15587
▁Aufmerksamkeit	-15588
▁'9	-15589
▁oz	-15590
▁sad	-15591
▁сом	-15592
▁amus	-15593
▁отде	-15594
менить	-15595
▁bater	-15596
▁supposed	-15597
appl	-15598
žený	-15599
емой	-15600
тной	-15601
▁sod	-15602
нести	-15603
новля	-15604
▁вода	-15605
▁alege	-15606
▁loved	-15607
▁oferi	-15608
▁tisíc	-15609
▁meargă	-15610
▁přijde	-15611
▁стоимо	-15612
▁progrès	-15613
▁vergessen	-15614
prü	-15615
asca	-15616
ştii	-15617
▁lépe	-15618
▁phen	-15619
▁tree	-15620
issait	-15621
▁waste	-15622
▁énorm	-15623
▁препо	-15624
ccident	-15625
▁Behand	-15626
▁account	-15627
▁помогает	-15628
iș	-15629
sle	-15630
лять	-15631
мите	-15632
conne	-15633
elben	-15634
▁získá	-15635
▁среды	-15636
▁násled	-15637
▁неделю	-15638
▁supravieț	-15639
▁verlieren	-15640
сах	-15641
ovém	-15642
вета	-15643
hruba	-15644
▁Pens	-15645
▁Tous	-15646
▁jmen	-15647
▁rêve	-15648
онстри	-15649
▁непре	-15650
zeichnet	-15651
▁spécial	-15652
▁activity	-15653
▁человеком	-15654
électricité	-15655
▁Oberfläche	-15656
▁Wirklichkeit	-15657
fice	-15658
▁Nar	-15659
▁lag	-15660
ville	-15661
▁acei	-15662
▁mnou	-15663
itorii	-15664
▁Feuer	-15665
▁Think	-15666
ального	-15667
▁manque	-15668
▁înconj	-15669
▁molecule	-15670
▁commencent	-15671
ivi	-15672
tia	-15673
рил	-15674
шел	-15675
▁Им	-15676
teze	-15677
▁Mas	-15678
▁dod	-15679
▁žít	-15680
▁кажды	-15681
▁lucrul	-15682
▁состоянии	-15683
зон	-15684
▁Ka	-15685
adel	-15686
▁Emp	-15687
▁pră	-15688
▁ciel	-15689
▁Další	-15690
▁alive	-15691
▁chimp	-15692
▁părea	-15693
▁Vedeți	-15694
▁erfors	-15695
▁vivant	-15696
▁Studien	-15697
▁jemanden	-15698
▁straight	-15699
▁happiness	-15700
dé	-15701
IDA	-15702
▁uz	-15703
iază	-15704
▁имя	-15705
▁Ress	-15706
▁gram	-15707
▁révé	-15708
▁исти	-15709
▁všude	-15710
▁иссле	-15711
▁Zugang	-15712
▁faceți	-15713
▁nebylo	-15714
▁součástí	-15715
▁materials	-15716
oile	-15717
нему	-15718
▁lern	-15719
▁trom	-15720
▁вниз	-15721
▁bibli	-15722
Univers	-15723
▁Valley	-15724
▁думали	-15725
▁пережи	-15726
▁ajungem	-15727
▁pericul	-15728
▁включая	-15729
▁проекта	-15730
▁Nachrichten	-15731
isés	-15732
жида	-15733
▁Frü	-15734
▁опы	-15735
blich	-15736
ächen	-15737
▁Ding	-15738
▁opět	-15739
▁deine	-15740
▁ihres	-15741
▁medie	-15742
▁компо	-15743
rations	-15744
▁многое	-15745
▁стандар	-15746
▁concerne	-15747
▁сожалению	-15748
LA	-15749
avit	-15750
▁Hir	-15751
▁bare	-15752
▁ingén	-15753
▁исчез	-15754
aujourd	-15755
▁dangere	-15756
▁изобрет	-15757
cs	-15758
pra	-15759
▁jsi	-15760
álním	-15761
соеди	-15762
▁Pren	-15763
▁bess	-15764
▁orch	-15765
▁přid	-15766
▁Preis	-15767
▁solid	-15768
▁trăie	-15769
ţionale	-15770
▁versus	-15771
▁вашего	-15772
▁парень	-15773
▁Fortsch	-15774
▁oriunde	-15775
▁bestimmt	-15776
сор	-15777
ştia	-15778
кому	-15779
щают	-15780
▁лица	-15781
▁peněz	-15782
▁anschauen	-15783
▁collective	-15784
▁lesquelles	-15785
ekl	-15786
hre	-15787
aust	-15788
fach	-15789
▁lut	-15790
▁nul	-15791
érons	-15792
▁domů	-15793
▁vyře	-15794
▁визу	-15795
attend	-15796
ämpfen	-15797
▁Kommun	-15798
▁ideile	-15799
▁říkají	-15800
▁secunde	-15801
▁digitale	-15802
▁Wikipedia	-15803
▁společens	-15804
▁Bevölkerung	-15805
▁лаборатории	-15806
мая	-15807
merz	-15808
▁Ord	-15809
▁Recht	-15810
▁genes	-15811
▁голос	-15812
▁Papier	-15813
▁großes	-15814
▁kosten	-15815
▁proche	-15816
▁přišel	-15817
ensemble	-15818
ян	-15819
▁Cr	-15820
▁Mary	-15821
▁jude	-15822
▁Суще	-15823
icient	-15824
▁fallait	-15825
▁membres	-15826
▁здорово	-15827
▁herauszufinden	-15828
bien	-15829
ytoc	-15830
▁klu	-15831
▁Baby	-15832
▁entw	-15833
▁gand	-15834
▁tens	-15835
▁musul	-15836
▁Wieder	-15837
▁comprom	-15838
▁porozum	-15839
▁родители	-15840
prve	-15841
▁Fle	-15842
▁zby	-15843
quent	-15844
▁ţări	-15845
▁tyhle	-15846
▁земле	-15847
jenigen	-15848
▁Terror	-15849
▁minist	-15850
▁septem	-15851
▁podívat	-15852
▁valoare	-15853
▁critical	-15854
▁intéressante	-15855
bon	-15856
▁Nos	-15857
▁pure	-15858
▁stil	-15859
▁brand	-15860
▁capăt	-15861
ktionen	-15862
▁недостаточно	-15863
"]	-15864
pers	-15865
▁Bun	-15866
▁Hai	-15867
▁dah	-15868
▁rede	-15869
▁радио	-15870
▁готовы	-15871
▁beobachten	-15872
áž	-15873
лле	-15874
рои	-15875
▁3,	-15876
▁Fi	-15877
▁лу	-15878
▁Hen	-15879
▁ehr	-15880
eless	-15881
rasch	-15882
▁poze	-15883
▁лиде	-15884
▁Tagen	-15885
program	-15886
▁pieces	-15887
▁Африки	-15888
▁grupuri	-15889
iop	-15890
ahle	-15891
ереди	-15892
торов	-15893
▁upon	-15894
▁рису	-15895
▁părți	-15896
▁écoles	-15897
▁seconds	-15898
▁persoana	-15899
▁окружающей	-15900
čku	-15901
▁vécu	-15902
ausend	-15903
рованы	-15904
▁nenne	-15905
▁făcute	-15906
▁voller	-15907
▁vostru	-15908
▁свобод	-15909
▁болезни	-15910
▁practice	-15911
osen	-15912
▁Hin	-15913
▁gun	-15914
▁rob	-15915
▁hous	-15916
▁вече	-15917
▁рака	-15918
▁spate	-15919
▁оцени	-15920
▁формы	-15921
brechen	-15922
▁udělal	-15923
▁comfort	-15924
рят	-15925
ader	-15926
ziert	-15927
▁selt	-15928
ormais	-15929
▁équip	-15930
▁помню	-15931
▁телефо	-15932
▁centrul	-15933
▁pourrais	-15934
▁společně	-15935
▁Nachricht	-15936
alle	-15937
noho	-15938
ovol	-15939
▁ото	-15940
[...]
