<unk>	0
<eos>	0
<pad>	0
<en>	0
<de>	0
in	-0
▁a	-1
en	-2
er	-3
▁s	-4
ein	-5
an	-6
ch	-7
▁ein	-8
ing	-9
it	-10
▁w	-11
▁in	-12
un	-13
▁b	-14
▁t	-15
▁m	-16
▁d	-17
on	-18
▁E	-19
▁A	-20
re	-21
▁Ein	-22
em	-23
ar	-24
▁M	-25
le	-26
▁g	-27
is	-28
▁p	-29
ra	-30
▁h	-31
el	-32
ro	-33
▁o	-34
es	-35
▁einem	-36
▁S	-37
he	-38
al	-39
▁an	-40
und	-41
la	-42
uf	-43
▁f	-44
▁F	-45
ei	-46
ck	-47
et	-48
or	-49
▁the	-50
▁c	-51
▁st	-52
at	-53
▁T	-54
ir	-55
▁on	-56
▁auf	-57
▁Man	-58
▁is	-59
▁mit	-60
▁H	-61
ung	-62
▁B	-63
▁Mann	-64
om	-65
▁und	-66
▁v	-67
and	-68
▁man	-69
eh	-70
▁of	-71
▁l	-72
ut	-73
▁and	-74
as	-75
ie	-76
▁K	-77
id	-78
▁einer	-79
ers	-80
▁Eine	-81
il	-82
rau	-83
▁G	-84
st	-85
▁P	-86
ith	-87
chen	-88
▁with	-89
im	-90
all	-91
op	-92
us	-93
ow	-94
▁Frau	-95
▁sit	-96
ol	-97
ter	-98
um	-99
ge	-100
▁k	-101
ur	-102
hr	-103
up	-104
ten	-105
▁wom	-106
▁Z	-107
iel	-108
▁sp	-109
ne	-110
wei	-111
ot	-112
▁St	-113
king	-114
▁sch	-115
ed	-116
wo	-117
▁are	-118
ss	-119
▁Mä	-120
▁der	-121
ich	-122
am	-123
▁W	-124
▁wh	-125
▁z	-126
ind	-127
▁to	-128
▁woman	-129
▁j	-130
▁r	-131
▁sh	-132
▁eine	-133
ig	-134
▁ro	-135
▁pla	-136
ach	-137
ad	-138
▁Zwei	-139
▁einen	-140
▁D	-141
▁J	-142
▁Two	-143
▁re	-144
▁at	-145
▁die	-146
eop	-147
irt	-148
ic	-149
▁bla	-150
eople	-151
og	-152
▁bo	-153
▁play	-154
ben	-155
▁im	-156
▁y	-157
▁bl	-158
▁Sch	-159
ild	-160
eht	-161
ting	-162
ear	-163
▁L	-164
oo	-165
ug	-166
▁gro	-167
▁R	-168
erson	-169
ber	-170
ier	-171
ent	-172
ack	-173
▁ch	-174
▁people	-175
▁ne	-176
▁sitz	-177
ide	-178
lein	-179
▁stand	-180
▁vor	-181
oung	-182
▁spiel	-183
ner	-184
gen	-185
▁wear	-186
▁Hund	-187
▁dog	-188
ßen	-189
▁wearing	-190
pe	-191
lt	-192
ite	-193
rei	-194
▁klein	-195
eb	-196
unge	-197
irl	-198
her	-199
ik	-200
end	-201
dchen	-202
▁von	-203
▁be	-204
▁Mädchen	-205
▁young	-206
▁wal	-207
▁Kind	-208
▁sich	-209
▁shirt	-210
▁girl	-211
ue	-212
▁boy	-213
be	-214
ard	-215
gt	-216
▁th	-217
▁Person	-218
ver	-219
▁dem	-220
▁white	-221
▁out	-222
ehen	-223
ße	-224
os	-225
old	-226
▁wat	-227
ell	-228
nner	-229
nen	-230
▁his	-231
▁n	-232
ile	-233
ts	-234
▁schw	-235
▁Männer	-236
ähr	-237
ab	-238
ahr	-239
▁la	-240
ass	-241
▁tr	-242
ce	-243
▁her	-244
▁sitting	-245
▁Stra	-246
ark	-247
ens	-248
te	-249
▁black	-250
▁zu	-251
arz	-252
▁red	-253
▁playing	-254
row	-255
▁wei	-256
▁stre	-257
▁steht	-258
au	-259
ick	-260
▁Junge	-261
▁blue	-262
own	-263
▁men	-264
▁fr	-265
▁child	-266
▁i	-267
▁den	-268
▁standing	-269
▁group	-270
leid	-271
▁sitzt	-272
der	-273
▁schwarz	-274
▁Gr	-275
ball	-276
über	-277
▁while	-278
ft	-279
▁sein	-280
uppe	-281
est	-282
▁hold	-283
▁street	-284
▁O	-285
hre	-286
ont	-287
isch	-288
▁bei	-289
▁co	-290
sch	-291
den	-292
▁Mens	-293
▁Straße	-294
▁walking	-295
▁über	-296
▁down	-297
▁loo	-298
▁blau	-299
▁e	-300
▁spielt	-301
de	-302
ul	-303
men	-304
ang	-305
▁Gruppe	-306
▁hä	-307
ion	-308
piel	-309
▁Menschen	-310
ere	-311
▁V	-312
▁un	-313
▁An	-314
▁sm	-315
itt	-316
uft	-317
▁front	-318
▁spr	-319
ren	-320
rü	-321
▁hält	-322
▁gra	-323
▁water	-324
▁um	-325
▁le	-326
ap	-327
▁C	-328
▁The	-329
än	-330
ks	-331
▁dur	-332
emd	-333
▁Personen	-334
▁or	-335
▁hat	-336
▁al	-337
ugh	-338
oard	-339
▁ra	-340
ze	-341
▁am	-342
▁ge	-343
▁aus	-344
ump	-345
side	-346
▁holding	-347
round	-348
▁Wass	-349
ain	-350
air	-351
▁Hemd	-352
▁run	-353
▁lä	-354
ingt	-355
ct	-356
▁as	-357
ag	-358
orm	-359
▁tra	-360
igh	-361
ink	-362
ür	-363
▁Kinder	-364
ff	-365
▁N	-366
▁cl	-367
▁car	-368
beit	-369
▁Wasser	-370
iv	-371
ying	-372
ehr	-373
ress	-374
ange	-375
▁Frauen	-376
we	-377
uch	-378
▁wor	-379
▁durch	-380
▁das	-381
▁Le	-382
imm	-383
▁jump	-384
▁neben	-385
acht	-386
enn	-387
▁som	-388
▁ar	-389
now	-390
rad	-391
hing	-392
▁up	-393
ock	-394
▁by	-395
ay	-396
▁eines	-397
▁spielen	-398
one	-399
av	-400
sen	-401
form	-402
▁Drei	-403
▁hin	-404
kat	-405
▁for	-406
▁women	-407
▁bu	-408
ittle	-409
raun	-410
ak	-411
ies	-412
aar	-413
entl	-414
▁rid	-415
ährt	-416
ler	-417
ährend	-418
▁dress	-419
reen	-420
▁sitzen	-421
▁während	-422
▁Thre	-423
to	-424
▁Three	-425
eil	-426
▁stehen	-427
uit	-428
▁fährt	-429
▁outside	-430
▁fl	-431
▁roten	-432
▁blauen	-433
▁looking	-434
hn	-435
amer	-436
▁thro	-437
▁ball	-438
▁through	-439
▁little	-440
rown	-441
ägt	-442
ern	-443
art	-444
▁mo	-445
▁green	-446
oot	-447
arge	-448
▁geht	-449
▁snow	-450
▁weißen	-451
ip	-452
elt	-453
icht	-454
iert	-455
ong	-456
▁large	-457
ans	-458
▁Leut	-459
lass	-460
auf	-461
▁Fahr	-462
kleid	-463
▁ist	-464
▁side	-465
ood	-466
▁ho	-467
▁brown	-468
▁orange	-469
ore	-470
▁springt	-471
ning	-472
▁kleines	-473
▁back	-474
▁braun	-475
▁macht	-476
eln	-477
rom	-478
▁grü	-479
▁ver	-480
aut	-481
arben	-482
ellow	-483
▁trägt	-484
alk	-485
äl	-486
yc	-487
▁entl	-488
▁Kleid	-489
amera	-490
hirt	-491
▁yellow	-492
▁entlang	-493
fen	-494
▁po	-495
▁over	-496
ep	-497
▁pos	-498
ight	-499
▁Hand	-500
▁kleiner	-501
fer	-502
les	-503
▁br	-504
▁into	-505
xt	-506
ure	-507
▁jung	-508
▁person	-509
▁Se	-510
▁children	-511
▁two	-512
ril	-513
▁gel	-514
▁their	-515
▁ma	-516
▁Leute	-517
age	-518
▁Fel	-519
▁he	-520
▁blon	-521
anz	-522
▁bik	-523
ire	-524
rand	-525
igen	-526
eboard	-527
ank	-528
▁build	-529
▁unter	-530
ud	-531
▁one	-532
ine	-533
ors	-534
ly	-535
ant	-536
▁ihr	-537
▁grass	-538
▁building	-539
unt	-540
ame	-541
farben	-542
▁next	-543
▁vers	-544
▁small	-545
uß	-546
▁dr	-547
▁ol	-548
▁running	-549
kateboard	-550
▁sw	-551
▁from	-552
▁People	-553
aby	-554
▁Ar	-555
ub	-556
str	-557
▁U	-558
uck	-559
▁riding	-560
otor	-561
▁weiß	-562
bo	-563
▁Ober	-564
▁zwei	-565
esch	-566
rowd	-567
▁gehen	-568
eck	-569
▁some	-570
▁Spiel	-571
▁ot	-572
▁con	-573
ungen	-574
▁hand	-575
▁Sp	-576
▁do	-577
▁Geb	-578
▁near	-579
▁Fahrrad	-580
▁watch	-581
ph	-582
▁te	-583
älter	-584
fahr	-585
let	-586
▁crowd	-587
▁et	-588
acket	-589
was	-590
ehrere	-591
ield	-592
eren	-593
walk	-594
▁jacket	-595
ort	-596
ian	-597
▁off	-598
▁tre	-599
are	-600
▁beach	-601
▁etwas	-602
uh	-603
gel	-604
▁it	-605
▁älter	-606
▁field	-607
▁seinem	-608
dy	-609
unter	-610
▁großen	-611
ask	-612
cht	-613
▁around	-614
▁Der	-615
spiel	-616
inter	-617
▁Strand	-618
ross	-619
▁schwarzen	-620
ist	-621
▁Fuß	-622
▁Ball	-623
äu	-624
our	-625
▁Gra	-626
▁läuft	-627
ull	-628
ück	-629
elm	-630
teil	-631
▁ihre	-632
ischen	-633
▁jumping	-634
ert	-635
▁wir	-636
oc	-637
▁Mehrere	-638
aus	-639
▁pink	-640
ity	-641
▁zus	-642
able	-643
▁sidewalk	-644
ieren	-645
▁I	-646
▁dressed	-647
▁se	-648
lich	-649
kleidet	-650
▁air	-651
alten	-652
▁sc	-653
gr	-654
acke	-655
qu	-656
▁work	-657
▁arbeit	-658
▁junge	-659
▁Frei	-660
▁Luft	-661
get	-662
ige	-663
lat	-664
ast	-665
▁Bl	-666
▁per	-667
weg	-668
ger	-669
▁park	-670
other	-671
▁nach	-672
ade	-673
▁für	-674
▁sur	-675
▁other	-676
ill	-677
▁Schne	-678
▁Jungen	-679
zeug	-680
▁Bo	-681
aum	-682
▁Oberteil	-683
board	-684
rille	-685
orts	-686
üh	-687
▁läch	-688
▁rock	-689
eans	-690
ander	-691
lasses	-692
▁Freien	-693
untain	-694
▁li	-695
▁stands	-696
▁perform	-697
ey	-698
che	-699
way	-700
▁As	-701
ture	-702
▁dogs	-703
itar	-704
ycle	-705
äude	-706
▁bike	-707
▁grünen	-708
omp	-709
▁ben	-710
▁table	-711
iling	-712
▁sits	-713
cer	-714
opf	-715
▁pic	-716
▁girls	-717
▁blond	-718
cing	-719
ling	-720
eball	-721
ennis	-722
lä	-723
▁wall	-724
ground	-725
▁col	-726
▁Schw	-727
▁rot	-728
ice	-729
▁gekleidet	-730
▁read	-731
aseball	-732
▁Schnee	-733
▁city	-734
▁dan	-735
▁Hunde	-736
▁schaut	-737
▁sk	-738
▁tal	-739
▁Jacke	-740
▁junger	-741
oto	-742
zen	-743
▁hoch	-744
▁Gras	-745
asket	-746
bei	-747
ive	-748
▁des	-749
▁picture	-750
ath	-751
fahrer	-752
▁another	-753
pf	-754
▁bic	-755
rep	-756
▁beh	-757
farbenen	-758
iat	-759
▁top	-760
▁er	-761
ieht	-762
ör	-763
pen	-764
▁bus	-765
amm	-766
aking	-767
▁Gebäude	-768
▁Kleidung	-769
aur	-770
ose	-771
ust	-772
uitar	-773
▁kleine	-774
eit	-775
▁head	-776
▁working	-777
do	-778
bt	-779
▁beim	-780
▁Tisch	-781
len	-782
agen	-783
▁behind	-784
▁guitar	-785
▁hinter	-786
ün	-787
ootball	-788
▁vorbei	-789
ahn	-790
unk	-791
▁Park	-792
▁carr	-793
▁Nä	-794
ühr	-795
ucht	-796
spieler	-797
sp	-798
▁ac	-799
ennt	-800
ation	-801
menge	-802
veral	-803
▁gelben	-804
▁In	-805
ew	-806
▁Kopf	-807
▁rennt	-808
▁sind	-809
▁Fußball	-810
ufen	-811
mp	-812
üt	-813
ething	-814
▁Hinter	-815
▁fa	-816
▁Hut	-817
▁something	-818
▁Fl	-819
▁gu	-820
gether	-821
▁together	-822
eig	-823
▁str	-824
ating	-825
▁clot	-826
use	-827
▁boys	-828
▁hair	-829
▁along	-830
▁camera	-831
iz	-832
alt	-833
grund	-834
▁Feld	-835
▁Stad	-836
sa	-837
▁Die	-838
▁Geh	-839
aurant	-840
▁talking	-841
fon	-842
▁soc	-843
angen	-844
▁food	-845
utz	-846
▁Son	-847
▁bet	-848
lag	-849
▁Nähe	-850
▁get	-851
iform	-852
▁walk	-853
ssen	-854
▁Ber	-855
itarre	-856
▁older	-857
▁schwarzer	-858
▁lady	-859
▁looks	-860
▁Vier	-861
▁blick	-862
asketball	-863
du	-864
iegt	-865
▁plays	-866
▁Menschenmenge	-867
dle	-868
▁mid	-869
▁clim	-870
▁soccer	-871
▁kleinen	-872
▁player	-873
▁anderen	-874
beiter	-875
letter	-876
▁Kamera	-877
▁kid	-878
kt	-879
▁walks	-880
▁en	-881
ster	-882
Shirt	-883
▁sand	-884
iger	-885
▁game	-886
ather	-887
ction	-888
ah	-889
▁Four	-890
▁wird	-891
pp	-892
▁ph	-893
▁smiling	-894
af	-895
of	-896
▁bef	-897
phone	-898
ess	-899
▁Y	-900
eer	-901
latz	-902
▁bench	-903
ische	-904
▁Skateboard	-905
hes	-906
itet	-907
▁that	-908
▁Boden	-909
eschä	-910
▁Stadt	-911
ennen	-912
▁Hintergrund	-913
▁vol	-914
▁sing	-915
ob	-916
ald	-917
▁guy	-918
rä	-919
ful	-920
▁baby	-921
ale	-922
▁road	-923
ve	-924
ait	-925
erst	-926
▁pro	-927
▁climb	-928
▁Straßen	-929
▁Haar	-930
▁zusam	-931
se	-932
uple	-933
▁background	-934
ign	-935
umen	-936
▁under	-937
egen	-938
▁Aut	-939
▁hors	-940
▁ihren	-941
▁skateboard	-942
▁Sand	-943
mer	-944
▁go	-945
▁dirt	-946
▁gray	-947
▁mountain	-948
einander	-949
▁Gitarre	-950
eg	-951
auen	-952
▁fahr	-953
▁Motor	-954
▁holds	-955
▁couple	-956
▁stage	-957
▁comp	-958
▁pain	-959
raußen	-960
uss	-961
▁bar	-962
▁Baby	-963
las	-964
aving	-965
▁Pfer	-966
▁tree	-967
▁herum	-968
▁Several	-969
▁zusammen	-970
atch	-971
▁Büh	-972
shirt	-973
ake	-974
▁rosa	-975
ants	-976
ke	-977
▁us	-978
▁fahren	-979
▁draußen	-980
▁Asian	-981
elle	-982
▁race	-983
▁wait	-984
▁taking	-985
stru	-986
▁pool	-987
▁Er	-988
▁abo	-989
▁Foto	-990
▁grau	-991
uth	-992
▁has	-993
▁Gehweg	-994
olz	-995
▁old	-996
▁Bühne	-997
eu	-998
cke	-999
▁ih	-1000
cken	-1001
▁Sonnen	-1002
▁bicycle	-1003
▁glasses	-1004
▁älterer	-1005
bre	-1006
▁rest	-1007
▁jumps	-1008
▁uniform	-1009
io	-1010
ument	-1011
ett	-1012
▁es	-1013
▁bere	-1014
▁Te	-1015
▁doing	-1016
per	-1017
▁sie	-1018
▁carrying	-1019
▁ab	-1020
▁sl	-1021
wach	-1022
▁set	-1023
▁suit	-1024
▁outdo	-1025
▁hinunter	-1026
ost	-1027
▁boat	-1028
▁train	-1029
▁unterh	-1030
ann	-1031
ome	-1032
▁Bau	-1033
ockey	-1034
led	-1035
ley	-1036
▁across	-1037
är	-1038
ater	-1039
wachsen	-1040
edeck	-1041
▁Ch	-1042
▁fem	-1043
▁sun	-1044
ence	-1045
▁Gel	-1046
▁swe	-1047
arten	-1048
wagen	-1049
▁Schwimm	-1050
je	-1051
fit	-1052
▁Ges	-1053
▁day	-1054
▁each	-1055
▁tanz	-1056
▁chair	-1057
och	-1058
kleidung	-1059
eigt	-1060
ping	-1061
▁Holz	-1062
ris	-1063
▁laufen	-1064
▁arbeitet	-1065
erk	-1066
▁him	-1067
▁shop	-1068
▁asiat	-1069
▁seine	-1070
▁Tr	-1071
▁par	-1072
▁sho	-1073
▁Brille	-1074
ßer	-1075
eing	-1076
ikro	-1077
▁dunk	-1078
ha	-1079
here	-1080
▁mus	-1081
ingen	-1082
▁them	-1083
▁motor	-1084
▁mic	-1085
▁Baum	-1086
▁Wand	-1087
▁Mikro	-1088
▁pur	-1089
▁Bank	-1090
▁helm	-1091
▁blickt	-1092
jo	-1093
ok	-1094
▁Paar	-1095
▁face	-1096
▁mouth	-1097
▁andere	-1098
▁store	-1099
▁eating	-1100
strument	-1101
pt	-1102
▁helmet	-1103
▁brauner	-1104
▁micro	-1105
▁swing	-1106
eschäft	-1107
▁weißer	-1108
▁Bild	-1109
▁wind	-1110
▁kletter	-1111
▁Jeans	-1112
ave	-1113
ish	-1114
▁coat	-1115
▁male	-1116
▁lächeln	-1117
▁performing	-1118
iese	-1119
▁toy	-1120
▁Dame	-1121
▁liegt	-1122
▁machen	-1123
ogra	-1124
ührt	-1125
▁band	-1126
▁watching	-1127
iten	-1128
▁Mau	-1129
▁bag	-1130
▁long	-1131
▁Essen	-1132
▁Sk	-1133
▁area	-1134
▁gest	-1135
▁hell	-1136
▁shorts	-1137
▁Wom	-1138
▁flo	-1139
▁middle	-1140
▁arbeiten	-1141
geb	-1142
ool	-1143
▁tow	-1144
▁runs	-1145
ichen	-1146
▁sign	-1147
fr	-1148
▁Men	-1149
enden	-1150
▁dark	-1151
▁seinen	-1152
arkt	-1153
immt	-1154
▁spe	-1155
▁room	-1156
▁Young	-1157
▁befind	-1158
▁ground	-1159
▁Motorrad	-1160
ate	-1161
irm	-1162
uhl	-1163
▁wood	-1164
otogra	-1165
▁using	-1166
▁braunen	-1167
▁lächelt	-1168
az	-1169
▁Hü	-1170
▁Hän	-1171
▁Bür	-1172
▁Rad	-1173
▁Boot	-1174
▁große	-1175
struction	-1176
▁Pf	-1177
zug	-1178
cean	-1179
▁Berg	-1180
▁Wald	-1181
▁gather	-1182
haar	-1183
ired	-1184
▁Mus	-1185
▁enjo	-1186
▁pants	-1187
▁tragen	-1188
▁Un	-1189
tern	-1190
platz	-1191
ischer	-1192
▁being	-1193
▁hands	-1194
als	-1195
dult	-1196
▁Baseball	-1197
▁ob	-1198
▁Meer	-1199
▁horse	-1200
ßt	-1201
ree	-1202
osen	-1203
▁prep	-1204
▁music	-1205
▁swimm	-1206
▁Tennis	-1207
▁reading	-1208
▁de	-1209
▁Klein	-1210
amil	-1211
▁ocean	-1212
▁female	-1213
▁tennis	-1214
▁schauen	-1215
ican	-1216
unst	-1217
aufen	-1218
iving	-1219
▁kids	-1220
brille	-1221
▁jeans	-1222
▁ältere	-1223
▁climbing	-1224
ll	-1225
ple	-1226
▁its	-1227
isten	-1228
▁liest	-1229
▁window	-1230
▁versucht	-1231
bla	-1232
iff	-1233
▁Bürg	-1234
▁ihrem	-1235
▁football	-1236
▁ex	-1237
iele	-1238
▁Pferd	-1239
▁Bürgerst	-1240
▁att	-1241
▁adult	-1242
leep	-1243
▁Bürgersteig	-1244
▁unterhalten	-1245
zt	-1246
ike	-1247
▁junges	-1248
att	-1249
ons	-1250
ance	-1251
▁arm	-1252
▁baseball	-1253
if	-1254
oll	-1255
▁schn	-1256
abei	-1257
▁Fris	-1258
▁Helm	-1259
▁Stein	-1260
▁dabei	-1261
ry	-1262
sche	-1263
▁Tag	-1264
▁dar	-1265
akes	-1266
▁mar	-1267
▁betra	-1268
▁halten	-1269
iet	-1270
▁el	-1271
▁who	-1272
stand	-1273
▁cross	-1274
▁Felsen	-1275
▁motorc	-1276
ffit	-1277
iver	-1278
usch	-1279
▁catch	-1280
▁spricht	-1281
▁sieht	-1282
▁wie	-1283
▁There	-1284
ards	-1285
▁sehen	-1286
tel	-1287
▁Band	-1288
▁bele	-1289
▁past	-1290
▁show	-1291
▁surf	-1292
haired	-1293
▁rides	-1294
▁stick	-1295
▁strip	-1296
▁dancing	-1297
ied	-1298
aper	-1299
▁als	-1300
▁pol	-1301
▁gegen	-1302
▁klettert	-1303
▁fire	-1304
▁Musik	-1305
▁color	-1306
▁zeigt	-1307
▁microphone	-1308
ix	-1309
▁ins	-1310
ement	-1311
▁cover	-1312
▁during	-1313
▁posing	-1314
▁versch	-1315
cher	-1316
▁Gew	-1317
aring	-1318
▁grün	-1319
▁hill	-1320
▁mark	-1321
▁Kunst	-1322
▁orangefarbenen	-1323
arm	-1324
bee	-1325
euer	-1326
derly	-1327
ütze	-1328
▁dis	-1329
ition	-1330
▁purple	-1331
lefon	-1332
▁singt	-1333
▁track	-1334
▁swimming	-1335
▁restaurant	-1336
ät	-1337
▁Kü	-1338
▁Sh	-1339
▁Th	-1340
▁ag	-1341
▁me	-1342
eich	-1343
▁Arm	-1344
▁Auto	-1345
▁flow	-1346
ünf	-1347
▁Rest	-1348
▁clothing	-1349
ostü	-1350
over	-1351
▁Pol	-1352
▁having	-1353
▁players	-1354
▁waiting	-1355
ase	-1356
eld	-1357
ord	-1358
ucks	-1359
▁ent	-1360
liche	-1361
▁posiert	-1362
▁Erwachsen	-1363
auk	-1364
boy	-1365
ubl	-1366
▁kur	-1367
▁drin	-1368
utting	-1369
▁three	-1370
ende	-1371
ikan	-1372
▁bun	-1373
▁zum	-1374
▁look	-1375
▁elderly	-1376
bb	-1377
net	-1378
▁bes	-1379
▁team	-1380
▁Gelän	-1381
▁schie	-1382
rat	-1383
ging	-1384
ines	-1385
▁Auf	-1386
▁bear	-1387
▁beob	-1388
▁drei	-1389
▁part	-1390
▁striped	-1391
▁workers	-1392
▁Spielzeug	-1393
▁basketball	-1394
▁construction	-1395
▁Das	-1396
▁Fen	-1397
▁night	-1398
▁smile	-1399
leyball	-1400
▁rennen	-1401
▁gestrei	-1402
aun	-1403
brel	-1404
▁she	-1405
▁sung	-1406
▁trink	-1407
▁market	-1408
▁umbrel	-1409
▁getting	-1410
▁sunglasses	-1411
sst	-1412
asch	-1413
emand	-1414
ffiti	-1415
owboy	-1416
▁throw	-1417
ycl	-1418
▁can	-1419
ooden	-1420
▁pass	-1421
ial	-1422
ork	-1423
ves	-1424
öff	-1425
▁This	-1426
▁conc	-1427
▁high	-1428
▁wooden	-1429
zer	-1430
uter	-1431
▁One	-1432
▁fore	-1433
▁kick	-1434
▁blauem	-1435
▁watches	-1436
ampf	-1437
▁Spr	-1438
▁again	-1439
▁trick	-1440
▁bright	-1441
▁outfit	-1442
▁Football	-1443
▁Restaurant	-1444
ces	-1445
els	-1446
iss	-1447
▁kn	-1448
dern	-1449
▁met	-1450
▁about	-1451
▁führt	-1452
▁Haaren	-1453
▁seiner	-1454
▁weißem	-1455
atue	-1456
▁Feuer	-1457
▁Wiese	-1458
boarder	-1459
tt	-1460
ien	-1461
▁bow	-1462
▁ihm	-1463
▁open	-1464
arbeiter	-1465
▁against	-1466
▁singing	-1467
▁Basketball	-1468
by	-1469
fl	-1470
aff	-1471
▁pl	-1472
aning	-1473
▁Maul	-1474
▁outdoor	-1475
▁Arbeiter	-1476
ufer	-1477
▁kit	-1478
▁busy	-1479
▁verk	-1480
▁fence	-1481
▁Gesicht	-1482
od	-1483
stum	-1484
▁bot	-1485
▁hang	-1486
▁path	-1487
▁Woman	-1488
▁Mantel	-1489
▁costum	-1490
▁Fenster	-1491
ee	-1492
ht	-1493
ment	-1494
ored	-1495
▁Met	-1496
▁Sur	-1497
▁Weg	-1498
▁wer	-1499
▁gelb	-1500
▁stair	-1501
▁wirft	-1502
▁Frisbee	-1503
ots	-1504
▁bal	-1505
artet	-1506
▁essen	-1507
▁sleep	-1508
▁grauen	-1509
▁colorful	-1510
auer	-1511
▁app	-1512
▁cle	-1513
▁very	-1514
▁Regen	-1515
lo	-1516
braun	-1517
uchen	-1518
▁Hose	-1519
▁Some	-1520
▁ride	-1521
▁sehr	-1522
▁trying	-1523
▁Mikrofon	-1524
▁gekleidete	-1525
▁Sonnenbrille	-1526
raw	-1527
vers	-1528
▁Eis	-1529
▁isst	-1530
▁floor	-1531
ountain	-1532
▁darauf	-1533
▁Kindern	-1534
▁covered	-1535
pr	-1536
urn	-1537
pack	-1538
▁gen	-1539
▁ice	-1540
▁Sport	-1541
▁wartet	-1542
arb	-1543
auft	-1544
▁son	-1545
anzug	-1546
unden	-1547
▁Trep	-1548
▁trees	-1549
▁shirts	-1550
dd	-1551
▁Be	-1552
▁Fre	-1553
▁Rei	-1554
▁cap	-1555
▁body	-1556
▁book	-1557
▁Zusch	-1558
▁truck	-1559
▁making	-1560
ri	-1561
▁cell	-1562
▁inside	-1563
▁laying	-1564
▁kitchen	-1565
▁versamm	-1566
▁posieren	-1567
gest	-1568
kind	-1569
chtet	-1570
▁river	-1571
▁Blumen	-1572
sh	-1573
aft	-1574
omm	-1575
▁big	-1576
örper	-1577
▁Zeit	-1578
becken	-1579
▁metal	-1580
▁compet	-1581
▁grassy	-1582
▁enjoying	-1583
▁schwarzem	-1584
▁motorcycle	-1585
hen	-1586
stück	-1587
▁Haus	-1588
▁gril	-1589
▁Viele	-1590
ullover	-1591
▁blauer	-1592
▁Männern	-1593
▁Bä	-1594
ager	-1595
ient	-1596
▁new	-1597
▁Raum	-1598
▁cart	-1599
▁Child	-1600
▁Fluss	-1601
▁Stuhl	-1602
▁springen	-1603
man	-1604
ject	-1605
▁lad	-1606
▁pie	-1607
ender	-1608
igare	-1609
immer	-1610
schirm	-1611
▁Gegen	-1612
▁Hosen	-1613
▁Poliz	-1614
▁beleb	-1615
▁rotem	-1616
▁instrument	-1617
tte	-1618
▁ev	-1619
asche	-1620
▁Snow	-1621
▁they	-1622
▁clothes	-1623
ium	-1624
▁zur	-1625
itten	-1626
▁Fünf	-1627
▁mach	-1628
▁sell	-1629
▁skat	-1630
▁Hügel	-1631
▁genie	-1632
▁laugh	-1633
ften	-1634
zeit	-1635
▁Wei	-1636
ooking	-1637
▁brick	-1638
▁Schutz	-1639
▁gekleideter	-1640
hä	-1641
ym	-1642
aves	-1643
▁Ver	-1644
▁all	-1645
▁fis	-1646
▁pra	-1647
▁tan	-1648
iegen	-1649
▁cour	-1650
▁Stock	-1651
▁board	-1652
▁Metall	-1653
▁painting	-1654
▁schwarze	-1655
ahl	-1656
▁Her	-1657
▁bed	-1658
▁cre	-1659
▁rep	-1660
▁line	-1661
▁schlä	-1662
▁voller	-1663
▁befindet	-1664
ckt	-1665
▁Ob	-1666
▁bat	-1667
▁wave	-1668
▁Rennen	-1669
▁Shorts	-1670
igarette	-1671
▁schläft	-1672
▁Pullover	-1673
▁bereitet	-1674
hnt	-1675
▁fe	-1676
ller	-1677
▁flag	-1678
▁hats	-1679
▁lake	-1680
▁schl	-1681
▁Rucks	-1682
▁alter	-1683
▁weiße	-1684
▁Schild	-1685
▁betrachtet	-1686
▁Bauarbeiter	-1687
ond	-1688
▁Bus	-1689
▁sub	-1690
lichen	-1691
licher	-1692
▁light	-1693
▁takes	-1694
▁tanzen	-1695
▁backpack	-1696
ac	-1697
eid	-1698
▁Br	-1699
scht	-1700
wand	-1701
▁bre	-1702
▁Buch	-1703
▁roter	-1704
▁warten	-1705
▁Bet	-1706
▁Kar	-1707
▁hän	-1708
▁pus	-1709
iegel	-1710
weißer	-1711
▁Anzug	-1712
▁umbrella	-1713
▁zw	-1714
▁Ski	-1715
▁hel	-1716
▁whe	-1717
utter	-1718
▁reitet	-1719
ho	-1720
sk	-1721
iew	-1722
▁so	-1723
hers	-1724
▁art	-1725
▁kar	-1726
▁Five	-1727
▁beard	-1728
▁schne	-1729
▁dunkel	-1730
ib	-1731
ny	-1732
hal	-1733
lam	-1734
pla	-1735
äss	-1736
uhen	-1737
utzt	-1738
▁was	-1739
ellen	-1740
▁Seil	-1741
▁brid	-1742
▁Leuten	-1743
sc	-1744
▁Zug	-1745
▁fest	-1746
▁hard	-1747
▁step	-1748
▁Markt	-1749
▁going	-1750
▁paper	-1751
▁überqu	-1752
fe	-1753
ird	-1754
▁af	-1755
▁em	-1756
▁Gro	-1757
▁Pro	-1758
▁cor	-1759
▁ele	-1760
▁sil	-1761
▁oder	-1762
▁viel	-1763
▁paint	-1764
▁ready	-1765
▁blonde	-1766
▁surround	-1767
rän	-1768
▁Renn	-1769
▁Rück	-1770
▁fall	-1771
▁stud	-1772
körper	-1773
schaft	-1774
▁Welle	-1775
▁snowy	-1776
▁stone	-1777
▁Kleinkind	-1778
▁Radfahrer	-1779
igt	-1780
▁gi	-1781
band	-1782
ette	-1783
ogen	-1784
▁gold	-1785
▁paar	-1786
achtet	-1787
▁langen	-1788
edeckten	-1789
ys	-1790
phon	-1791
▁See	-1792
äufer	-1793
▁Trik	-1794
▁full	-1795
▁Asiat	-1796
▁Bluse	-1797
▁class	-1798
▁cellphone	-1799
▁miteinander	-1800
ellt	-1801
less	-1802
▁Wes	-1803
rücke	-1804
änger	-1805
▁above	-1806
▁herunter	-1807
Bahn	-1808
ecke	-1809
fall	-1810
▁Eink	-1811
▁onto	-1812
▁dance	-1813
▁ihnen	-1814
▁piece	-1815
▁tanzt	-1816
▁Arbeit	-1817
▁others	-1818
ope	-1819
ult	-1820
vel	-1821
ding	-1822
▁box	-1823
aukel	-1824
reibt	-1825
▁Schl	-1826
▁ander	-1827
▁house	-1828
▁crowded	-1829
▁Oberkörper	-1830
ax	-1831
ebt	-1832
bahn	-1833
ving	-1834
▁ger	-1835
ersch	-1836
▁Zaun	-1837
▁drum	-1838
altung	-1839
▁zwischen	-1840
ane	-1841
ief	-1842
▁Pap	-1843
▁pad	-1844
▁Land	-1845
▁swim	-1846
ierten	-1847
▁ihrer	-1848
atshirt	-1849
▁Gewäss	-1850
▁bridge	-1851
▁subway	-1852
▁worker	-1853
▁towards	-1854
▁Children	-1855
ail	-1856
ops	-1857
▁ha	-1858
▁Ger	-1859
▁Tra	-1860
▁lot	-1861
▁buck	-1862
▁umge	-1863
▁zieht	-1864
▁schneeb	-1865
br	-1866
ini	-1867
iend	-1868
▁pole	-1869
▁gesch	-1870
▁hanging	-1871
▁outdoors	-1872
▁shopping	-1873
▁En	-1874
aren	-1875
ists	-1876
▁Aus	-1877
▁alt	-1878
▁gle	-1879
ostüm	-1880
▁Schn	-1881
▁pull	-1882
▁rain	-1883
▁Küche	-1884
▁photo	-1885
▁adults	-1886
▁sweater	-1887
▁fountain	-1888
▁sleeping	-1889
▁Schwimmbecken	-1890
ohn	-1891
oon	-1892
üst	-1893
room	-1894
▁ind	-1895
▁leap	-1896
▁many	-1897
▁oben	-1898
▁Beton	-1899
▁Rucksack	-1900
ook	-1901
ämp	-1902
▁Ka	-1903
ents	-1904
▁Gem	-1905
▁kne	-1906
▁öff	-1907
eidet	-1908
▁Many	-1909
▁gear	-1910
▁Famil	-1911
▁beside	-1912
ets	-1913
▁Ro	-1914
▁ad	-1915
ated	-1916
▁Ras	-1917
▁Rol	-1918
▁gym	-1919
▁vom	-1920
▁tank	-1921
▁Bäumen	-1922
▁smiles	-1923
▁stairs	-1924
▁drinking	-1925
▁uniforms	-1926
▁gestreiften	-1927
app	-1928
▁Bü	-1929
amen	-1930
▁Get	-1931
▁Mit	-1932
▁does	-1933
▁door	-1934
▁spaz	-1935
▁Handy	-1936
aschine	-1937
▁fishing	-1938
▁schiebt	-1939
▁gathered	-1940
▁beobachtet	-1941
▁surrounded	-1942
co	-1943
uz	-1944
deo	-1945
▁Or	-1946
▁kü	-1947
ungs	-1948
▁Bla	-1949
▁ski	-1950
enager	-1951
▁Mütze	-1952
▁zusch	-1953
▁Treppe	-1954
▁prepare	-1955
▁schwimmt	-1956
▁preparing	-1957
ats	-1958
ime	-1959
uts	-1960
eine	-1961
mann	-1962
▁Afr	-1963
▁Out	-1964
▁gem	-1965
ables	-1966
athon	-1967
chten	-1968
stler	-1969
▁Bade	-1970
▁lang	-1971
▁todd	-1972
gruppe	-1973
▁event	-1974
▁wheel	-1975
▁forest	-1976
▁friend	-1977
▁werden	-1978
▁colored	-1979
▁convers	-1980
▁photogra	-1981
▁verkauft	-1982
▁Kunststück	-1983
▁Um	-1984
asse	-1985
auti	-1986
udes	-1987
Spiel	-1988
▁guys	-1989
▁rope	-1990
▁lehnt	-1991
autiful	-1992
▁Sprung	-1993
me	-1994
feld	-1995
gang	-1996
▁cra	-1997
▁dav	-1998
▁Autos	-1999
▁Schul	-2000
▁pract	-2001
▁mitten	-2002
▁schneidet	-2003
ash	-2004
wes	-2005
▁cr	-2006
▁da	-2007
olin	-2008
eigen	-2009
unnen	-2010
▁chas	-2011
▁kämp	-2012
▁poin	-2013
▁star	-2014
▁view	-2015
▁famil	-2016
haarige	-2017
▁trinkt	-2018
▁machine	-2019
▁selling	-2020
ise	-2021
üll	-2022
ings	-2023
▁pre	-2024
▁tro	-2025
▁Fels	-2026
▁form	-2027
▁make	-2028
▁malt	-2029
▁sonn	-2030
▁teil	-2031
▁hockey	-2032
▁racing	-2033
▁Einkauf	-2034
▁flowers	-2035
itz	-2036
urb	-2037
▁ges	-2038
▁jog	-2039
▁Comp	-2040
▁auss	-2041
▁ramp	-2042
utsche	-2043
▁offic	-2044
▁rocks	-2045
▁Feuerw	-2046
▁Händen	-2047
▁family	-2048
farbener	-2049
▁costume	-2050
▁Geschäft	-2051
▁Gewässer	-2052
▁beautiful	-2053
arn	-2054
fts	-2055
kor	-2056
onz	-2057
uge	-2058
iter	-2059
äudes	-2060
▁vest	-2061
yclist	-2062
▁nimmt	-2063
▁phone	-2064
▁schla	-2065
▁slide	-2066
▁belebten	-2067
des	-2068
fro	-2069
ken	-2070
ric	-2071
▁Ha	-2072
▁Vor	-2073
▁equ	-2074
▁hit	-2075
▁Bahn	-2076
▁Schü	-2077
▁blow	-2078
▁kiss	-2079
▁trail	-2080
▁Brücke	-2081
▁Geträn	-2082
▁object	-2083
▁Familie	-2084
▁toddler	-2085
▁umgeben	-2086
▁spazieren	-2087
off	-2088
sel	-2089
unn	-2090
anst	-2091
erin	-2092
iges	-2093
ommt	-2094
▁Tor	-2095
▁ser	-2096
ittel	-2097
▁arms	-2098
zimmer	-2099
▁hängt	-2100
▁sunny	-2101
▁woods	-2102
▁leaning	-2103
▁putting	-2104
uff	-2105
rüst	-2106
läche	-2107
▁Verk	-2108
▁frei	-2109
▁steps	-2110
otograf	-2111
▁Mutter	-2112
▁Schlag	-2113
▁police	-2114
▁blicken	-2115
▁kämpfen	-2116
sm	-2117
orn	-2118
ugg	-2119
bank	-2120
häut	-2121
ikum	-2122
▁num	-2123
▁lila	-2124
▁rail	-2125
▁take	-2126
▁haben	-2127
rüstung	-2128
ublikum	-2129
▁corner	-2130
▁fliegt	-2131
▁großer	-2132
▁hinauf	-2133
▁lachen	-2134
▁schlägt	-2135
▁sonnigen	-2136
▁throwing	-2137
▁versammelt	-2138
▁schneebedeckten	-2139
ofa	-2140
tem	-2141
änn	-2142
▁Ty	-2143
schw	-2144
▁Pla	-2145
▁com	-2146
▁Flag	-2147
▁Hoch	-2148
▁bird	-2149
▁bott	-2150
▁hebt	-2151
▁männ	-2152
achten	-2153
▁Rasen	-2154
▁Seite	-2155
▁drink	-2156
▁glass	-2157
▁offen	-2158
▁Cowboy	-2159
▁fangen	-2160
▁parade	-2161
▁telefon	-2162
▁Publikum	-2163
▁graffiti	-2164
▁Spielplatz	-2165
▁playground	-2166
ute	-2167
▁ey	-2168
aden	-2169
aten	-2170
▁Par	-2171
▁cam	-2172
▁rau	-2173
ieden	-2174
steig	-2175
ummer	-2176
▁four	-2177
lassen	-2178
▁check	-2179
ünstler	-2180
▁bunten	-2181
▁gerade	-2182
anstaltung	-2183
eep	-2184
ßes	-2185
ives	-2186
▁fil	-2187
▁lin	-2188
ching	-2189
▁stro	-2190
ipment	-2191
▁poses	-2192
▁Rücken	-2193
▁laughing	-2194
▁asiatische	-2195
erb	-2196
out	-2197
ral	-2198
blau	-2199
hair	-2200
lead	-2201
otos	-2202
rete	-2203
▁beg	-2204
▁pat	-2205
▁sky	-2206
attoo	-2207
iting	-2208
ühren	-2209
▁away	-2210
▁vend	-2211
▁court	-2212
ichtung	-2213
▁chairs	-2214
▁jemand	-2215
▁ladies	-2216
▁Schwarz	-2217
olleyball	-2218
▁concrete	-2219
▁Erwachsene	-2220
ace	-2221
arf	-2222
top	-2223
eget	-2224
iker	-2225
▁Kre	-2226
▁padd	-2227
dition	-2228
▁after	-2229
▁balan	-2230
▁fruit	-2231
▁plaid	-2232
▁setting	-2233
▁Gebäudes	-2234
▁computer	-2235
▁equipment	-2236
▁volleyball	-2237
dt	-2238
ül	-2239
ches	-2240
eint	-2241
raut	-2242
raße	-2243
ween	-2244
▁geb	-2245
emden	-2246
▁dock	-2247
▁like	-2248
entlem	-2249
▁party	-2250
▁works	-2251
▁statue	-2252
▁between	-2253
hne	-2254
ids	-2255
ula	-2256
▁Kr	-2257
ängt	-2258
ügen	-2259
▁squ	-2260
ensch	-2261
immel	-2262
ublic	-2263
ühlen	-2264
▁Pool	-2265
▁ange	-2266
▁Kampf	-2267
▁Wagen	-2268
▁asian	-2269
▁couch	-2270
▁inter	-2271
▁Wander	-2272
▁public	-2273
▁winter	-2274
▁African	-2275
▁cooking	-2276
▁Geländer	-2277
▁Teenager	-2278
▁Zuschauer	-2279
▁telefoniert	-2280
tr	-2281
tes	-2282
öpf	-2283
ampe	-2284
lage	-2285
▁Che	-2286
▁Hof	-2287
▁Kan	-2288
▁Mar	-2289
inger	-2290
unnel	-2291
▁dist	-2292
▁pick	-2293
▁pose	-2294
▁tall	-2295
▁yard	-2296
▁Platz	-2297
▁bikes	-2298
▁hohen	-2299
▁veget	-2300
▁Himmel	-2301
▁Jemand	-2302
▁Roller	-2303
▁Surfer	-2304
▁kurzen	-2305
farbenem	-2306
▁cutting	-2307
▁genießt	-2308
▁befinden	-2309
wn	-2310
▁gr	-2311
eten	-2312
ival	-2313
▁aud	-2314
cture	-2315
iding	-2316
stein	-2317
untry	-2318
ycles	-2319
▁Bier	-2320
▁fish	-2321
▁have	-2322
isches	-2323
weißen	-2324
▁Reihe	-2325
▁Shirt	-2326
▁shore	-2327
▁Winter	-2328
▁vielen	-2329
▁Zeitung	-2330
▁rosafarbenen	-2331
ges	-2332
▁ed	-2333
▁gl	-2334
▁lo	-2335
aged	-2336
jekt	-2337
ocks	-2338
▁Bad	-2339
▁leg	-2340
▁pit	-2341
▁smo	-2342
▁wre	-2343
assen	-2344
stuhl	-2345
zogen	-2346
▁rote	-2347
▁Fisch	-2348
▁Stück	-2349
▁Papier	-2350
▁cowboy	-2351
▁displa	-2352
▁nachts	-2353
geschäft	-2354
▁Schutzh	-2355
▁anderer	-2356
▁practic	-2357
▁pushing	-2358
▁someone	-2359
▁Graffiti	-2360
▁Schaukel	-2361
▁pictures	-2362
▁instruments	-2363
▁hü	-2364
ests	-2365
ious	-2366
ters	-2367
▁Sie	-2368
▁ear	-2369
▁hot	-2370
brett	-2371
eller	-2372
ience	-2373
tform	-2374
▁Amer	-2375
▁Dach	-2376
▁alte	-2377
▁cont	-2378
▁guck	-2379
▁land	-2380
▁schm	-2381
▁short	-2382
▁Einige	-2383
▁Hemden	-2384
▁several	-2385
▁verschieden	-2386
ems	-2387
ält	-2388
▁Ab	-2389
alen	-2390
ehic	-2391
haus	-2392
stre	-2393
wing	-2394
▁Ind	-2395
▁cup	-2396
jacke	-2397
ugend	-2398
▁Bart	-2399
▁Gemü	-2400
▁Hals	-2401
▁Sold	-2402
▁stop	-2403
▁vier	-2404
▁Leben	-2405
▁cliff	-2406
▁skirt	-2407
▁Freund	-2408
▁Hockey	-2409
▁Trikot	-2410
▁flower	-2411
▁freiem	-2412
▁listen	-2413
▁number	-2414
▁Spieler	-2415
▁dunklen	-2416
▁gentlem	-2417
▁station	-2418
▁verschne	-2419
▁tradition	-2420
▁snowboarder	-2421
bl	-2422
alm	-2423
emp	-2424
hed	-2425
ins	-2426
ven	-2427
▁Cl	-2428
▁Girl	-2429
▁flip	-2430
bedeck	-2431
▁Hände	-2432
▁grill	-2433
▁tritt	-2434
▁vehic	-2435
▁Tasche	-2436
▁einige	-2437
▁grünem	-2438
▁midair	-2439
▁bereiten	-2440
▁Feuerwehr	-2441
▁nebeneinander	-2442
olf	-2443
ser	-2444
ste	-2445
fest	-2446
urch	-2447
▁ihn	-2448
anten	-2449
▁bubb	-2450
▁repar	-2451
brauner	-2452
▁Little	-2453
▁Outfit	-2454
▁Schirm	-2455
▁ü	-2456
▁wr	-2457
ians	-2458
▁apr	-2459
▁gef	-2460
▁hug	-2461
ammer	-2462
ehmen	-2463
ining	-2464
markt	-2465
▁Tanz	-2466
▁Wett	-2467
▁anim	-2468
▁bags	-2469
▁beer	-2470
▁home	-2471
▁mehr	-2472
▁scen	-2473
▁tent	-2474
▁Group	-2475
▁Women	-2476
▁alten	-2477
▁Jugend	-2478
▁benutzt	-2479
entlichen	-2480
▁fotograf	-2481
▁buildings	-2482
▁Snowboarder	-2483
cl	-2484
afe	-2485
änd	-2486
▁Ak	-2487
atte	-2488
ctor	-2489
imer	-2490
keit	-2491
werk	-2492
▁Bar	-2493
▁Tür	-2494
▁ang	-2495
▁Glas	-2496
▁Mund	-2497
▁Obst	-2498
▁Sofa	-2499
▁edge	-2500
▁happ	-2501
▁ries	-2502
▁schö	-2503
rädern	-2504
▁lacht	-2505
▁shoes	-2506
▁Mensch	-2507
▁leaves	-2508
haariger	-2509
▁blondes	-2510
▁driving	-2511
▁Kopfbedeck	-2512
▁Fußballspieler	-2513
chs	-2514
etz	-2515
mel	-2516
set	-2517
ärt	-2518
▁Ol	-2519
▁vi	-2520
port	-2521
tert	-2522
▁dre	-2523
▁fre	-2524
auern	-2525
ersey	-2526
iolet	-2527
▁Dies	-2528
▁Rock	-2529
ehende	-2530
▁Blick	-2531
▁Decke	-2532
▁Grill	-2533
▁Mitte	-2534
▁fängt	-2535
▁reach	-2536
▁vests	-2537
▁Garten	-2538
▁einigen	-2539
▁friends	-2540
▁distance	-2541
▁Instrument	-2542
▁überqueren	-2543
aks	-2544
dem	-2545
ogg	-2546
ron	-2547
ugt	-2548
ädt	-2549
▁Sm	-2550
stic	-2551
▁inf	-2552
eifen	-2553
iking	-2554
▁Skat	-2555
▁Surf	-2556
▁Menge	-2557
▁Schla	-2558
▁Schür	-2559
▁blank	-2560
schwarz	-2561
▁Ziegel	-2562
▁jersey	-2563
▁Lebensm	-2564
▁plastic	-2565
▁crossing	-2566
hü	-2567
ery	-2568
ony	-2569
▁fix	-2570
acken	-2571
elmen	-2572
▁Bett	-2573
▁Pfad	-2574
▁bull	-2575
▁nack	-2576
▁pile	-2577
▁teen	-2578
phones	-2579
rennen	-2580
▁Nacht	-2581
▁Schal	-2582
▁elect	-2583
▁rider	-2584
▁splas	-2585
▁Gemüse	-2586
▁horses	-2587
▁school	-2588
▁Computer	-2589
▁mountains	-2590
▁sweatshirt	-2591
pl	-2592
ps	-2593
ahe	-2594
oph	-2595
ical	-2596
sent	-2597
▁Con	-2598
▁Typ	-2599
▁che	-2600
immen	-2601
▁Part	-2602
▁Ufer	-2603
▁Zelt	-2604
▁both	-2605
▁grei	-2606
▁spre	-2607
aschen	-2608
▁Fotos	-2609
▁Sonne	-2610
▁cream	-2611
▁davon	-2612
ostümen	-2613
▁Geschä	-2614
▁Stufen	-2615
▁attire	-2616
▁flying	-2617
▁großes	-2618
▁treten	-2619
▁concert	-2620
▁Zigarette	-2621
▁Volleyball	-2622
▁beobachten	-2623
▁practicing	-2624
aub	-2625
ned	-2626
ört	-2627
▁ir	-2628
▁sn	-2629
ally	-2630
cord	-2631
hemd	-2632
hund	-2633
itzt	-2634
ogel	-2635
rift	-2636
weiß	-2637
▁ber	-2638
▁cro	-2639
▁glo	-2640
▁ruh	-2641
innen	-2642
▁Stre	-2643
▁cars	-2644
▁rela	-2645
▁time	-2646
fläche	-2647
onzert	-2648
▁match	-2649
▁newsp	-2650
▁reads	-2651
▁surft	-2652
▁Stange	-2653
▁appear	-2654
▁liegen	-2655
▁roller	-2656
▁parking	-2657
▁showing	-2658
▁cigarette	-2659
▁shirtless	-2660
oß	-2661
hut	-2662
ram	-2663
sam	-2664
▁qu	-2665
▁ath	-2666
▁cur	-2667
▁mud	-2668
▁net	-2669
ators	-2670
einen	-2671
kampf	-2672
ommen	-2673
▁goal	-2674
▁gymn	-2675
▁nahe	-2676
▁stru	-2677
▁Braut	-2678
▁Rampe	-2679
▁Unter	-2680
▁apron	-2681
▁cheer	-2682
▁kniet	-2683
▁scarf	-2684
▁wrest	-2685
yclists	-2686
▁bereit	-2687
▁gleich	-2688
▁mother	-2689
▁raucht	-2690
▁surfer	-2691
▁vendor	-2692
▁weißes	-2693
▁country	-2694
▁pulling	-2695
▁trinken	-2696
▁cleaning	-2697
▁swinging	-2698
▁Schlagzeug	-2699
▁Tennisball	-2700
▁Zuschauern	-2701
▁Co	-2702
ales	-2703
erne	-2704
pfen	-2705
ugen	-2706
▁Alt	-2707
▁Art	-2708
▁Tau	-2709
▁bel	-2710
▁dig	-2711
▁few	-2712
läger	-2713
sport	-2714
▁Fußg	-2715
▁amer	-2716
▁bowl	-2717
▁left	-2718
▁mart	-2719
▁mitt	-2720
▁roof	-2721
utscht	-2722
▁Mauer	-2723
▁Weihn	-2724
▁lässt	-2725
▁schüt	-2726
▁shoul	-2727
ighting	-2728
▁braune	-2729
▁führen	-2730
▁display	-2731
▁vehicle	-2732
▁American	-2733
▁performs	-2734
▁Skifahrer	-2735
▁structure	-2736
▁betrachten	-2737
▁verschneiten	-2738
bar	-2739
ush	-2740
▁nä	-2741
bild	-2742
lamm	-2743
▁Kap	-2744
▁hil	-2745
eling	-2746
ights	-2747
ormen	-2748
urban	-2749
▁bare	-2750
▁gibt	-2751
▁just	-2752
iental	-2753
▁Vogel	-2754
▁break	-2755
▁swims	-2756
▁waves	-2757
▁farben	-2758
▁giving	-2759
▁tattoo	-2760
▁Kletter	-2761
▁oriental	-2762
▁Snowboard	-2763
▁surfboard	-2764
▁conversation	-2765
▁öffentlichen	-2766
▁Kopfbedeckung	-2767
▁Baseballspieler	-2768
ely	-2769
ved	-2770
▁no	-2771
▁we	-2772
afet	-2773
ause	-2774
eder	-2775
land	-2776
▁Bik	-2777
▁bew	-2778
achts	-2779
uring	-2780
▁Geld	-2781
▁draw	-2782
blauen	-2783
▁Ferne	-2784
▁Trick	-2785
▁Weste	-2786
▁blaue	-2787
▁drums	-2788
▁städt	-2789
▁Mannes	-2790
▁toward	-2791
▁violin	-2792
▁waters	-2793
▁Schürze	-2794
▁carries	-2795
▁jackets	-2796
▁kicking	-2797
▁orangen	-2798
▁Fahrzeug	-2799
▁karierten	-2800
▁Gegenstand	-2801
rt	-2802
agt	-2803
ape	-2804
▁El	-2805
▁wo	-2806
ivid	-2807
üllt	-2808
▁Boy	-2809
▁New	-2810
▁afr	-2811
▁wet	-2812
ading	-2813
allow	-2814
▁Kids	-2815
▁Roll	-2816
▁Tour	-2817
▁arts	-2818
▁dies	-2819
▁empt	-2820
▁meal	-2821
▁unbe	-2822
▁voll	-2823
straße	-2824
▁leaps	-2825
▁attemp	-2826
▁bucket	-2827
amerikan	-2828
▁Handsch	-2829
▁Someone	-2830
▁bathing	-2831
▁martial	-2832
▁painted	-2833
▁smoking	-2834
untergang	-2835
▁Wanderer	-2836
▁audience	-2837
▁prepares	-2838
▁farbenfro	-2839
▁asiatischer	-2840
▁skateboarder	-2841
▁Sonnenuntergang	-2842
nt	-2843
hof	-2844
its	-2845
ott	-2846
uhe	-2847
eibe	-2848
uder	-2849
ußer	-2850
▁med	-2851
▁rol	-2852
iehen	-2853
▁coff	-2854
▁gets	-2855
▁gogg	-2856
▁sold	-2857
erlead	-2858
fahren	-2859
stelle	-2860
▁Damen	-2861
▁alley	-2862
▁außer	-2863
▁biker	-2864
▁bunch	-2865
▁lying	-2866
▁relax	-2867
▁rocky	-2868
ctators	-2869
iformen	-2870
▁Flagge	-2871
▁basket	-2872
▁shovel	-2873
▁railing	-2874
▁Einkaufs	-2875
▁Gehsteig	-2876
▁einander	-2877
ausrüstung	-2878
▁Cheerlead	-2879
▁newspaper	-2880
▁unterhält	-2881
▁vegetables	-2882
amp	-2883
ift	-2884
ous	-2885
spr	-2886
▁pe	-2887
▁pr	-2888
halb	-2889
▁Kaj	-2890
▁fun	-2891
▁geh	-2892
▁gew	-2893
▁kay	-2894
itzen	-2895
änzer	-2896
▁lawn	-2897
▁legt	-2898
▁mask	-2899
▁what	-2900
ession	-2901
▁Armen	-2902
▁Augen	-2903
▁denen	-2904
▁empty	-2905
▁items	-2906
▁sweep	-2907
▁which	-2908
Spieler	-2909
▁coffee	-2910
▁gemein	-2911
▁parked	-2912
▁stellt	-2913
▁violet	-2914
▁Klassen	-2915
▁Rutsche	-2916
▁Uniform	-2917
▁blanket	-2918
▁bowling	-2919
▁chasing	-2920
▁goggles	-2921
▁mittler	-2922
▁Hochzeit	-2923
▁Richtung	-2924
▁costumes	-2925
▁gathering	-2926
▁dunkelhäut	-2927
lee	-2928
▁ko	-2929
apan	-2930
head	-2931
▁fla	-2932
▁mon	-2933
▁tur	-2934
atten	-2935
mauer	-2936
▁bärt	-2937
▁wand	-2938
edding	-2939
▁Diese	-2940
▁Leine	-2941
▁hilft	-2942
▁where	-2943
▁Läufer	-2944
▁Parade	-2945
▁climbs	-2946
▁filled	-2947
▁gelbem	-2948
▁gelber	-2949
▁heraus	-2950
▁hinten	-2951
▁Brunnen	-2952
▁rutscht	-2953
▁surfing	-2954
▁Polizist	-2955
▁fighting	-2956
▁genießen	-2957
▁versuchen	-2958
▁Weihnachts	-2959
▁photograph	-2960
▁competition	-2961
▁Veranstaltung	-2962
hak	-2963
▁Kn	-2964
ippe	-2965
isen	-2966
pher	-2967
▁Bow	-2968
▁Spe	-2969
▁cla	-2970
▁hol	-2971
▁pot	-2972
▁ref	-2973
▁weg	-2974
afety	-2975
▁Back	-2976
▁Schm	-2977
▁dire	-2978
▁weit	-2979
igkeit	-2980
▁flags	-2981
▁overl	-2982
▁before	-2983
▁cement	-2984
▁drinks	-2985
▁durchs	-2986
▁safety	-2987
▁Musiker	-2988
▁blonder	-2989
▁dresses	-2990
▁helmets	-2991
▁streets	-2992
▁platform	-2993
▁classroom	-2994
▁listening	-2995
öl	-2996
int	-2997
irc	-2998
oop	-2999
oth	-3000
ual	-3001
upp	-3002
ages	-3003
cers	-3004
geln	-3005
inkt	-3006
sten	-3007
▁Dre	-3008
▁Ker	-3009
▁lit	-3010
▁mir	-3011
arden	-3012
▁Herr	-3013
▁bath	-3014
▁best	-3015
▁cake	-3016
▁kurz	-3017
▁rais	-3018
▁this	-3019
ugzeug	-3020
▁kommt	-3021
▁Alters	-3022
▁Wellen	-3023
▁greift	-3024
▁ladder	-3025
▁seated	-3026
▁Getränk	-3027
▁Schüler	-3028
▁Wassers	-3029
▁kissing	-3030
▁sliding	-3031
▁wedding	-3032
▁Maschine	-3033
▁zuschaut	-3034
▁Fußgänger	-3035
▁mittleren	-3036
▁Kampfsport	-3037
▁skateboarding	-3038
▁Motorradfahrer	-3039
ia	-3040
grü	-3041
hör	-3042
ume	-3043
▁Kl	-3044
▁Re	-3045
eige	-3046
▁Bre	-3047
cting	-3048
icket	-3049
ister	-3050
oline	-3051
▁disc	-3052
▁hood	-3053
▁huge	-3054
▁jagt	-3055
▁shot	-3056
▁sort	-3057
▁spra	-3058
▁Haare	-3059
▁mirro	-3060
▁rodeo	-3061
▁rotes	-3062
▁talks	-3063
gebäude	-3064
otorrad	-3065
schrift	-3066
▁Indian	-3067
▁Kostüm	-3068
▁Statue	-3069
▁golden	-3070
▁grüner	-3071
▁sports	-3072
▁Bowling	-3073
▁Stühlen	-3074
▁Telefon	-3075
▁balloon	-3076
▁counter	-3077
▁scheint	-3078
▁Kostümen	-3079
▁bicycles	-3080
▁electric	-3081
▁mehreren	-3082
▁pointing	-3083
▁unbefest	-3084
▁außerhalb	-3085
▁gemeinsam	-3086
▁männliche	-3087
▁überquert	-3088
▁versammeln	-3089
▁Lebensmittel	-3090
oe	-3091
Sch	-3092
ips	-3093
urf	-3094
urs	-3095
door	-3096
gend	-3097
park	-3098
▁bek	-3099
▁bem	-3100
▁but	-3101
▁mil	-3102
achen	-3103
anzen	-3104
itary	-3105
▁Rand	-3106
▁Work	-3107
▁York	-3108
▁coll	-3109
▁eyes	-3110
▁gele	-3111
▁rein	-3112
▁uses	-3113
ftball	-3114
▁Eimer	-3115
▁Handt	-3116
▁Laden	-3117
▁skier	-3118
▁Nummer	-3119
▁Westen	-3120
▁nehmen	-3121
▁zurück	-3122
▁blowing	-3123
▁mehrere	-3124
▁staring	-3125
▁Marathon	-3126
▁speaking	-3127
▁students	-3128
▁Geschäfts	-3129
▁gestreift	-3130
▁Polizisten	-3131
▁spectators	-3132
cts	-3133
ele	-3134
ese	-3135
gew	-3136
mas	-3137
orb	-3138
rag	-3139
umm	-3140
▁BM	-3141
bend	-3142
boot	-3143
führ	-3144
köpf	-3145
ural	-3146
▁Kat	-3147
▁gun	-3148
▁var	-3149
asser	-3150
axoph	-3151
boden	-3152
ctive	-3153
iness	-3154
▁Müll	-3155
▁Team	-3156
▁Turn	-3157
▁bald	-3158
▁chef	-3159
▁dass	-3160
▁neck	-3161
▁oper	-3162
▁scul	-3163
arbeit	-3164
▁Badeh	-3165
▁Kajak	-3166
▁Sechs	-3167
▁Vater	-3168
▁beide	-3169
▁guckt	-3170
▁reden	-3171
▁sings	-3172
▁suits	-3173
▁unten	-3174
▁viele	-3175
eyboard	-3176
▁Seifen	-3177
▁allein	-3178
▁mirror	-3179
▁Spiegel	-3180
▁individ	-3181
▁walkway	-3182
▁Geländem	-3183
▁Kleidern	-3184
▁bärtiger	-3185
▁sprechen	-3186
▁Mikrophon	-3187
▁Parkplatz	-3188
▁competing	-3189
aw	-3190
alb	-3191
amb	-3192
ows	-3193
rot	-3194
hand	-3195
ized	-3196
unch	-3197
vert	-3198
▁Mil	-3199
▁cat	-3200
▁opp	-3201
endes	-3202
endet	-3203
halle	-3204
ischt	-3205
▁Trom	-3206
▁barf	-3207
▁clos	-3208
▁desk	-3209
▁gras	-3210
▁mult	-3211
▁sled	-3212
▁verw	-3213
laster	-3214
▁Hüten	-3215
▁Rodeo	-3216
▁bride	-3217
▁close	-3218
▁enjoy	-3219
▁produ	-3220
▁shoot	-3221
▁crouch	-3222
▁garden	-3223
▁leeren	-3224
▁sunset	-3225
▁Konzert	-3226
▁blonden	-3227
▁females	-3228
▁Erwachsener	-3229
▁asiatischen	-3230
▁fotografiert	-3231
kar	-3232
vol	-3233
ates	-3234
entr	-3235
look	-3236
olgt	-3237
stik	-3238
▁Ess	-3239
▁Red	-3240
▁Six	-3241
▁log	-3242
▁tie	-3243
laden	-3244
ooter	-3245
ustom	-3246
äuden	-3247
▁Ende	-3248
▁Pass	-3249
▁lapt	-3250
▁life	-3251
▁tire	-3252
bereit	-3253
ending	-3254
liches	-3255
▁Party	-3256
▁beige	-3257
▁clown	-3258
▁gelbe	-3259
▁lesen	-3260
▁lined	-3261
▁waits	-3262
ehenden	-3263
▁Bergen	-3264
▁Leiter	-3265
▁animal	-3266
▁asleep	-3267
▁bikini	-3268
▁course	-3269
▁grauem	-3270
▁jungen	-3271
▁schauk	-3272
▁screen	-3273
▁werfen	-3274
▁Plastik	-3275
▁ausgest	-3276
▁skating	-3277
▁writing	-3278
▁klettern	-3279
▁Baustelle	-3280
▁Uniformen	-3281
▁gentleman	-3282
▁snowboard	-3283
▁unbefestig	-3284
dr	-3285
ön	-3286
ped	-3287
▁Al	-3288
aske	-3289
fern	-3290
ideo	-3291
lett	-3292
line	-3293
verk	-3294
▁Kir	-3295
▁Lap	-3296
▁Ohr	-3297
▁Rot	-3298
▁Tur	-3299
▁din	-3300
▁row	-3301
iffer	-3302
öcken	-3303
▁Balk	-3304
▁Weiß	-3305
▁Werk	-3306
▁Wohn	-3307
▁talk	-3308
▁weib	-3309
eichen	-3310
▁Waren	-3311
▁boots	-3312
▁entsp	-3313
▁nicht	-3314
▁scene	-3315
▁coming	-3316
▁nearby	-3317
▁schütt	-3318
▁bearded	-3319
▁bubbles	-3320
▁gymnast	-3321
▁zusieht	-3322
bewachsen	-3323
▁Gebäuden	-3324
▁Soldaten	-3325
▁marathon	-3326
▁riesigen	-3327
▁schreibt	-3328
▁schwingt	-3329
▁Badeanzug	-3330
▁Seifenbla	-3331
▁Surfbrett	-3332
▁zuschauen	-3333
▁Regenschirm	-3334
▁Construction	-3335
za	-3336
ary	-3337
ete	-3338
lin	-3339
▁ty	-3340
bike	-3341
yard	-3342
▁Anz	-3343
▁Bes	-3344
▁Fah	-3345
▁Fle	-3346
▁end	-3347
▁fen	-3348
▁lap	-3349
▁loc	-3350
ocken	-3351
▁Arme	-3352
▁Sohn	-3353
▁circ	-3354
▁exam	-3355
▁feet	-3356
▁garb	-3357
▁hole	-3358
▁pack	-3359
▁prof	-3360
▁site	-3361
▁turn	-3362
indern	-3363
▁place	-3364
▁umarm	-3365
▁Kunden	-3366
▁Tänzer	-3367
▁balanc	-3368
▁onlook	-3369
▁waving	-3370
▁nacktem	-3371
▁streckt	-3372
▁zusehen	-3373
▁Künstler	-3374
▁business	-3375
▁repariert	-3376
▁Schutzhelm	-3377
▁gestreiftem	-3378
▁overlooking	-3379
▁Geländemotorrad	-3380
bs	-3381
mä	-3382
ars	-3383
ily	-3384
▁So	-3385
bers	-3386
kten	-3387
lauf	-3388
lete	-3389
ower	-3390
rich	-3391
road	-3392
unks	-3393
▁cas	-3394
▁gre	-3395
▁mag	-3396
▁pav	-3397
stell	-3398
uppen	-3399
▁Blät	-3400
▁Fall	-3401
▁Korb	-3402
▁Last	-3403
▁deck	-3404
▁ohne	-3405
▁alone	-3406
▁happy	-3407
▁right	-3408
▁sculp	-3409
▁there	-3410
strecke	-3411
▁Schnau	-3412
▁artist	-3413
▁blaues	-3414
▁diving	-3415
▁fallen	-3416
▁fixing	-3417
▁gloves	-3418
▁office	-3419
▁runner	-3420
▁silver	-3421
▁umarmt	-3422
ifferent	-3423
▁Treppen	-3424
▁appears	-3425
▁falling	-3426
▁outfits	-3427
▁project	-3428
▁washing	-3429
▁younger	-3430
weatshirt	-3431
▁Badehose	-3432
▁lächelnd	-3433
▁Fahrrädern	-3434
▁Straßenecke	-3435
▁Straßenrand	-3436
▁grasbewachsen	-3437
öh	-3438
alf	-3439
eth	-3440
ged	-3441
ics	-3442
uzz	-3443
haki	-3444
otoc	-3445
ptur	-3446
rena	-3447
schn	-3448
ssel	-3449
stän	-3450
▁Bei	-3451
▁gut	-3452
icher	-3453
korde	-3454
öpfen	-3455
▁Büro	-3456
▁Fern	-3457
▁Lauf	-3458
▁Netz	-3459
▁Over	-3460
▁einz	-3461
▁foot	-3462
▁good	-3463
▁seen	-3464
ichtet	-3465
lasche	-3466
ulptur	-3467
▁Gesch	-3468
▁Pause	-3469
▁Stand	-3470
▁dirty	-3471
▁dreht	-3472
▁giant	-3473
▁grüne	-3474
▁skate	-3475
cordion	-3476
▁Kuchen	-3477
▁bedeck	-3478
▁chines	-3479
▁kaufen	-3480
▁skiing	-3481
otocross	-3482
▁Akkorde	-3483
▁discuss	-3484
▁helping	-3485
▁offenen	-3486
▁älteren	-3487
▁Felswand	-3488
▁kneeling	-3489
▁officers	-3490
▁accordion	-3491
▁different	-3492
▁musicians	-3493
▁onlookers	-3494
▁städtischen	-3495
cy	-3496
lü	-3497
dog	-3498
elf	-3499
ife	-3500
key	-3501
nah	-3502
oud	-3503
urg	-3504
uro	-3505
äum	-3506
▁Es	-3507
aler	-3508
annt	-3509
erra	-3510
ffic	-3511
foot	-3512
ickt	-3513
ießt	-3514
iste	-3515
ockt	-3516
orch	-3517
ried	-3518
tend	-3519
tent	-3520
test	-3521
ugby	-3522
▁Pfl	-3523
▁blo	-3524
▁cut	-3525
▁reg	-3526
▁wra	-3527
armen	-3528
irmen	-3529
issen	-3530
ktion	-3531
mütze	-3532
schaf	-3533
weste	-3534
▁Fell	-3535
▁Tier	-3536
▁hört	-3537
▁pier	-3538
▁same	-3539
istmas	-3540
mitten	-3541
olding	-3542
olored	-3543
üllten	-3544
▁Clown	-3545
▁canoe	-3546
▁chain	-3547
▁glück	-3548
▁touch	-3549
brunnen	-3550
führung	-3551
▁Baumst	-3552
▁Bikini	-3553
▁Jacken	-3554
▁Spring	-3555
▁bottle	-3556
▁desert	-3557
▁hiking	-3558
▁lights	-3559
▁starrt	-3560
▁unters	-3561
▁Kopfhör	-3562
▁Pferden	-3563
▁Trikots	-3564
▁Verkehr	-3565
▁officer	-3566
▁scooter	-3567
ikanische	-3568
▁Schreibt	-3569
▁Akkordeon	-3570
▁Sweatshirt	-3571
▁verkleidet	-3572
▁Fußballspiel	-3573
aß	-3574
kl	-3575
äm	-3576
üß	-3577
ced	-3578
del	-3579
epp	-3580
vor	-3581
wer	-3582
▁wä	-3583
▁yo	-3584
case	-3585
icip	-3586
iers	-3587
oons	-3588
tsch	-3589
▁Dra	-3590
▁ban	-3591
▁eng	-3592
▁mat	-3593
eilen	-3594
uster	-3595
▁Blau	-3596
▁Erde	-3597
▁Kaff	-3598
▁five	-3599
vertis	-3600
▁Angel	-3601
▁Wasch	-3602
▁among	-3603
▁daugh	-3604
▁heads	-3605
▁küsst	-3606
▁leash	-3607
▁obser	-3608
▁putzt	-3609
▁beiden	-3610
▁facing	-3611
▁father	-3612
▁swings	-3613
▁tunnel	-3614
maschine	-3615
▁Schlamm	-3616
▁Taschen	-3617
▁catches	-3618
▁digging	-3619
▁microsc	-3620
▁picking	-3621
▁various	-3622
▁Mountain	-3623
▁advertis	-3624
▁barefoot	-3625
▁beleucht	-3626
▁inmitten	-3627
▁particip	-3628
▁stroller	-3629
▁Schlitten	-3630
▁sculpture	-3631
▁umbrellas	-3632
▁Erwachsenen	-3633
▁Skateboarder	-3634
▁Fahrradfahrer	-3635
▁Klassenzimmer	-3636
▁Tennisspieler	-3637
▁orangefarbener	-3638
avy	-3639
bes	-3640
ble	-3641
ipe	-3642
kap	-3643
pft	-3644
rol	-3645
anne	-3646
ides	-3647
obil	-3648
raum	-3649
▁Dog	-3650
▁Ele	-3651
▁Kon	-3652
▁fäl	-3653
▁nap	-3654
▁not	-3655
chair	-3656
eiden	-3657
front	-3658
ichts	-3659
ieder	-3660
uddle	-3661
utzen	-3662
▁Bull	-3663
▁Kanu	-3664
▁Koch	-3665
▁Mitt	-3666
▁Spaß	-3667
▁Tank	-3668
▁Wind	-3669
▁deco	-3670
▁fast	-3671
▁link	-3672
▁meat	-3673
▁tool	-3674
▁toys	-3675
gebiet	-3676
gebung	-3677
reifen	-3678
▁Black	-3679
▁Leder	-3680
▁Schoß	-3681
▁cloud	-3682
▁makes	-3683
▁teach	-3684
▁teams	-3685
▁urban	-3686
▁Chines	-3687
▁church	-3688
▁custom	-3689
▁gelbes	-3690
▁irgend	-3691
▁repair	-3692
▁singen	-3693
▁sticks	-3694
▁trunks	-3695
indernis	-3696
▁Mikrosk	-3697
▁belebte	-3698
▁schmutz	-3699
▁traffic	-3700
▁Schatten	-3701
▁Schnauze	-3702
▁military	-3703
▁sweeping	-3704
▁splashing	-3705
▁verkaufen	-3706
▁Kinderwagen	-3707
▁Rennstrecke	-3708
▁Jugendlicher	-3709
St	-3710
th	-3711
yl	-3712
bra	-3713
hou	-3714
ibb	-3715
que	-3716
alon	-3717
emon	-3718
inis	-3719
itär	-3720
lung	-3721
ritt	-3722
uper	-3723
vice	-3724
▁Hot	-3725
▁Kai	-3726
▁Lab	-3727
▁cow	-3728
▁mix	-3729
gesch	-3730
▁Ecke	-3731
▁Loch	-3732
▁atop	-3733
▁foll	-3734
▁hall	-3735
▁legs	-3736
▁plan	-3737
▁pond	-3738
▁shad	-3739
▁tack	-3740
▁wild	-3741
unette	-3742
westen	-3743
▁Japan	-3744
▁leuch	-3745
▁plate	-3746
▁purse	-3747
▁stuff	-3748
▁tries	-3749
▁wears	-3750
braunen	-3751
▁Gegend	-3752
▁Gerüst	-3753
▁Haufen	-3754
▁Sänger	-3755
▁küssen	-3756
▁upside	-3757
▁zeigen	-3758
▁ziehen	-3759
fahrzeug	-3760
▁Arbeits	-3761
▁Overall	-3762
▁Flugzeug	-3763
▁balloons	-3764
▁relaxing	-3765
▁schaukelt	-3766
▁gekleidetes	-3767
▁hellbrauner	-3768
▁traditional	-3769
▁Schreibtisch	-3770
▁Seifenblasen	-3771
sse	-3772
öhe	-3773
▁Wh	-3774
Fahr	-3775
geht	-3776
iern	-3777
lers	-3778
lesc	-3779
ring	-3780
ätow	-3781
▁Gle	-3782
▁eat	-3783
▁fei	-3784
▁hei	-3785
▁hur	-3786
▁ped	-3787
ierte	-3788
inder	-3789
useum	-3790
▁Toch	-3791
▁cele	-3792
▁jugg	-3793
▁stra	-3794
▁warm	-3795
iefeln	-3796
ration	-3797
▁Krank	-3798
▁Small	-3799
▁Teich	-3800
▁clean	-3801
▁fällt	-3802
▁setzt	-3803
▁trans	-3804
farbene	-3805
telefon	-3806
▁Zimmer	-3807
▁collar	-3808
▁grünes	-3809
▁laptop	-3810
▁reiten	-3811
▁silber	-3812
▁tables	-3813
▁underw	-3814
pflaster	-3815
stellung	-3816
▁Fleisch	-3817
▁doorway	-3818
▁drawing	-3819
▁hugging	-3820
▁present	-3821
▁resting	-3822
▁shallow	-3823
▁Halsband	-3824
▁catching	-3825
▁schlagen	-3826
▁shoulder	-3827
▁Backstein	-3828
▁Hindernis	-3829
▁Lastwagen	-3830
▁Touristen	-3831
▁angezogen	-3832
▁gegenüber	-3833
▁schwimmen	-3834
▁weibliche	-3835
▁balanciert	-3836
▁Handschuhen	-3837
▁performance	-3838
▁pinkfarbenen	-3839
▁Einkaufswagen	-3840
▁gegeneinander	-3841
zä	-3842
bad	-3843
bor	-3844
eng	-3845
geh	-3846
red	-3847
rie	-3848
ube	-3849
▁Gu	-3850
aken	-3851
ares	-3852
atur	-3853
auto	-3854
ffen	-3855
itor	-3856
lymp	-3857
ongl	-3858
pped	-3859
werb	-3860
zaun	-3861
▁Caf	-3862
▁Kop	-3863
▁Lad	-3864
▁nat	-3865
▁ras	-3866
▁van	-3867
eding	-3868
führt	-3869
räder	-3870
weiße	-3871
äsche	-3872
▁Höhe	-3873
▁Kraw	-3874
▁bewe	-3875
▁cand	-3876
▁cold	-3877
▁deep	-3878
▁eins	-3879
▁lift	-3880
▁post	-3881
▁pupp	-3882
▁wund	-3883
gelben	-3884
leucht	-3885
lossen	-3886
▁Geige	-3887
▁Tramp	-3888
▁cloth	-3889
▁faces	-3890
▁hüpft	-3891
▁kocht	-3892
▁scaff	-3893
▁shows	-3894
▁signs	-3895
▁stunt	-3896
▁teeth	-3897
▁tramp	-3898
▁trash	-3899
▁video	-3900
anzügen	-3901
bereich	-3902
▁Hunden	-3903
▁Kirche	-3904
▁crying	-3905
▁hammer	-3906
▁Bereich	-3907
▁Feldweg	-3908
▁Freunde	-3909
▁Gelände	-3910
▁Tochter	-3911
▁Workers	-3912
▁dancers	-3913
▁jogging	-3914
▁leather	-3915
▁passing	-3916
▁brightly	-3917
▁daughter	-3918
▁jemandem	-3919
▁schwarzes	-3920
▁Aufschrift	-3921
▁attempting	-3922
▁microscope	-3923
▁profession	-3924
▁verschiedene	-3925
▁unbefestigten	-3926
▁dunkelhäutiger	-3927
gn	-3928
ays	-3929
bat	-3930
bst	-3931
err	-3932
irn	-3933
opp	-3934
äck	-3935
▁Zä	-3936
ders	-3937
hang	-3938
hese	-3939
korb	-3940
ones	-3941
team	-3942
udio	-3943
▁Kla	-3944
▁Nah	-3945
▁Sal	-3946
▁gep	-3947
▁how	-3948
▁sel	-3949
▁sto	-3950
ecken	-3951
fting	-3952
neath	-3953
nival	-3954
ängen	-3955
▁Hang	-3956
▁Hula	-3957
▁Mahl	-3958
▁Pick	-3959
▁Reit	-3960
▁brus	-3961
▁cafe	-3962
▁made	-3963
▁move	-3964
▁rack	-3965
▁stad	-3966
▁wets	-3967
blades	-3968
grünen	-3969
rillen	-3970
▁booth	-3971
▁fight	-3972
▁inspe	-3973
▁khaki	-3974
▁laund	-3975
▁redet	-3976
▁round	-3977
▁stret	-3978
strumen	-3979
▁Meeres	-3980
▁Skater	-3981
▁Steine	-3982
▁hellen	-3983
▁multic	-3984
▁plants	-3985
▁sewing	-3986
▁sleeps	-3987
▁steigt	-3988
▁tricks	-3989
▁leaping	-3990
▁teenage	-3991
▁wetsuit	-3992
▁Parkbank	-3993
▁Sandalen	-3994
▁Schaufen	-3995
▁carnival	-3996
strumenten	-3997
▁Mikroskop	-3998
▁bicyclist	-3999
▁erwachsen	-4000
▁wrestling	-4001
▁Fallschirm	-4002
▁Oberteilen	-4003
▁headphones	-4004
▁underneath	-4005
▁asiatisches	-4006
▁Springbrunnen	-4007
▁grasbewachsenen	-4008
gl	-4009
kw	-4010
adl	-4011
axi	-4012
bec	-4013
ilt	-4014
ino	-4015
nic	-4016
ory	-4017
pro	-4018
prü	-4019
une	-4020
ärm	-4021
▁Fü	-4022
▁Sä	-4023
▁sa	-4024
anda	-4025
ehrt	-4026
eier	-4027
icks	-4028
igem	-4029
oped	-4030
oren	-4031
oten	-4032
stad	-4033
uals	-4034
wich	-4035
ückt	-4036
üten	-4037
▁Chr	-4038
▁Old	-4039
▁jün	-4040
▁pet	-4041
▁rec	-4042
▁vis	-4043
aster	-4044
gehen	-4045
nahme	-4046
orfen	-4047
osten	-4048
▁Eing	-4049
▁Kapu	-4050
▁Tepp	-4051
▁Wüst	-4052
▁holt	-4053
▁hula	-4054
▁roll	-4055
▁shoe	-4056
▁skis	-4057
▁tour	-4058
▁verf	-4059
▁well	-4060
Shirts	-4061
▁Innen	-4062
▁Katze	-4063
▁Mobil	-4064
▁These	-4065
▁beugt	-4066
▁flies	-4067
▁kauft	-4068
▁stack	-4069
▁straw	-4070
▁winkt	-4071
ammlung	-4072
▁Dieser	-4073
▁Laptop	-4074
▁Pferde	-4075
▁chases	-4076
▁grocer	-4077
▁string	-4078
▁tracks	-4079
▁wooded	-4080
▁Chinese	-4081
▁Militär	-4082
▁Tischen	-4083
▁bedient	-4084
▁sandals	-4085
▁stadium	-4086
▁wandert	-4087
▁without	-4088
schwarzer	-4089
▁Krawatte	-4090
▁Schlange	-4091
▁Schlauch	-4092
▁reaching	-4093
▁Trampolin	-4094
▁trampoline	-4095
▁Mobiltelefon	-4096
▁orangefarbenem	-4097
ads	-4098
eiß	-4099
kop	-4100
kre	-4101
pit	-4102
ule	-4103
äst	-4104
afel	-4105
ails	-4106
gern	-4107
hält	-4108
ilfe	-4109
latt	-4110
part	-4111
ught	-4112
unkt	-4113
ußen	-4114
▁bis	-4115
▁bra	-4116
▁brü	-4117
▁mom	-4118
▁sec	-4119
▁tub	-4120
▁way	-4121
enter	-4122
indet	-4123
ivers	-4124
light	-4125
ragen	-4126
▁Nase	-4127
▁Plat	-4128
▁Stro	-4129
▁base	-4130
▁card	-4131
▁fünf	-4132
▁golf	-4133
▁kind	-4134
▁nose	-4135
▁puts	-4136
▁rech	-4137
▁tong	-4138
orting	-4139
reiben	-4140
▁Gitar	-4141
▁Küste	-4142
▁Schuh	-4143
▁Stirn	-4144
▁Stoff	-4145
▁ausge	-4146
▁balls	-4147
▁bauen	-4148
▁davor	-4149
▁gives	-4150
▁hinab	-4151
▁hockt	-4152
▁kayak	-4153
▁lunch	-4154
▁magaz	-4155
▁prote	-4156
▁spray	-4157
▁überf	-4158
adlocks	-4159
▁Fahnen	-4160
▁Klippe	-4161
▁Reifen	-4162
▁Sicher	-4163
▁Skiern	-4164
▁Turner	-4165
▁athlet	-4166
▁geschm	-4167
▁hängen	-4168
▁sprink	-4169
▁telesc	-4170
▁throws	-4171
schläger	-4172
▁Schuhen	-4173
▁braunem	-4174
▁musical	-4175
▁reinigt	-4176
▁umarmen	-4177
▁Freunden	-4178
▁swimsuit	-4179
instrument	-4180
▁performer	-4181
▁schüttelt	-4182
▁wundersch	-4183
▁photographer	-4184
▁Personengruppe	-4185
mm	-4186
atz	-4187
nis	-4188
oks	-4189
usp	-4190
▁Am	-4191
ched	-4192
dach	-4193
enkt	-4194
farb	-4195
hnen	-4196
igur	-4197
oney	-4198
rock	-4199
ssch	-4200
ugel	-4201
ward	-4202
äfer	-4203
▁Ban	-4204
▁Kur	-4205
▁ass	-4206
▁fan	-4207
▁hik	-4208
▁lab	-4209
▁led	-4210
▁pul	-4211
▁ste	-4212
▁tau	-4213
alter	-4214
antel	-4215
etten	-4216
fahrt	-4217
icker	-4218
owing	-4219
plane	-4220
stadt	-4221
ustic	-4222
▁Eish	-4223
▁Golf	-4224
▁Jahr	-4225
▁Rett	-4226
▁even	-4227
▁fels	-4228
▁ganz	-4229
▁goes	-4230
▁hoop	-4231
▁incl	-4232
▁lone	-4233
▁pill	-4234
▁ring	-4235
▁ruht	-4236
▁weld	-4237
▁wine	-4238
▁wire	-4239
bewerb	-4240
kostüm	-4241
omaten	-4242
▁Gasse	-4243
▁Kopft	-4244
▁Kreis	-4245
▁bläst	-4246
▁books	-4247
▁jongl	-4248
▁leans	-4249
▁males	-4250
▁oppos	-4251
▁slope	-4252
eichnet	-4253
▁Essens	-4254
▁Sachen	-4255
▁Schauf	-4256
▁bemalt	-4257
▁closed	-4258
▁dances	-4259
▁dessen	-4260
▁frisch	-4261
▁grauer	-4262
▁grillt	-4263
▁indoor	-4264
▁infant	-4265
▁karate	-4266
▁langem	-4267
▁makeup	-4268
▁moving	-4269
▁pushes	-4270
▁seines	-4271
▁singer	-4272
▁Verkauf	-4273
▁anderes	-4274
▁athlete	-4275
▁bedeckt	-4276
▁bekommt	-4277
▁cyclist	-4278
▁rolling	-4279
▁schießt	-4280
▁Pflanzen	-4281
▁Umgebung	-4282
▁Christmas	-4283
▁lächelnde	-4284
▁telescope	-4285
▁waterfall	-4286
▁conversing	-4287
▁geschlossen	-4288
▁individuals	-4289
▁Schutzhelmen	-4290
▁multicolored	-4291
ko	-4292
box	-4293
ean	-4294
ech	-4295
pes	-4296
urt	-4297
wär	-4298
yle	-4299
▁AT	-4300
▁Vi	-4301
dium	-4302
eter	-4303
halt	-4304
nung	-4305
olle	-4306
reit	-4307
ürde	-4308
▁Lkw	-4309
▁Wel	-4310
▁ble	-4311
▁dam	-4312
▁mem	-4313
▁nur	-4314
▁pfl	-4315
▁sea	-4316
▁tag	-4317
agers	-4318
elten	-4319
erina	-4320
icken	-4321
reppe	-4322
räger	-4323
schen	-4324
▁Bach	-4325
▁Nach	-4326
▁aufb	-4327
▁balc	-4328
▁fair	-4329
▁hose	-4330
▁tile	-4331
▁town	-4332
inning	-4333
▁Umzug	-4334
▁Zähne	-4335
▁block	-4336
▁coats	-4337
▁curly	-4338
▁grind	-4339
▁hiker	-4340
▁refle	-4341
▁sandy	-4342
▁steep	-4343
ehender	-4344
ehälter	-4345
reichen	-4346
▁Objekt	-4347
▁blouse	-4348
▁kurzer	-4349
▁marsch	-4350
▁picnic	-4351
▁podium	-4352
▁stream	-4353
arbeiten	-4354
▁Blätter	-4355
▁Tanktop	-4356
▁Teppich	-4357
▁contain	-4358
▁fliegen	-4359
▁opening	-4360
▁schönen	-4361
▁shaking	-4362
▁shaving	-4363
▁Mahlzeit	-4364
▁Schläger	-4365
▁Sportler	-4366
▁Straßenk	-4367
▁brunette	-4368
▁hellhäut	-4369
▁bekleidet	-4370
▁entspannt	-4371
▁violetten	-4372
▁Landschaft	-4373
▁Wasserfall	-4374
▁gepflaster	-4375
▁farbenfrohen	-4376
▁Schwimmbrille	-4377
ki	-4378
mo	-4379
fte	-4380
äch	-4381
▁US	-4382
Hoop	-4383
ator	-4384
eben	-4385
ends	-4386
händ	-4387
iage	-4388
inen	-4389
iner	-4390
ular	-4391
wegs	-4392
ören	-4393
▁Gep	-4394
▁ans	-4395
▁rub	-4396
ached	-4397
dress	-4398
estri	-4399
place	-4400
wards	-4401
▁Hock	-4402
▁Neop	-4403
▁Vide	-4404
▁farb	-4405
▁fing	-4406
▁gate	-4407
▁lays	-4408
▁nice	-4409
▁susp	-4410
Fahrer	-4411
atting	-4412
uggage	-4413
öffnet	-4414
▁Kreuz	-4415
▁Maske	-4416
▁Pickn	-4417
▁Stroh	-4418
▁Tasse	-4419
▁Wüste	-4420
▁below	-4421
▁birds	-4422
▁colle	-4423
▁heben	-4424
▁ledge	-4425
▁mural	-4426
▁sheep	-4427
richter	-4428
▁Beinen	-4429
▁Gebiet	-4430
▁Helmen	-4431
▁Kaffee	-4432
▁Schlaf	-4433
▁Schuhe	-4434
▁barbec	-4435
▁dinner	-4436
▁inflat	-4437
▁passes	-4438
▁saxoph	-4439
▁taucht	-4440
▁öffnet	-4441
estrians	-4442
köpfiger	-4443
▁Anzügen	-4444
▁Neopren	-4445
▁Strecke	-4446
▁produce	-4447
▁protest	-4448
▁schnell	-4449
▁steigen	-4450
verkäufer	-4451
▁Luftball	-4452
▁Schulter	-4453
▁Sicherhe	-4454
▁Stiefeln	-4455
▁geschäft	-4456
▁geöffnet	-4457
▁paddling	-4458
▁Eishockey	-4459
▁Gegenstän	-4460
▁Hochzeits	-4461
▁ausgestre	-4462
▁customers	-4463
▁jongliert	-4464
▁shoveling	-4465
▁aussehende	-4466
▁wheelchair	-4467
▁überfüllten	-4468
▁Footballspieler	-4469
zu	-4470
jam	-4471
oes	-4472
reg	-4473
umn	-4474
urr	-4475
woh	-4476
▁tw	-4477
alls	-4478
anta	-4479
apel	-4480
baum	-4481
icem	-4482
ktor	-4483
last	-4484
work	-4485
▁Box	-4486
▁Erd	-4487
▁Kuh	-4488
▁act	-4489
▁exc	-4490
▁mer	-4491
arage	-4492
baren	-4493
cover	-4494
fully	-4495
gerät	-4496
ienen	-4497
linie	-4498
ondon	-4499
roten	-4500
udert	-4501
▁Fest	-4502
▁alle	-4503
▁bran	-4504
▁cane	-4505
▁cool	-4506
▁fris	-4507
▁fröh	-4508
▁help	-4509
▁says	-4510
▁üben	-4511
ameras	-4512
ichten	-4513
räsent	-4514
selves	-4515
wasser	-4516
▁Berge	-4517
▁Kurve	-4518
▁Olymp	-4519
▁bever	-4520
▁firef	-4521
▁hangs	-4522
▁kicks	-4523
▁local	-4524
▁loung	-4525
▁stark	-4526
▁taken	-4527
▁umher	-4528
▁Balkon	-4529
▁Bilder	-4530
▁Hauses	-4531
▁Karate	-4532
▁Kleine	-4533
▁Tunnel	-4534
▁bottom	-4535
▁buying	-4536
▁center	-4537
▁formal	-4538
▁hurdle	-4539
▁puddle	-4540
▁schlaf	-4541
▁stroll	-4542
▁wäscht	-4543
aufnahme	-4544
▁Stadion	-4545
▁Steinen	-4546
▁balcony	-4547
▁decorat	-4548
▁gezogen	-4549
▁laundry	-4550
▁luggage	-4551
▁married	-4552
▁rasiert	-4553
▁stuffed	-4554
▁Schüssel	-4555
▁marching	-4556
▁railroad	-4557
▁Einkaufst	-4558
▁Schultern	-4559
▁Spielfeld	-4560
▁gentlemen	-4561
▁reparieren	-4562
▁themselves	-4563
▁Instrumente	-4564
▁Schaufenster	-4565
▁beleuchteten	-4566
▁Winterkleidung	-4567
▁Straßenkünstler	-4568
ka	-4569
haw	-4570
irr	-4571
vis	-4572
ähn	-4573
üne	-4574
üte	-4575
▁He	-4576
▁ca	-4577
▁eg	-4578
alle	-4579
gere	-4580
ider	-4581
ieds	-4582
inge	-4583
irat	-4584
renn	-4585
stac	-4586
zäun	-4587
äten	-4588
▁Flü	-4589
▁Guy	-4590
▁don	-4591
▁put	-4592
▁übt	-4593
ckten	-4594
fährt	-4595
hügel	-4596
lagen	-4597
licht	-4598
scape	-4599
▁Bein	-4600
▁Euro	-4601
▁Laub	-4602
▁Teil	-4603
▁Waff	-4604
▁Ziel	-4605
▁afro	-4606
▁bunt	-4607
▁club	-4608
▁farm	-4609
▁film	-4610
▁held	-4611
▁knee	-4612
▁mess	-4613
▁tele	-4614
▁vert	-4615
elling	-4616
▁Außen	-4617
▁Blatt	-4618
▁Couch	-4619
▁Older	-4620
▁chalk	-4621
▁einge	-4622
▁kehrt	-4623
▁links	-4624
▁pulls	-4625
▁stein	-4626
▁stool	-4627
covered	-4628
houette	-4629
rutsche	-4630
▁Asiate	-4631
▁Bücher	-4632
▁London	-4633
▁Orange	-4634
▁Sitzen	-4635
▁befest	-4636
▁device	-4637
▁flight	-4638
▁gucken	-4639
▁hikers	-4640
▁obstac	-4641
▁points	-4642
▁pulled	-4643
▁square	-4644
igkeiten	-4645
richtung	-4646
▁Asiaten	-4647
▁Eingang	-4648
▁Geschen	-4649
▁Projekt	-4650
▁Schäfer	-4651
▁Taucher	-4652
▁Veranda	-4653
▁aufblas	-4654
▁pitcher	-4655
▁policem	-4656
▁pouring	-4657
▁schreit	-4658
▁streich	-4659
▁surface	-4660
▁welding	-4661
▁windows	-4662
▁keyboard	-4663
▁Wettkampf	-4664
▁crosswalk	-4665
▁schneiden	-4666
▁teenagers	-4667
▁verwendet	-4668
iedsrichter	-4669
▁bicyclists	-4670
▁lächelnder	-4671
▁underwater	-4672
▁Cheerleader	-4673
▁gekleideten	-4674
veranstaltung	-4675
▁Instrumenten	-4676
▁lilafarbenen	-4677
▁geschlossenen	-4678
öt	-4679
üs	-4680
cas	-4681
gan	-4682
oga	-4683
▁Ge	-4684
▁Im	-4685
▁Mo	-4686
▁Ur	-4687
aked	-4688
bern	-4689
ipes	-4690
itze	-4691
umpf	-4692
zene	-4693
▁Sil	-4694
▁Str	-4695
▁anz	-4696
▁dry	-4697
▁eye	-4698
▁kla	-4699
▁rac	-4700
euert	-4701
hound	-4702
ießen	-4703
ippen	-4704
nette	-4705
onald	-4706
pping	-4707
ützen	-4708
▁Prof	-4709
▁Stud	-4710
▁Tuch	-4711
▁Werb	-4712
▁amüs	-4713
▁bent	-4714
▁dust	-4715
▁hear	-4716
▁lies	-4717
▁raft	-4718
▁robe	-4719
▁type	-4720
erskat	-4721
▁Salto	-4722
▁Terra	-4723
▁White	-4724
▁Zunge	-4725
▁besch	-4726
▁damit	-4727
▁float	-4728
▁geben	-4729
▁guard	-4730
▁kickt	-4731
▁mound	-4732
▁orang	-4733
▁poles	-4734
▁porch	-4735
▁sword	-4736
gitarre	-4737
▁Berges	-4738
▁Bullen	-4739
▁Gepäck	-4740
▁German	-4741
▁Karten	-4742
▁Sieben	-4743
▁Teller	-4744
▁Zement	-4745
▁barfuß	-4746
▁bubble	-4747
▁circle	-4748
▁einzel	-4749
▁hinaus	-4750
▁parach	-4751
▁racket	-4752
▁ringen	-4753
▁schauf	-4754
▁speaks	-4755
▁tongue	-4756
▁vollen	-4757
akeboard	-4758
haariges	-4759
▁Drachen	-4760
▁Fischer	-4761
▁berührt	-4762
▁foreign	-4763
▁gleitet	-4764
▁happily	-4765
▁paddelt	-4766
▁soldier	-4767
▁suspend	-4768
▁Gesichts	-4769
▁Kopftuch	-4770
▁Softball	-4771
▁Terrasse	-4772
▁benutzen	-4773
▁brushing	-4774
▁checking	-4775
▁obstacle	-4776
▁schlafen	-4777
▁shooting	-4778
▁softball	-4779
ikanischen	-4780
▁cheerlead	-4781
▁saxophone	-4782
▁staircase	-4783
▁Lederjacke	-4784
▁inflatable	-4785
▁untersucht	-4786
▁wunderschö	-4787
▁Schäferhund	-4788
▁Sicherheits	-4789
▁beieinander	-4790
▁Neoprenanzug	-4791
▁Rollerblades	-4792
▁pinkfarbenem	-4793
▁gepflasterten	-4794
▁Schiedsrichter	-4795
ex	-4796
gs	-4797
oy	-4798
wa	-4799
ara	-4800
chn	-4801
cut	-4802
eds	-4803
gem	-4804
inn	-4805
iot	-4806
rel	-4807
ton	-4808
tor	-4809
ude	-4810
örm	-4811
▁Mö	-4812
▁pa	-4813
afen	-4814
arbe	-4815
dler	-4816
helm	-4817
iere	-4818
ited	-4819
ners	-4820
rack	-4821
self	-4822
stag	-4823
time	-4824
uden	-4825
ures	-4826
ütte	-4827
▁Kam	-4828
▁Pit	-4829
▁bro	-4830
▁exp	-4831
▁fab	-4832
▁fly	-4833
▁map	-4834
▁wag	-4835
▁wur	-4836
▁ärm	-4837
allen	-4838
annen	-4839
apers	-4840
chter	-4841
doors	-4842
kappe	-4843
rosse	-4844
uters	-4845
viert	-4846
▁City	-4847
▁Groß	-4848
▁Jung	-4849
▁Sees	-4850
▁Wild	-4851
▁Wurf	-4852
▁arch	-4853
▁beam	-4854
▁drag	-4855
▁duck	-4856
▁harn	-4857
▁hind	-4858
▁kahl	-4859
▁komp	-4860
▁lock	-4861
▁pair	-4862
▁palm	-4863
▁peer	-4864
▁port	-4865
entrum	-4866
fallen	-4867
hängen	-4868
leskop	-4869
läufer	-4870
strand	-4871
yhound	-4872
▁Abend	-4873
▁Bäume	-4874
▁Kappe	-4875
▁Lager	-4876
▁Schle	-4877
▁appro	-4878
▁bread	-4879
▁clear	-4880
▁cones	-4881
▁denim	-4882
▁fresh	-4883
▁gießt	-4884
▁groom	-4885
▁shade	-4886
▁sheet	-4887
▁sport	-4888
▁start	-4889
▁third	-4890
brillen	-4891
tertain	-4892
▁Küchen	-4893
▁Reiter	-4894
▁Seiten	-4895
▁Soldat	-4896
▁Vorder	-4897
▁angelt	-4898
▁bringt	-4899
▁dancer	-4900
▁diesem	-4901
▁driver	-4902
▁drives	-4903
▁enjoys	-4904
▁fabric	-4905
▁lassen	-4906
▁nassen	-4907
▁paints	-4908
▁riders	-4909
▁schöne	-4910
▁ärmell	-4911
bereitet	-4912
schaften	-4913
schirmen	-4914
▁Asiatin	-4915
▁Fotogra	-4916
▁Kranken	-4917
▁Polizei	-4918
▁climber	-4919
▁dunkler	-4920
▁evening	-4921
▁frisbee	-4922
▁grocery	-4923
▁harness	-4924
▁himself	-4925
▁tractor	-4926
nerischen	-4927
▁Geschirr	-4928
▁Schaufel	-4929
▁Werkzeug	-4930
▁airplane	-4931
▁felsigen	-4932
▁festival	-4933
▁pavement	-4934
ikanischer	-4935
▁Baumstamm	-4936
▁Cowboyhut	-4937
▁Rollstuhl	-4938
▁Turnhalle	-4939
▁direction	-4940
▁shoulders	-4941
▁unterwegs	-4942
▁verlassen	-4943
▁Waldgebiet	-4944
▁männlicher	-4945
▁marketplace	-4946
▁afroamerikan	-4947
▁advertisement	-4948
gle	-4949
kes	-4950
läs	-4951
pan	-4952
rik	-4953
▁Dr	-4954
▁Mc	-4955
▁Vö	-4956
▁sy	-4957
aker	-4958
cial	-4959
cted	-4960
eile	-4961
glas	-4962
hose	-4963
iano	-4964
izza	-4965
mark	-4966
oben	-4967
udel	-4968
älde	-4969
▁Bal	-4970
▁Kab	-4971
▁Lie	-4972
▁Mon	-4973
▁Pat	-4974
▁Per	-4975
▁Pär	-4976
▁aco	-4977
▁bin	-4978
▁dra	-4979
▁esc	-4980
▁fra	-4981
▁geg	-4982
▁grä	-4983
▁hay	-4984
▁jub	-4985
▁low	-4986
▁ret	-4987
▁see	-4988
asten	-4989
attle	-4990
chern	-4991
chest	-4992
ility	-4993
itter	-4994
rauen	-4995
schuh	-4996
seite	-4997
sicht	-4998
statt	-4999
zeuge	-5000
äcken	-5001
ädern	-5002
ällen	-5003
änder	-5004
▁Base	-5005
▁Blue	-5006
▁Brot	-5007
▁Grim	-5008
▁Here	-5009
▁Mess	-5010
▁Spaz	-5011
▁boun	-5012
▁dune	-5013
▁eats	-5014
▁fert	-5015
▁jean	-5016
▁live	-5017
▁meet	-5018
▁must	-5019
▁muzz	-5020
▁neon	-5021
▁pige	-5022
▁polo	-5023
▁rout	-5024
▁sale	-5025
▁samm	-5026
▁slee	-5027
▁tief	-5028
ashion	-5029
icycle	-5030
iertem	-5031
ierter	-5032
läsern	-5033
männer	-5034
pritzt	-5035
▁Brown	-5036
▁Flugh	-5037
▁Hürde	-5038
▁Jungs	-5039
▁Produ	-5040
▁Rugby	-5041
▁Santa	-5042
▁Seven	-5043
▁Theke	-5044
▁apart	-5045
▁arena	-5046
▁drive	-5047
▁goods	-5048
▁jagen	-5049
▁money	-5050
▁plant	-5051
▁schle	-5052
▁stove	-5053
▁tools	-5054
ighters	-5055
▁Angelr	-5056
▁Becher	-5057
▁Eltern	-5058
▁Farben	-5059
▁Hundes	-5060
▁Jockey	-5061
▁barfüß	-5062
▁fenced	-5063
▁gelegt	-5064
▁goalie	-5065
▁gravel	-5066
▁jungle	-5067
▁kalten	-5068
▁spring	-5069
▁studio	-5070
▁things	-5071
▁Flasche	-5072
▁Gruppen	-5073
▁Pärchen	-5074
▁Spielen	-5075
▁airport	-5076
▁alleine	-5077
▁bending	-5078
▁braunes	-5079
▁garbage	-5080
▁reaches	-5081
▁steilen	-5082
▁wrapped	-5083
schwarzen	-5084
struktion	-5085
▁Keyboard	-5086
▁acoustic	-5087
▁attempts	-5088
▁aussieht	-5089
▁backyard	-5090
▁floating	-5091
▁jemanden	-5092
▁juggling	-5093
▁magazine	-5094
▁overalls	-5095
▁sitzende	-5096
▁verfolgt	-5097
▁Kopfhörer	-5098
▁Schwimmer	-5099
▁backpacks	-5100
▁glücklich	-5101
▁leuchtend	-5102
▁operating	-5103
▁sitzender	-5104
▁vollführt	-5105
▁Ausrüstung	-5106
▁protective	-5107
▁rothaarige	-5108
▁Nahaufnahme	-5109
▁scaffolding	-5110
▁professional	-5111
▁Hockeyspieler	-5112
▁fotografieren	-5113
▁Arbeitskleidung	-5114
enz	-5115
gnü	-5116
kte	-5117
uba	-5118
usk	-5119
▁DJ	-5120
▁Da	-5121
▁Ex	-5122
▁Fr	-5123
▁Ke	-5124
▁Sw	-5125
acks	-5126
anze	-5127
cker	-5128
cour	-5129
eilt	-5130
ewel	-5131
heit	-5132
igam	-5133
ills	-5134
ilot	-5135
ites	-5136
itte	-5137
legt	-5138
luft	-5139
ness	-5140
onne	-5141
pers	-5142
pfer	-5143
raft	-5144
räut	-5145
suit	-5146
vels	-5147
view	-5148
zten	-5149
älle	-5150
öcke	-5151
▁Frü	-5152
▁McD	-5153
▁Mod	-5154
▁Not	-5155
▁Ort	-5156
▁Pal	-5157
▁adj	-5158
▁bur	-5159
▁füt	-5160
▁mas	-5161
▁neu	-5162
▁orn	-5163
▁pin	-5164
▁sen	-5165
▁tar	-5166
▁unt	-5167
▁vac	-5168
▁you	-5169
epark	-5170
gegen	-5171
ively	-5172
jamas	-5173
lasse	-5174
otted	-5175
stoff	-5176
terse	-5177
wärts	-5178
zeigt	-5179
önnen	-5180
▁Aben	-5181
▁Afro	-5182
▁Fire	-5183
▁Gass	-5184
▁Lehr	-5185
▁Ring	-5186
▁Sitz	-5187
▁Vers	-5188
▁Wein	-5189
▁amus	-5190
▁ausz	-5191
▁care	-5192
▁carp	-5193
▁cook	-5194
▁disk	-5195
▁emer	-5196
▁konz	-5197
▁most	-5198
▁pipe	-5199
▁seat	-5200
▁trip	-5201
▁vorn	-5202
astern	-5203
braune	-5204
etrack	-5205
ospiel	-5206
roller	-5207
▁Besen	-5208
▁Bräut	-5209
▁Crowd	-5210
▁Licht	-5211
▁boats	-5212
▁gräbt	-5213
▁heavy	-5214
▁ihres	-5215
▁image	-5216
▁joggt	-5217
▁näher	-5218
▁peace	-5219
▁plaza	-5220
▁selts	-5221
▁super	-5222
▁weint	-5223
berteil	-5224
estelle	-5225
fahrern	-5226
kletter	-5227
udenten	-5228
▁Kissen	-5229
▁Nicker	-5230
▁Schiff	-5231
▁Wäsche	-5232
▁barrel	-5233
▁blocks	-5234
▁caught	-5235
▁cloudy	-5236
▁hoodie	-5237
▁kommen	-5238
▁linken	-5239
▁rechts	-5240
▁Flaggen	-5241
▁Kapuzen	-5242
▁Kleiner	-5243
▁animals	-5244
▁feeding	-5245
▁offenem	-5246
▁serving	-5247
▁student	-5248
▁Getränke	-5249
▁McDonald	-5250
▁Rettungs	-5251
▁athletic	-5252
▁barbecue	-5253
▁bearbeit	-5254
▁brünette	-5255
▁cheering	-5256
▁jumpsuit	-5257
▁konzentr	-5258
▁position	-5259
▁sticking	-5260
▁zeichnet	-5261
▁Bahnsteig	-5262
▁Bräutigam	-5263
▁Fahrräder	-5264
▁Handstand	-5265
▁Jahrmarkt	-5266
▁Kletterer	-5267
▁Motocross	-5268
▁Passanten	-5269
▁backwards	-5270
▁balancing	-5271
▁entertain	-5272
▁examining	-5273
▁landscape	-5274
▁racetrack	-5275
▁Nickerchen	-5276
▁streichelt	-5277
▁Kunststücke	-5278
▁Mountainbike	-5279
▁braunhaarige	-5280
▁geschäftigen	-5281
▁presentation	-5282
▁Weihnachtsbaum	-5283
▁traditioneller	-5284
go	-5285
ama	-5286
bau	-5287
cre	-5288
day	-5289
erc	-5290
hat	-5291
ica	-5292
ktr	-5293
ola	-5294
▁De	-5295
bart	-5296
chte	-5297
ered	-5298
etes	-5299
ippt	-5300
iven	-5301
ooks	-5302
slee	-5303
tery	-5304
uffy	-5305
▁Bat	-5306
▁Bän	-5307
▁Dor	-5308
▁Heu	-5309
▁Oze	-5310
▁Pod	-5311
▁Som	-5312
▁fol	-5313
▁hos	-5314
▁mob	-5315
▁pen	-5316
▁war	-5317
ament	-5318
nteln	-5319
ommun	-5320
pherd	-5321
scher	-5322
tisch	-5323
ustik	-5324
▁Auft	-5325
▁Bord	-5326
▁Chin	-5327
▁Club	-5328
▁Dunk	-5329
▁Gold	-5330
▁Herd	-5331
▁Male	-5332
▁Pier	-5333
▁Zahl	-5334
▁appl	-5335
▁aufs	-5336
▁baut	-5337
▁camo	-5338
▁chop	-5339
▁clay	-5340
▁curb	-5341
▁horn	-5342
▁kann	-5343
▁lots	-5344
▁nied	-5345
▁pump	-5346
▁rast	-5347
▁toss	-5348
▁trop	-5349
▁unge	-5350
gerüst	-5351
mantel	-5352
stufen	-5353
wegung	-5354
äumten	-5355
▁Brand	-5356
▁Dreck	-5357
▁Ferns	-5358
▁Füßen	-5359
▁Gassi	-5360
▁Matte	-5361
▁Sandd	-5362
▁Strom	-5363
▁Tromp	-5364
▁attra	-5365
▁begut	-5366
▁boxes	-5367
▁broom	-5368
▁brush	-5369
▁frame	-5370
▁hören	-5371
▁jewel	-5372
▁moves	-5373
▁muddy	-5374
▁order	-5375
▁piano	-5376
▁pitch	-5377
▁plane	-5378
▁print	-5379
▁robes	-5380
▁ropes	-5381
▁statt	-5382
▁trump	-5383
▁tätow	-5384
▁wagon	-5385
▁wurde	-5386
chester	-5387
chestra	-5388
händler	-5389
laschen	-5390
zentrum	-5391
zäunten	-5392
▁Dieses	-5393
▁Karren	-5394
▁Ketten	-5395
▁Mittag	-5396
▁Saxoph	-5397
▁Street	-5398
▁Träger	-5399
▁action	-5400
▁adjust	-5401
▁bewegt	-5402
▁carpet	-5403
▁colors	-5404
▁fruits	-5405
▁jockey	-5406
▁laughs	-5407
▁living	-5408
▁poster	-5409
▁raised	-5410
▁record	-5411
▁rowing	-5412
▁rudert	-5413
▁runden	-5414
▁skirts	-5415
▁speech	-5416
▁travel	-5417
erstraße	-5418
gestellt	-5419
▁Bahnhof	-5420
▁Gemälde	-5421
▁Mänteln	-5422
▁bucking	-5423
▁celebra	-5424
▁entfern	-5425
▁fashion	-5426
▁fingers	-5427
▁haircut	-5428
▁hallway	-5429
▁hitting	-5430
▁pajamas	-5431
▁runners	-5432
▁sharing	-5433
▁teacher	-5434
▁überprü	-5435
▁Auftritt	-5436
▁Freizeit	-5437
▁Geschenk	-5438
▁Skulptur	-5439
▁Teleskop	-5440
▁american	-5441
▁approach	-5442
▁attached	-5443
▁crouches	-5444
▁grilling	-5445
▁hillside	-5446
▁musician	-5447
▁soldiers	-5448
▁teenager	-5449
▁touching	-5450
bildschirm	-5451
▁courtyard	-5452
▁hinterher	-5453
▁motocross	-5454
▁policeman	-5455
▁sitzenden	-5456
▁trainiert	-5457
▁transport	-5458
▁Trägerhemd	-5459
▁Wohnzimmer	-5460
▁Jugendliche	-5461
▁Motorroller	-5462
▁Afroamerikan	-5463
▁schneebedeck	-5464
▁dunkelhäutige	-5465
▁Menschengruppe	-5466
▁Tennisschläger	-5467
▁Weihnachtsmann	-5468
gy	-5469
bör	-5470
enk	-5471
fel	-5472
ieß	-5473
ior	-5474
kla	-5475
leg	-5476
lex	-5477
nch	-5478
oly	-5479
ufe	-5480
äus	-5481
öhn	-5482
öte	-5483
▁Kä	-5484
asst	-5485
auch	-5486
belt	-5487
eigh	-5488
gelt	-5489
heel	-5490
hood	-5491
iche	-5492
imon	-5493
ions	-5494
quet	-5495
rill	-5496
schl	-5497
vent	-5498
wett	-5499
üren	-5500
▁ATV	-5501
▁Ast	-5502
▁Lin	-5503
▁Min	-5504
▁Näh	-5505
▁Tab	-5506
▁Ton	-5507
▁arr	-5508
▁cer	-5509
▁fau	-5510
▁fig	-5511
▁ged	-5512
▁mot	-5513
▁zer	-5514
arves	-5515
bogen	-5516
cours	-5517
deckt	-5518
druck	-5519
etter	-5520
ident	-5521
iment	-5522
offer	-5523
rampe	-5524
rates	-5525
robat	-5526
salon	-5527
sperr	-5528
udels	-5529
weise	-5530
weißt	-5531
änden	-5532
▁Anle	-5533
▁Bike	-5534
▁Dorf	-5535
▁Gang	-5536
▁Gumm	-5537
▁Kerl	-5538
▁Kies	-5539
▁Rede	-5540
▁Reif	-5541
▁Stab	-5542
▁Tarn	-5543
▁Warn	-5544
▁Zahn	-5545
▁cone	-5546
▁corn	-5547
▁dish	-5548
▁dump	-5549
▁ears	-5550
▁erkl	-5551
▁kaut	-5552
▁kümm	-5553
▁sail	-5554
▁smok	-5555
anlage	-5556
engers	-5557
ffitis	-5558
heirat	-5559
nitten	-5560
schlag	-5561
stange	-5562
wohner	-5563
▁Feier	-5564
▁Mitgl	-5565
▁Segel	-5566
▁Start	-5567
▁Staub	-5568
▁Stier	-5569
▁angel	-5570
▁demon	-5571
▁folgt	-5572
▁herab	-5573
▁invol	-5574
▁racer	-5575
▁rests	-5576
▁shown	-5577
aterial	-5578
flasche	-5579
zeichen	-5580
▁Ballon	-5581
▁Finger	-5582
▁Hammer	-5583
▁Herbst	-5584
▁Pfütze	-5585
▁Rädern	-5586
▁Stapel	-5587
▁bushes	-5588
▁button	-5589
▁donkey	-5590
▁feiern	-5591
▁headsc	-5592
▁hinein	-5593
▁kochen	-5594
▁modern	-5595
▁setzen	-5596
farbenes	-5597
gestelle	-5598
▁Kleines	-5599
▁Outdoor	-5600
▁Pfosten	-5601
▁Traktor	-5602
▁blondem	-5603
▁indoors	-5604
▁jerseys	-5605
▁members	-5606
▁petting	-5607
▁routine	-5608
automaten	-5609
formation	-5610
▁Japanese	-5611
▁Kapuzenp	-5612
▁Kreuzung	-5613
▁Rennauto	-5614
▁Windhund	-5615
▁bathroom	-5616
▁covering	-5617
▁cyclists	-5618
▁geworfen	-5619
▁practice	-5620
▁sandwich	-5621
▁schießen	-5622
▁Flughafen	-5623
▁Graffitis	-5624
▁Rennwagen	-5625
▁Skatepark	-5626
▁amusement	-5627
▁amüsieren	-5628
▁asiatisch	-5629
▁befestigt	-5630
▁boardwalk	-5631
▁orchestra	-5632
▁verheirat	-5633
▁Bekleidung	-5634
▁Bildschirm	-5635
▁Steinmauer	-5636
▁Wettbewerb	-5637
▁bearbeitet	-5638
▁passengers	-5639
▁Gegenstände	-5640
▁Krankenhaus	-5641
▁Nähmaschine	-5642
▁Vordergrund	-5643
▁schmutzigen	-5644
▁skateboards	-5645
▁Cheerleaders	-5646
▁aufblasbaren	-5647
▁konzentriert	-5648
▁langhaariger	-5649
▁motorcyclist	-5650
▁Fußgängerüber	-5651
▁Sonnenbrillen	-5652
▁verschiedenen	-5653
▁ausgestreckten	-5654
▁Feuerwehrmänner	-5655
kü	-5656
ld	-5657
bem	-5658
ght	-5659
hek	-5660
ibt	-5661
kan	-5662
lät	-5663
lüm	-5664
ora	-5665
umb	-5666
ydr	-5667
äht	-5668
▁iP	-5669
▁mö	-5670
aben	-5671
back	-5672
bung	-5673
flug	-5674
ikes	-5675
ique	-5676
meln	-5677
plat	-5678
pool	-5679
rist	-5680
rows	-5681
ruck	-5682
seit	-5683
ulli	-5684
unde	-5685
utel	-5686
öpfe	-5687
▁Cam	-5688
▁Fil	-5689
▁Mex	-5690
▁acc	-5691
▁adm	-5692
▁far	-5693
▁fin	-5694
▁fur	-5695
▁hüb	-5696
▁lay	-5697
▁pan	-5698
▁res	-5699
▁tug	-5700
▁tut	-5701
▁use	-5702
▁vil	-5703
▁win	-5704
▁zwe	-5705
akers	-5706
arrow	-5707
eiger	-5708
flops	-5709
gerer	-5710
hüter	-5711
iddle	-5712
iesen	-5713
imate	-5714
inden	-5715
inery	-5716
opoly	-5717
oster	-5718
pital	-5719
richt	-5720
wanne	-5721
waren	-5722
▁Cafe	-5723
▁Deck	-5724
▁Fass	-5725
▁High	-5726
▁Lady	-5727
▁abge	-5728
▁bagp	-5729
▁bars	-5730
▁bill	-5731
▁cast	-5732
▁crew	-5733
▁desc	-5734
▁doll	-5735
▁fegt	-5736
▁gall	-5737
▁half	-5738
▁hers	-5739
▁hugs	-5740
▁leaf	-5741
▁nass	-5742
▁poss	-5743
▁ribb	-5744
▁sets	-5745
▁ship	-5746
▁sink	-5747
▁spot	-5748
▁will	-5749
Reifen	-5750
Schild	-5751
itness	-5752
muster	-5753
nchron	-5754
shirts	-5755
studio	-5756
uflage	-5757
vision	-5758
weißem	-5759
▁Brett	-5760
▁Dinge	-5761
▁Eisen	-5762
▁Farbe	-5763
▁Freil	-5764
▁Hafen	-5765
▁Hotel	-5766
▁Labor	-5767
▁Large	-5768
▁Müllt	-5769
▁Typen	-5770
▁begin	-5771
▁bewöl	-5772
▁eleph	-5773
▁exerc	-5774
▁model	-5775
▁patio	-5776
▁paved	-5777
▁point	-5778
▁rough	-5779
▁rugby	-5780
▁scuba	-5781
▁seems	-5782
▁smoke	-5783
▁towel	-5784
▁wobei	-5785
artigen	-5786
gewicht	-5787
richtet	-5788
schuhen	-5789
stühlen	-5790
utschen	-5791
▁Frisbe	-5792
▁Gewehr	-5793
▁Schule	-5794
▁cleans	-5795
▁dining	-5796
▁dishes	-5797
▁diskut	-5798
▁garage	-5799
▁helfen	-5800
▁intent	-5801
▁kneels	-5802
▁lehnen	-5803
▁mixing	-5804
▁museum	-5805
▁neckla	-5806
▁pieces	-5807
▁rubber	-5808
▁runter	-5809
▁stares	-5810
▁stones	-5811
▁teilen	-5812
▁thrown	-5813
aschinen	-5814
▁Bushalt	-5815
▁Schnurr	-5816
▁bandann	-5817
▁bringen	-5818
▁carving	-5819
▁compete	-5820
▁excited	-5821
▁flausch	-5822
▁gelehnt	-5823
▁herself	-5824
▁spritzt	-5825
▁stopped	-5826
▁trumpet	-5827
▁turning	-5828
leuchtung	-5829
▁Behälter	-5830
▁Fotograf	-5831
▁Handtuch	-5832
▁Mädchens	-5833
▁Sanddüne	-5834
▁beschäft	-5835
▁beverage	-5836
▁carriage	-5837
▁entfernt	-5838
▁grinding	-5839
▁hospital	-5840
▁planscht	-5841
▁schweißt	-5842
▁spinning	-5843
mannschaft	-5844
▁Angelrute	-5845
▁Picknickt	-5846
▁Studenten	-5847
▁einzelner	-5848
▁handstand	-5849
▁machinery	-5850
▁Handtasche	-5851
▁Kopfhörern	-5852
▁Mannschaft	-5853
▁Rucksäcken	-5854
▁Sandstrand	-5855
▁camouflage	-5856
▁discussion	-5857
▁foreground	-5858
▁hellblauen	-5859
▁individual	-5860
▁rollerskat	-5861
▁Motorrädern	-5862
▁Stadtstraße	-5863
▁aussehender	-5864
▁hellbraunen	-5865
▁motorcycles	-5866
▁pedestrians	-5867
▁photographs	-5868
▁Schutzbrille	-5869
▁chinesischen	-5870
▁snowboarding	-5871
▁Klettergerüst	-5872
▁Regenschirmen	-5873
▁amerikanische	-5874
▁wunderschönen	-5875
▁Bushaltestelle	-5876
ls	-5877
sä	-5878
aal	-5879
any	-5880
een	-5881
hlt	-5882
iam	-5883
ims	-5884
ipp	-5885
kon	-5886
lem	-5887
los	-5888
par	-5889
prä	-5890
rab	-5891
ues	-5892
xas	-5893
▁It	-5894
ames	-5895
aust	-5896
aved	-5897
biss	-5898
cade	-5899
coat	-5900
down	-5901
ernt	-5902
girl	-5903
hren	-5904
ible	-5905
iple	-5906
satz	-5907
zern	-5908
▁Jog	-5909
▁Kür	-5910
▁Mat	-5911
▁Plü	-5912
▁She	-5913
▁aqu	-5914
▁aut	-5915
▁buy	-5916
▁def	-5917
▁dro	-5918
▁erh	-5919
▁exh	-5920
▁fet	-5921
▁gaz	-5922
▁hum	-5923
▁höl	-5924
▁nah	-5925
▁pee	-5926
▁pop	-5927
▁sim	-5928
▁sol	-5929
▁tin	-5930
▁try	-5931
arter	-5932
asium	-5933
auber	-5934
eback	-5935
ehren	-5936
griff	-5937
hilfe	-5938
iften	-5939
iring	-5940
kugel	-5941
lässt	-5942
order	-5943
orgen	-5944
ption	-5945
raten	-5946
truck	-5947
uting	-5948
▁Fing	-5949
▁Gelb	-5950
▁Heiß	-5951
▁Klav	-5952
▁Löff	-5953
▁Mark	-5954
▁Show	-5955
▁Topf	-5956
▁Walm	-5957
▁auch	-5958
▁aufz	-5959
▁calm	-5960
▁chew	-5961
▁cong	-5962
▁cons	-5963
▁dead	-5964
▁enth	-5965
▁entr	-5966
▁fill	-5967
▁kite	-5968
▁liqu	-5969
▁länd	-5970
▁mall	-5971
▁only	-5972
▁pine	-5973
▁pony	-5974
▁prob	-5975
▁rink	-5976
▁tube	-5977
▁wide	-5978
alator	-5979
dessen	-5980
ighter	-5981
imming	-5982
itteln	-5983
kinder	-5984
rocken	-5985
vollen	-5986
▁Balls	-5987
▁Blume	-5988
▁Brust	-5989
▁China	-5990
▁Gerät	-5991
▁Girls	-5992
▁Hütte	-5993
▁Moped	-5994
▁Namen	-5995
▁Rauch	-5996
▁Ruder	-5997
▁Schub	-5998
▁Stamm	-5999
▁candy	-6000
▁coach	-6001
▁finis	-6002
▁helps	-6003
▁japan	-6004
▁neigh	-6005
▁newly	-6006
▁paras	-6007
▁parkt	-6008
▁polka	-6009
▁puppy	-6010
▁rainy	-6011
▁rollt	-6012
▁seats	-6013
▁tight	-6014
▁tower	-6015
▁walls	-6016
Gitarre	-6017
borhood	-6018
schafts	-6019
▁Balken	-6020
▁Bauern	-6021
▁Bänken	-6022
▁Dudels	-6023
▁Fläche	-6024
▁Konfer	-6025
▁Körper	-6026
▁Passag	-6027
▁Plakat	-6028
▁Tattoo	-6029
▁bewund	-6030
▁design	-6031
▁findet	-6032
▁geblüm	-6033
▁joggen	-6034
▁native	-6035
▁protes	-6036
▁slides	-6037
▁smokes	-6038
▁summer	-6039
▁weiter	-6040
periment	-6041
▁Ballons	-6042
▁Geldbör	-6043
▁Outfits	-6044
▁Schacht	-6045
▁Trommel	-6046
▁Violine	-6047
▁Werbung	-6048
▁african	-6049
▁benches	-6050
▁cricket	-6051
▁füttert	-6052
▁interse	-6053
▁lachend	-6054
▁leaving	-6055
▁mustach	-6056
▁outstre	-6057
▁richtet	-6058
▁scenery	-6059
▁schwach	-6060
▁vorüber	-6061
▁wandern	-6062
▁wrestle	-6063
▁älteres	-6064
▁Brandung	-6065
▁Freiluft	-6066
▁Maulkorb	-6067
▁Saxophon	-6068
▁Trompete	-6069
▁bandanna	-6070
▁indische	-6071
▁matching	-6072
▁scheinen	-6073
▁schwenkt	-6074
▁Getränken	-6075
▁Hinterhof	-6076
▁Reifensch	-6077
▁Wasserski	-6078
▁escalator	-6079
▁geschmink	-6080
▁greyhound	-6081
▁gymnasium	-6082
▁horseback	-6083
▁kariertem	-6084
▁suspended	-6085
▁Dreadlocks	-6086
▁Jeansjacke	-6087
▁Schwimmbad	-6088
▁Wettrennen	-6089
▁erwachsene	-6090
▁lächelndes	-6091
▁stretching	-6092
▁Fußballfeld	-6093
▁beschäftigt	-6094
▁Fahrgeschäft	-6095
▁hellhäutiger	-6096
▁intersection	-6097
▁Straßenhändler	-6098
KW	-6099
hem	-6100
how	-6101
neh	-6102
omb	-6103
osa	-6104
usi	-6105
wai	-6106
ürk	-6107
▁At	-6108
▁Ne	-6109
▁ru	-6110
avig	-6111
bert	-6112
empt	-6113
ench	-6114
epar	-6115
iege	-6116
irth	-6117
klam	-6118
ktur	-6119
okal	-6120
ontä	-6121
oriz	-6122
schr	-6123
ured	-6124
waff	-6125
ways	-6126
weis	-6127
wood	-6128
ürzt	-6129
▁Kör	-6130
▁LKW	-6131
▁Squ	-6132
▁Süß	-6133
▁cab	-6134
▁cal	-6135
▁cop	-6136
▁dim	-6137
▁job	-6138
▁let	-6139
▁stö	-6140
▁tun	-6141
▁ört	-6142
ambur	-6143
armon	-6144
aucas	-6145
brary	-6146
ctory	-6147
eicht	-6148
essen	-6149
gency	-6150
house	-6151
ierst	-6152
inned	-6153
jects	-6154
kette	-6155
ktive	-6156
oodle	-6157
orter	-6158
osaur	-6159
prung	-6160
präch	-6161
stern	-6162
uding	-6163
usses	-6164
yloph	-6165
ämmer	-6166
▁Auss	-6167
▁Bill	-6168
▁Elef	-6169
▁Floß	-6170
▁Food	-6171
▁Grün	-6172
▁Häus	-6173
▁Kalb	-6174
▁Kart	-6175
▁Läch	-6176
▁Robe	-6177
▁Teig	-6178
▁Vort	-6179
▁bene	-6180
▁calf	-6181
▁ceil	-6182
▁cuts	-6183
▁expl	-6184
▁fans	-6185
▁gebe	-6186
▁halb	-6187
▁hits	-6188
▁insp	-6189
▁iron	-6190
▁item	-6191
▁keep	-6192
▁kopf	-6193
▁lane	-6194
▁näht	-6195
▁sofa	-6196
▁span	-6197
▁taxi	-6198
▁türk	-6199
ailing	-6200
brücke	-6201
haufen	-6202
herman	-6203
ickelt	-6204
schild	-6205
sprung	-6206
ycling	-6207
ändern	-6208
ängern	-6209
▁Arena	-6210
▁Blond	-6211
▁Demon	-6212
▁Fahrt	-6213
▁Kamel	-6214
▁Pfadf	-6215
▁Rollt	-6216
▁Tätow	-6217
▁beißt	-6218
▁birth	-6219
▁brows	-6220
▁bunte	-6221
▁camel	-6222
▁celeb	-6223
▁chest	-6224
▁derby	-6225
▁doors	-6226
▁glatz	-6227
▁great	-6228
▁hoops	-6229
▁klats	-6230
▁lines	-6231
▁merch	-6232
▁naked	-6233
▁patch	-6234
▁recei	-6235
▁share	-6236
▁terra	-6237
ference	-6238
haltung	-6239
köpfige	-6240
▁Baumes	-6241
▁Bergst	-6242
▁Comput	-6243
▁Herren	-6244
▁Middle	-6245
▁Spitze	-6246
▁Tauben	-6247
▁Tricks	-6248
▁Welpen	-6249
▁bikers	-6250
▁boxing	-6251
▁branch	-6252
▁faulen	-6253
▁heißen	-6254
▁hotdog	-6255
▁mittel	-6256
▁narrow	-6257
▁nähert	-6258
▁papers	-6259
▁raises	-6260
▁sleeve	-6261
▁treibt	-6262
alloween	-6263
erschied	-6264
escheibe	-6265
haarigen	-6266
luftball	-6267
schaukel	-6268
springen	-6269
▁Ballett	-6270
▁Händler	-6271
▁Klavier	-6272
▁Lächeln	-6273
▁Walmart	-6274
▁Zeichen	-6275
▁baskets	-6276
▁bottles	-6277
▁buckets	-6278
▁ceiling	-6279
▁fencing	-6280
▁gezeigt	-6281
▁jewelry	-6282
▁library	-6283
▁loading	-6284
▁pigeons	-6285
▁raising	-6286
▁redhead	-6287
▁riesige	-6288
▁swimmer	-6289
▁Gespräch	-6290
▁Plastikt	-6291
▁Schubkar	-6292
▁Strohhut	-6293
▁Tätowier	-6294
▁balances	-6295
▁coloring	-6296
▁entrance	-6297
▁gehalten	-6298
▁goldenen	-6299
▁headband	-6300
▁intently	-6301
▁opposite	-6302
▁reinigen	-6303
▁sporting	-6304
▁tattooed	-6305
▁tourists	-6306
bekleidung	-6307
landschaft	-6308
▁Badewanne	-6309
▁Elefanten	-6310
▁Kunstwerk	-6311
▁Mountainb	-6312
▁Orchester	-6313
▁Radrennen	-6314
▁Surfboard	-6315
▁ballerina	-6316
▁bedeckten	-6317
▁checkered	-6318
▁computers	-6319
▁interview	-6320
▁irgendein	-6321
▁motorbike	-6322
▁nighttime	-6323
▁schaufelt	-6324
▁squatting	-6325
▁steinigen	-6326
▁überprüft	-6327
instrumente	-6328
▁Abendessen	-6329
▁Fotografen	-6330
▁Rolltreppe	-6331
▁Silhouette	-6332
▁conference	-6333
▁storefront	-6334
▁trainieren	-6335
▁zusammenge	-6336
konstruktion	-6337
▁Luftballons	-6338
▁Schlafanzug	-6339
▁Zeitschrift	-6340
▁Ziegelmauer	-6341
▁participate	-6342
▁unterschied	-6343
▁untersuchen	-6344
▁vorbeigehen	-6345
▁Anlegestelle	-6346
▁Heißluftball	-6347
▁Kapuzenpulli	-6348
▁afrikanische	-6349
▁farbenfroher	-6350
▁neighborhood	-6351
▁rosafarbenem	-6352
▁Feuerwehrmann	-6353
▁Picknicktisch	-6354
▁participating	-6355
▁Frisbeescheibe	-6356
▁Zuschauermenge	-6357
▁Snowboardfahrer	-6358
hl	-6359
pa	-6360
ux	-6361
▁-	-6362
ato	-6363
aul	-6364
bag	-6365
bel	-6366
bus	-6367
hol	-6368
hrt	-6369
ibl	-6370
krä	-6371
mod	-6372
mus	-6373
oir	-6374
rop	-6375
saw	-6376
uad	-6377
uum	-6378
wel	-6379
wor	-6380
ymn	-6381
öst	-6382
üff	-6383
ünd	-6384
▁Di	-6385
▁Kö	-6386
▁Lö	-6387
▁Ma	-6388
▁Sn	-6389
▁ic	-6390
Hemd	-6391
agel	-6392
anad	-6393
anke	-6394
aped	-6395
buch	-6396
club	-6397
corn	-6398
eckt	-6399
eife	-6400
foto	-6401
gers	-6402
hawk	-6403
hnic	-6404
ilet	-6405
ilts	-6406
isle	-6407
onen	-6408
pren	-6409
säge	-6410
town	-6411
▁Amp	-6412
▁Ble	-6413
▁Dis	-6414
▁Inl	-6415
▁Leg	-6416
▁Pin	-6417
▁Tal	-6418
▁Tim	-6419
▁Wer	-6420
▁ant	-6421
▁bad	-6422
▁fro	-6423
▁gas	-6424
▁mov	-6425
▁odd	-6426
▁rod	-6427
▁rug	-6428
▁six	-6429
▁sup	-6430
abrik	-6431
aiten	-6432
alken	-6433
alung	-6434
ammen	-6435
bends	-6436
dustr	-6437
erous	-6438
hosen	-6439
izing	-6440
leute	-6441
maske	-6442
merks	-6443
ohemd	-6444
oking	-6445
ooten	-6446
otter	-6447
trick	-6448
urity	-6449
▁Bass	-6450
▁Bibl	-6451
▁Esel	-6452
▁Gymn	-6453
▁Kürb	-6454
▁Mult	-6455
▁Oper	-6456
▁boul	-6457
▁bund	-6458
▁caps	-6459
▁come	-6460
▁fold	-6461
▁free	-6462
▁gown	-6463
▁guns	-6464
▁load	-6465
▁main	-6466
▁scre	-6467
▁tags	-6468
▁thin	-6469
▁verz	-6470
▁webt	-6471
▁wife	-6472
athers	-6473
geregt	-6474
ically	-6475
inings	-6476
iothek	-6477
iziert	-6478
reiche	-6479
seitig	-6480
ussell	-6481
▁Figur	-6482
▁Hilfe	-6483
▁Kegel	-6484
▁Rande	-6485
▁Teams	-6486
▁Texas	-6487
▁Trans	-6488
▁Trink	-6489
▁aisle	-6490
▁binoc	-6491
▁blows	-6492
▁bowls	-6493
▁carry	-6494
▁chase	-6495
▁condu	-6496
▁embra	-6497
▁fancy	-6498
▁funny	-6499
▁grand	-6500
▁heart	-6501
▁lange	-6502
▁moped	-6503
▁organ	-6504
▁silly	-6505
▁spoon	-6506
Station	-6507
agessen	-6508
aurants	-6509
blading	-6510
geboren	-6511
ichtern	-6512
iergang	-6513
ineskat	-6514
itorium	-6515
izieren	-6516
skinned	-6517
sleeved	-6518
sschild	-6519
tending	-6520
urtstag	-6521
▁Becken	-6522
▁Fahrer	-6523
▁Gewand	-6524
▁Koffer	-6525
▁Kreide	-6526
▁Lehrer	-6527
▁Lippen	-6528
▁Löffel	-6529
▁Messer	-6530
▁Modell	-6531
▁Podium	-6532
▁Ringer	-6533
▁Röcken	-6534
▁Saiten	-6535
▁Square	-6536
▁abends	-6537
▁banner	-6538
▁batter	-6539
▁biking	-6540
▁casual	-6541
▁column	-6542
▁crafts	-6543
▁doctor	-6544
▁feiert	-6545
▁fertig	-6546
▁figure	-6547
▁fluffy	-6548
▁hölzer	-6549
▁mobile	-6550
▁moment	-6551
▁nieder	-6552
▁ornate	-6553
▁paddle	-6554
▁photos	-6555
▁skates	-6556
▁vacuum	-6557
▁wischt	-6558
aucasian	-6559
bemalung	-6560
farbigen	-6561
streifen	-6562
ämmerung	-6563
▁Absperr	-6564
▁Akustik	-6565
▁Büschen	-6566
▁Fingern	-6567
▁Gymnast	-6568
▁Kricket	-6569
▁Orangen	-6570
▁Pitcher	-6571
▁Schmuck	-6572
▁Waldweg	-6573
▁attempt	-6574
▁balance	-6575
▁beneath	-6576
▁bewegen	-6577
▁closeup	-6578
▁control	-6579
▁demonst	-6580
▁drummer	-6581
▁folding	-6582
▁guitars	-6583
▁medical	-6584
▁peering	-6585
▁pottery	-6586
▁repairs	-6587
▁stellen	-6588
▁trailer	-6589
▁treffen	-6590
▁viewing	-6591
▁village	-6592
▁weaving	-6593
▁Schirmen	-6594
▁Wandbild	-6595
▁befahren	-6596
▁bekommen	-6597
▁birthday	-6598
▁browsing	-6599
▁darunter	-6600
▁electron	-6601
▁entgegen	-6602
▁farbigen	-6603
▁hindurch	-6604
▁leuchten	-6605
▁mustache	-6606
▁opposing	-6607
▁starting	-6608
▁teaching	-6609
itarbeiter	-6610
▁Dudelsack	-6611
▁Gitarrist	-6612
▁Operation	-6613
▁Plattform	-6614
▁Schneesch	-6615
▁Verkäufer	-6616
▁bewölkten	-6617
▁billboard	-6618
▁cardboard	-6619
▁container	-6620
▁firetruck	-6621
▁following	-6622
▁headscarf	-6623
▁sprinkler	-6624
▁vegetable	-6625
▁violettem	-6626
räsentation	-6627
▁Asiatinnen	-6628
▁Bibliothek	-6629
▁Geburtstag	-6630
▁Inlineskat	-6631
▁Kunststoff	-6632
▁Schubkarre	-6633
▁dreadlocks	-6634
▁inspecting	-6635
▁städtische	-6636
▁television	-6637
▁Bauarbeiten	-6638
▁Klassenraum	-6639
▁Mittagessen	-6640
▁Schnurrbart	-6641
▁Süßigkeiten	-6642
▁advertising	-6643
▁begutachtet	-6644
▁diskutieren	-6645
▁gegenseitig	-6646
▁marschieren	-6647
▁Bowlingkugel	-6648
▁cheerleaders	-6649
▁firefighters	-6650
▁kahlköpfiger	-6651
▁Baseballkappe	-6652
▁Baseballmütze	-6653
▁Baseballspiel	-6654
▁dunkelhaarige	-6655
▁verheiratetes	-6656
▁Reifenschaukel	-6657
▁Rettungswesten	-6658
▁Einkaufszentrum	-6659
ma	-6660
axo	-6661
bow	-6662
com	-6663
dre	-6664
eur	-6665
ika	-6666
ker	-6667
loy	-6668
min	-6669
nes	-6670
ney	-6671
pre	-6672
ses	-6673
tag	-6674
tre	-6675
tty	-6676
utt	-6677
äuf	-6678
▁Do	-6679
▁Fe	-6680
▁Pl	-6681
▁Pr	-6682
▁lö	-6683
anas	-6684
ativ	-6685
aube	-6686
boat	-6687
burg	-6688
deck	-6689
eddy	-6690
fett	-6691
hill	-6692
hlen	-6693
isto	-6694
like	-6695
obby	-6696
outs	-6697
stem	-6698
tens	-6699
ulen	-6700
uses	-6701
voll	-6702
wurf	-6703
ühle	-6704
ürst	-6705
▁App	-6706
▁Ath	-6707
▁Beg	-6708
▁Car	-6709
▁Har	-6710
▁Küh	-6711
▁Lac	-6712
▁Med	-6713
▁Mom	-6714
▁Web	-6715
▁add	-6716
▁deb	-6717
▁del	-6718
▁dep	-6719
▁jet	-6720
▁lan	-6721
▁los	-6722
▁mod	-6723
▁prü	-6724
▁trü	-6725
ampen	-6726
appen	-6727
aumen	-6728
benen	-6729
ckter	-6730
ehend	-6731
enken	-6732
essel	-6733
essor	-6734
horts	-6735
ilden	-6736
ipfel	-6737
ither	-6738
itors	-6739
iture	-6740
kreuz	-6741
lings	-6742
loser	-6743
läser	-6744
onder	-6745
opter	-6746
sters	-6747
style	-6748
tched	-6749
ulars	-6750
urses	-6751
zeich	-6752
▁Boys	-6753
▁Bret	-6754
▁Fans	-6755
▁Flip	-6756
▁Flur	-6757
▁John	-6758
▁Knei	-6759
▁Lang	-6760
▁Saxo	-6761
▁Taxi	-6762
▁Teen	-6763
▁Vord	-6764
▁acht	-6765
▁bass	-6766
▁baum	-6767
▁bean	-6768
▁chee	-6769
▁cras	-6770
▁dusk	-6771
▁feat	-6772
▁frem	-6773
▁furn	-6774
▁hamm	-6775
▁iPod	-6776
▁knit	-6777
▁neue	-6778
▁ober	-6779
▁oven	-6780
▁push	-6781
▁remo	-6782
▁rust	-6783
▁sack	-6784
▁seem	-6785
▁soap	-6786
▁trol	-6787
▁wein	-6788
esting	-6789
etafel	-6790
ipping	-6791
istole	-6792
kommen	-6793
laufen	-6794
ooters	-6795
schein	-6796
werfer	-6797
wäsche	-6798
▁Einem	-6799
▁Elekt	-6800
▁Flüss	-6801
▁Hawai	-6802
▁Hocke	-6803
▁Karte	-6804
▁Klapp	-6805
▁Natur	-6806
▁Noten	-6807
▁Piste	-6808
▁Pudel	-6809
▁Staff	-6810
▁Stift	-6811
▁Stufe	-6812
▁Super	-6813
▁Tafel	-6814
▁Vögel	-6815
▁chefs	-6816
▁choir	-6817
▁craft	-6818
▁dimly	-6819
▁engen	-6820
▁exhib	-6821
▁füllt	-6822
▁leckt	-6823
▁lernt	-6824
▁malen	-6825
▁navig	-6826
▁oppon	-6827
▁pizza	-6828
▁pumpk	-6829
▁races	-6830
▁sells	-6831
▁speed	-6832
▁stock	-6833
▁sucht	-6834
▁teamm	-6835
▁youth	-6836
entlich	-6837
merksam	-6838
richten	-6839
station	-6840
▁Bühnen	-6841
▁Daumen	-6842
▁Hotdog	-6843
▁Junger	-6844
▁Kerzen	-6845
▁Köpfen	-6846
▁Labork	-6847
▁Laufen	-6848
▁Locken	-6849
▁Museum	-6850
▁Schafe	-6851
▁Tanzen	-6852
▁Wänden	-6853
▁altmod	-6854
▁barber	-6855
▁bricks	-6856
▁broken	-6857
▁divers	-6858
▁either	-6859
▁elektr	-6860
▁finish	-6861
▁gepark	-6862
▁graben	-6863
▁histor	-6864
▁indian	-6865
▁instru	-6866
▁können	-6867
▁maroon	-6868
▁mostly	-6869
▁pillow	-6870
▁refere	-6871
▁shakes	-6872
▁social	-6873
▁steckt	-6874
▁sweeps	-6875
▁wading	-6876
▁wheels	-6877
amburger	-6878
gebunden	-6879
▁Fernseh	-6880
▁Kleider	-6881
▁Saxofon	-6882
▁Schmutz	-6883
▁Schwert	-6884
▁Speisen	-6885
▁Stangen	-6886
▁Station	-6887
▁Vortrag	-6888
▁beladen	-6889
▁candles	-6890
▁congreg	-6891
▁crosses	-6892
▁daneben	-6893
▁drinnen	-6894
▁enthusi	-6895
▁factory	-6896
▁follows	-6897
▁geparkt	-6898
▁grillen	-6899
▁leading	-6900
▁lifting	-6901
▁nachdem	-6902
▁objects	-6903
▁patient	-6904
▁praying	-6905
▁ruhigen	-6906
▁shadows	-6907
▁shovels	-6908
▁spieler	-6909
▁spotted	-6910
▁starren	-6911
chterbahn	-6912
▁Blättern	-6913
▁Fernglas	-6914
▁Turnerin	-6915
▁einsamer	-6916
▁elephant	-6917
▁erleucht	-6918
▁festhält	-6919
▁komplett	-6920
▁kopfüber	-6921
▁material	-6922
▁monument	-6923
▁schieben	-6924
▁schnitzt	-6925
▁scooters	-6926
▁security	-6927
▁spraying	-6928
▁stairway	-6929
▁streicht	-6930
▁swimmers	-6931
▁synchron	-6932
▁training	-6933
▁verlässt	-6934
▁visiting	-6935
▁wheelbar	-6936
volleyball	-6937
▁Ballerina	-6938
▁Betonwand	-6939
▁Bordstein	-6940
▁Geldbörse	-6941
▁Gewässers	-6942
▁Wakeboard	-6943
▁apartment	-6944
▁crouching	-6945
▁decorated	-6946
▁geblümten	-6947
▁gesäumten	-6948
▁hölzernen	-6949
▁observing	-6950
▁silbernen	-6951
▁stehenden	-6952
▁uniformed	-6953
▁Marktplatz	-6954
▁Pfadfinder	-6955
▁Videospiel	-6956
▁Zahlreiche	-6957
▁binoculars	-6958
▁discussing	-6959
▁entspannen	-6960
▁marschiert	-6961
▁protesting	-6962
▁ärmellosen	-6963
▁Beleuchtung	-6964
▁Bowlingbahn	-6965
▁Flüssigkeit	-6966
▁celebrating	-6967
▁entlanggeht	-6968
▁langhaarige	-6969
▁rothaariges	-6970
▁surrounding	-6971
▁verkleidete	-6972
▁vorbeifährt	-6973
▁Schlagzeuger	-6974
▁outstretched	-6975
▁Mountainbiker	-6976
▁Spielkleidung	-6977
▁Sportkleidung	-6978
▁orangefarbene	-6979
▁Afroamerikaner	-6980
▁Akustikgitarre	-6981
▁Basketballspiel	-6982
cc	-6983
hy	-6984
kr	-6985
ou	-6986
äb	-6987
act	-6988
akd	-6989
ana	-6990
dan	-6991
ded	-6992
emb	-6993
emi	-6994
flü	-6995
ict	-6996
ios	-6997
kul	-6998
lig	-6999
lim	-7000
org	-7001
ubs	-7002
udd	-7003
uen	-7004
urm	-7005
zte	-7006
▁Is	-7007
▁On	-7008
▁Rö	-7009
▁To	-7010
▁ak	-7011
▁aw	-7012
▁ju	-7013
Mann	-7014
arin	-7015
born	-7016
ello	-7017
emen	-7018
erby	-7019
erry	-7020
estr	-7021
fter	-7022
förm	-7023
heim	-7024
hten	-7025
ibly	-7026
igar	-7027
irst	-7028
lter	-7029
muck	-7030
ocal	-7031
ogie	-7032
olen	-7033
oned	-7034
opes	-7035
pfad	-7036
pids	-7037
raht	-7038
reek	-7039
rest	-7040
roll	-7041
rosa	-7042
tops	-7043
ttet	-7044
unds	-7045
very	-7046
vors	-7047
wöhn	-7048
▁Anh	-7049
▁For	-7050
▁Geg	-7051
▁Gür	-7052
▁Iro	-7053
▁Neu	-7054
▁Pad	-7055
▁Pel	-7056
▁Soc	-7057
▁Sub	-7058
▁Tee	-7059
▁dad	-7060
▁dir	-7061
▁emp	-7062
▁fle	-7063
▁got	-7064
▁kre	-7065
▁lac	-7066
▁may	-7067
▁min	-7068
▁mop	-7069
▁saw	-7070
▁scr	-7071
▁tas	-7072
▁tee	-7073
▁tho	-7074
▁val	-7075
ackel	-7076
aming	-7077
ative	-7078
block	-7079
ctors	-7080
dozer	-7081
emony	-7082
ernen	-7083
fetti	-7084
feuer	-7085
gnügt	-7086
ially	-7087
ichte	-7088
karte	-7089
küche	-7090
omach	-7091
oping	-7092
racht	-7093
teams	-7094
unken	-7095
utfit	-7096
wheel	-7097
ündel	-7098
▁Arzt	-7099
▁Bear	-7100
▁Chor	-7101
▁Elmo	-7102
▁Farb	-7103
▁Flug	-7104
▁Füße	-7105
▁Home	-7106
▁Horn	-7107
▁Pink	-7108
▁Play	-7109
▁Säug	-7110
▁Yoga	-7111
▁aber	-7112
▁amid	-7113
▁bege	-7114
▁belt	-7115
▁berg	-7116
▁bron	-7117
▁burg	-7118
▁char	-7119
▁cobb	-7120
▁eggs	-7121
▁flam	-7122
▁lear	-7123
▁loom	-7124
▁masc	-7125
▁mass	-7126
▁navy	-7127
▁proc	-7128
▁puck	-7129
▁rost	-7130
▁song	-7131
▁trom	-7132
▁verl	-7133
▁yoga	-7134
alling	-7135
beutel	-7136
hockey	-7137
icking	-7138
ienten	-7139
ittsch	-7140
leiter	-7141
menade	-7142
orning	-7143
▁Asien	-7144
▁Bogen	-7145
▁Boots	-7146
▁Colle	-7147
▁Fried	-7148
▁Gehen	-7149
▁Kette	-7150
▁Köche	-7151
▁Ohren	-7152
▁Times	-7153
▁Türen	-7154
▁Welpe	-7155
▁Wette	-7156
▁anhat	-7157
▁apple	-7158
▁bevor	-7159
▁brenn	-7160
▁chess	-7161
▁crane	-7162
▁creek	-7163
▁dekor	-7164
▁dicht	-7165
▁dribb	-7166
▁enter	-7167
▁glove	-7168
▁heels	-7169
▁hotel	-7170
▁leads	-7171
▁messy	-7172
▁niedr	-7173
▁packt	-7174
▁press	-7175
▁quick	-7176
▁rural	-7177
▁sechs	-7178
▁shops	-7179
▁sniff	-7180
▁socks	-7181
▁steel	-7182
▁still	-7183
▁style	-7184
▁teiln	-7185
▁tents	-7186
▁trunk	-7187
▁turns	-7188
▁world	-7189
akdance	-7190
artment	-7191
brocken	-7192
fenster	-7193
senting	-7194
▁Batman	-7195
▁Europe	-7196
▁Fabrik	-7197
▁Kisten	-7198
▁Kürbis	-7199
▁Palmen	-7200
▁Redner	-7201
▁Reklam	-7202
▁Schach	-7203
▁Socken	-7204
▁Sommer	-7205
▁Spiels	-7206
▁Stehen	-7207
▁Stühle	-7208
▁ballet	-7209
▁bunter	-7210
▁butter	-7211
▁commun	-7212
▁debris	-7213
▁finger	-7214
▁floral	-7215
▁groups	-7216
▁headed	-7217
▁jubelt	-7218
▁kayaks	-7219
▁plates	-7220
▁pretty	-7221
▁rapids	-7222
▁ribbon	-7223
▁schrei	-7224
▁skiers	-7225
▁target	-7226
▁wendet	-7227
enschwes	-7228
gelassen	-7229
geworfen	-7230
skulptur	-7231
▁Bahngle	-7232
▁Papiere	-7233
▁Protest	-7234
▁Student	-7235
▁Tourist	-7236
▁beginnt	-7237
▁chicken	-7238
▁coaster	-7239
▁constru	-7240
▁engaged	-7241
▁fireman	-7242
▁flachen	-7243
▁gebeugt	-7244
▁greifen	-7245
▁kümmert	-7246
▁lecture	-7247
▁paddles	-7248
▁präsent	-7249
▁rauchen	-7250
▁rechten	-7251
▁sailing	-7252
▁sammelt	-7253
▁schlamm	-7254
▁schlend	-7255
▁theater	-7256
▁tourist	-7257
▁trolley	-7258
▁weather	-7259
▁wheelie	-7260
▁wirbelt	-7261
▁Flaschen	-7262
▁Monopoly	-7263
▁Sandwich	-7264
▁Students	-7265
▁Verkaufs	-7266
▁bagpipes	-7267
▁bemalten	-7268
▁ceremony	-7269
▁chainsaw	-7270
▁chatting	-7271
▁downtown	-7272
▁eingesch	-7273
▁flowered	-7274
▁inspects	-7275
▁interess	-7276
▁involved	-7277
▁lacrosse	-7278
▁learning	-7279
▁lounging	-7280
▁machines	-7281
▁necklace	-7282
▁offenbar	-7283
▁opponent	-7284
▁planting	-7285
▁possibly	-7286
▁scaffold	-7287
▁splashes	-7288
▁ungewöhn	-7289
▁vergnügt	-7290
▁Grimassen	-7291
▁Halloween	-7292
▁Handschuh	-7293
▁Konferenz	-7294
▁Stirnband	-7295
▁Trainings	-7296
▁Werkstatt	-7297
▁attending	-7298
▁aufgeregt	-7299
▁bewundert	-7300
▁fisherman	-7301
▁formation	-7302
▁furniture	-7303
▁gewickelt	-7304
▁guitarist	-7305
▁including	-7306
▁motorized	-7307
▁photograp	-7308
▁schreiben	-7309
▁örtlichen	-7310
▁Achterbahn	-7311
▁Asiatische	-7312
▁Aufführung	-7313
▁Breakdance	-7314
▁Geschäften	-7315
▁Innenstadt	-7316
▁Kettensäge	-7317
▁Schlittsch	-7318
▁Sportwagen	-7319
▁Straßenmus	-7320
▁Untergrund	-7321
▁Waschsalon	-7322
▁auditorium	-7323
▁aufmerksam	-7324
▁directions	-7325
▁gymnastics	-7326
▁performers	-7327
▁reflective	-7328
▁sleeveless	-7329
▁waterfront	-7330
▁zubereitet	-7331
▁Sprungbrett	-7332
▁Versammlung	-7333
▁Wasserspren	-7334
▁approaching	-7335
▁countryside	-7336
▁firefighter	-7337
▁flauschiger	-7338
▁microphones	-7339
▁wheelbarrow	-7340
▁übergewicht	-7341
▁Schwimmweste	-7342
▁dunkelblauen	-7343
▁gegnerischen	-7344
▁Krankenschwes	-7345
▁Wasserrutsche	-7346
▁afrikanischer	-7347
▁glatzköpfiger	-7348
▁rollerblading	-7349
▁Tennisspielerin	-7350
Te	-7351
ky	-7352
mt	-7353
nä	-7354
üd	-7355
▁'	-7356
▁.	-7357
abe	-7358
abl	-7359
ari	-7360
ata	-7361
can	-7362
ebe	-7363
edo	-7364
eim	-7365
gra	-7366
gro	-7367
ham	-7368
kör	-7369
lit	-7370
mal	-7371
met	-7372
oma	-7373
rid	-7374
wen	-7375
wir	-7376
▁Fä	-7377
▁Zw	-7378
▁ax	-7379
▁di	-7380
▁id	-7381
▁op	-7382
Amer	-7383
abel	-7384
ader	-7385
alte	-7386
aris	-7387
arth	-7388
asen	-7389
ehör	-7390
elte	-7391
enga	-7392
etze	-7393
gery	-7394
gung	-7395
iami	-7396
ices	-7397
ilar	-7398
ital	-7399
ität	-7400
izin	-7401
jung	-7402
kopf	-7403
lest	-7404
lück	-7405
onge	-7406
pfel	-7407
rier	-7408
sitz	-7409
teln	-7410
toff	-7411
uckt	-7412
ware	-7413
yram	-7414
zelt	-7415
äste	-7416
äule	-7417
▁Bag	-7418
▁Hab	-7419
▁Top	-7420
▁USA	-7421
▁Uhr	-7422
▁bas	-7423
▁daz	-7424
▁dec	-7425
▁dom	-7426
▁dün	-7427
▁ext	-7428
▁foc	-7429
▁hut	-7430
▁kau	-7431
▁mug	-7432
▁mög	-7433
▁own	-7434
▁rad	-7435
▁rei	-7436
▁sad	-7437
▁tom	-7438
▁tux	-7439
▁ung	-7440
▁uns	-7441
▁wad	-7442
▁zug	-7443
amboo	-7444
ambus	-7445
arium	-7446
auten	-7447
decke	-7448
eight	-7449
enger	-7450
ently	-7451
hakis	-7452
ising	-7453
jeans	-7454
kante	-7455
kunst	-7456
lauch	-7457
olate	-7458
phalt	-7459
recht	-7460
rückt	-7461
ucker	-7462
uffet	-7463
ummel	-7464
ürste	-7465
üssel	-7466
▁Army	-7467
▁Blas	-7468
▁Chef	-7469
▁Hüte	-7470
▁Jeep	-7471
▁Lass	-7472
▁Lied	-7473
▁Port	-7474
▁Sack	-7475
▁Soon	-7476
▁Span	-7477
▁Sprü	-7478
▁Wach	-7479
▁Wart	-7480
▁also	-7481
▁been	-7482
▁beis	-7483
▁biet	-7484
▁bite	-7485
▁cann	-7486
▁craw	-7487
▁cute	-7488
▁fake	-7489
▁flat	-7490
▁gefl	-7491
▁gesp	-7492
▁gift	-7493
▁give	-7494
▁goat	-7495
▁groß	-7496
▁hike	-7497
▁lauf	-7498
▁leot	-7499
▁logs	-7500
▁name	-7501
▁nets	-7502
▁noch	-7503
▁näch	-7504
▁poor	-7505
▁rice	-7506
▁rund	-7507
▁rück	-7508
▁serv	-7509
▁skin	-7510
▁tied	-7511
▁tiny	-7512
▁tops	-7513
▁tray	-7514
▁trot	-7515
▁upon	-7516
▁weap	-7517
Kostüm	-7518
acting	-7519
ameram	-7520
andise	-7521
bersch	-7522
blauem	-7523
bungen	-7524
einbar	-7525
ellten	-7526
errier	-7527
hammer	-7528
iertes	-7529
ischem	-7530
isting	-7531
kasten	-7532
legten	-7533
leitet	-7534
nehmer	-7535
ontäne	-7536
orange	-7537
pieler	-7538
stehen	-7539
sticks	-7540
terned	-7541
tspiel	-7542
wimmen	-7543
üchern	-7544
üffelt	-7545
▁Babys	-7546
▁Bauch	-7547
▁Beach	-7548
▁Biker	-7549
▁Bälle	-7550
▁Durch	-7551
▁Fahne	-7552
▁Jenga	-7553
▁Kaffe	-7554
▁Kasse	-7555
▁Kiste	-7556
▁Köpfe	-7557
▁Maler	-7558
▁Nagel	-7559
▁Ozean	-7560
▁Pilot	-7561
▁Stahl	-7562
▁Stunt	-7563
▁Urein	-7564
▁altes	-7565
▁angem	-7566
▁blood	-7567
▁bückt	-7568
▁cards	-7569
▁cello	-7570
▁colla	-7571
▁comes	-7572
▁diver	-7573
▁dough	-7574
▁gefle	-7575
▁graue	-7576
▁juice	-7577
▁knees	-7578
▁knife	-7579
▁movie	-7580
▁ricks	-7581
▁rings	-7582
▁salon	-7583
▁snack	-7584
▁staub	-7585
▁sweat	-7586
▁tires	-7587
▁unord	-7588
▁watet	-7589
▁wires	-7590
icopter	-7591
ierende	-7592
ollegen	-7593
schmuck	-7594
schnitt	-7595
spielen	-7596
ständer	-7597
uniform	-7598
▁Aufzug	-7599
▁Bambus	-7600
▁Decken	-7601
▁Einrad	-7602
▁Eiscre	-7603
▁Gegner	-7604
▁Hocker	-7605
▁Imbiss	-7606
▁Inline	-7607
▁Irokes	-7608
▁Kapuze	-7609
▁Karton	-7610
▁Klasse	-7611
▁Mittel	-7612
▁Mützen	-7613
▁Police	-7614
▁Poster	-7615
▁Schaum	-7616
▁Soccer	-7617
▁Sports	-7618
▁Umhang	-7619
▁Zöpfen	-7620
▁arcade	-7621
▁assemb	-7622
▁attent	-7623
▁aufgeb	-7624
▁bamboo	-7625
▁bewald	-7626
▁brauen	-7627
▁called	-7628
▁castle	-7629
▁cheese	-7630
▁covers	-7631
▁direkt	-7632
▁ethnic	-7633
▁hooded	-7634
▁huddle	-7635
▁kauert	-7636
▁landet	-7637
▁leicht	-7638
▁liquid	-7639
▁lounge	-7640
▁motion	-7641
▁nasser	-7642
▁sauber	-7643
▁schwer	-7644
▁serves	-7645
▁snowsh	-7646
▁suchen	-7647
▁tripod	-7648
▁türkis	-7649
▁valley	-7650
flugzeug	-7651
förmigen	-7652
geländer	-7653
issensch	-7654
▁Bearded	-7655
▁Einsatz	-7656
▁Fischen	-7657
▁Fitness	-7658
▁Fliesen	-7659
▁Gläsern	-7660
▁Hinterb	-7661
▁Häusern	-7662
▁Jockeys	-7663
▁Kameras	-7664
▁Plüscht	-7665
▁Schneeh	-7666
▁Smoking	-7667
▁Tablett	-7668
▁balding	-7669
▁boulder	-7670
▁cameras	-7671
▁closely	-7672
▁college	-7673
▁contest	-7674
▁crossed	-7675
▁dunklem	-7676
▁eastern	-7677
▁gehende	-7678
▁gepunkt	-7679
▁handing	-7680
▁heading	-7681
▁landing	-7682
▁listens	-7683
▁meeting	-7684
▁observe	-7685
▁oranges	-7686
▁paddeln	-7687
▁paralle	-7688
▁puppies	-7689
▁rainbow	-7690
▁referee	-7691
▁schneit	-7692
▁shining	-7693
▁smaller	-7694
▁stomach	-7695
▁strange	-7696
▁surgery	-7697
▁tattoos	-7698
▁terrain	-7699
▁treiben	-7700
▁trocken	-7701
▁vendors	-7702
▁waschen	-7703
▁workout	-7704
dachloser	-7705
geborenes	-7706
▁Aussicht	-7707
▁Bewegung	-7708
▁Holzbank	-7709
▁Lacrosse	-7710
▁Multiple	-7711
▁Produkte	-7712
▁Streifen	-7713
▁Swimming	-7714
▁Sängerin	-7715
▁Torhüter	-7716
▁Webstuhl	-7717
▁admiring	-7718
▁alleyway	-7719
▁applying	-7720
▁breakdan	-7721
▁clapping	-7722
▁examines	-7723
▁flipping	-7724
▁forehead	-7725
▁gehender	-7726
▁gleichen	-7727
▁homeless	-7728
▁kayaking	-7729
▁mithilfe	-7730
▁observes	-7731
▁overhead	-7732
▁rickshaw	-7733
▁sandigen	-7734
▁serviert	-7735
▁snowsuit	-7736
▁studying	-7737
▁unicycle	-7738
▁vehicles	-7739
▁verdeckt	-7740
▁waterway	-7741
▁wrestler	-7742
ansammlung	-7743
▁Bluejeans	-7744
▁Computern	-7745
▁Dämmerung	-7746
▁Eisenbahn	-7747
▁Gymnastik	-7748
▁Karussell	-7749
▁Mülltonne	-7750
▁Schildern	-7751
▁Segelboot	-7752
▁Stromschn	-7753
▁beisammen	-7754
▁bespritzt	-7755
▁carefully	-7756
▁emergency	-7757
▁geparkten	-7758
▁parachute	-7759
▁partially	-7760
▁passenger	-7761
▁practices	-7762
▁repairing	-7763
▁scheinbar	-7764
▁streichen	-7765
▁wakeboard	-7766
▁Badezimmer	-7767
▁Grasfläche	-7768
▁Lagerfeuer	-7769
▁Motorräder	-7770
▁aneinander	-7771
▁bekleidete	-7772
▁decorative	-7773
▁Essensstand	-7774
▁Laborkittel	-7775
▁Restaurants	-7776
▁Schulkinder	-7777
▁Spaziergang	-7778
▁Treppenhaus	-7779
▁Ureinwohner	-7780
▁Waschbecken	-7781
▁ausgestellt	-7782
▁aussehenden	-7783
▁erwachsener	-7784
▁interacting	-7785
▁merchandise	-7786
▁spielerisch	-7787
▁verschneite	-7788
▁vorbereitet	-7789
▁Präsentation	-7790
▁Sonnenschirm	-7791
▁eingezäunten	-7792
▁regnerischen	-7793
▁unbefestigte	-7794
▁unterrichtet	-7795
▁Wasserflasche	-7796
▁khakifarbenen	-7797
▁motorcyclists	-7798
▁Feuerwehrleute	-7799
▁Heißluftballon	-7800
▁amerikanischen	-7801
▁dunkelhaariger	-7802
CE	-7803
Fl	-7804
kn	-7805
uk	-7806
arp	-7807
bol	-7808
cil	-7809
ebo	-7810
fly	-7811
gef	-7812
kol	-7813
lac	-7814
mit	-7815
oft	-7816
quo	-7817
tub	-7818
uld	-7819
urz	-7820
val	-7821
vil	-7822
wed	-7823
üht	-7824
▁Cr	-7825
▁Ph	-7826
▁TV	-7827
▁Tö	-7828
▁du	-7829
▁fo	-7830
▁kl	-7831
▁my	-7832
aare	-7833
aint	-7834
anen	-7835
appy	-7836
arat	-7837
bare	-7838
bett	-7839
blät	-7840
cert	-7841
chan	-7842
cont	-7843
denk	-7844
ebeb	-7845
eite	-7846
elbe	-7847
ells	-7848
fert	-7849
heke	-7850
iene	-7851
ifft	-7852
ific	-7853
iosk	-7854
isse	-7855
kurs	-7856
leit	-7857
länd	-7858
netz	-7859
offt	-7860
oint	-7861
olke	-7862
otiv	-7863
putz	-7864
rail	-7865
rauß	-7866
stro	-7867
trik	-7868
umin	-7869
unts	-7870
uten	-7871
ziel	-7872
zing	-7873
ände	-7874
▁ATM	-7875
▁Axt	-7876
▁Bro	-7877
▁Cro	-7878
▁Del	-7879
▁Fem	-7880
▁Feu	-7881
▁Gre	-7882
▁Lat	-7883
▁Mün	-7884
▁Ped	-7885
▁Piz	-7886
▁Pop	-7887
▁Reg	-7888
▁Rik	-7889
▁Vol	-7890
▁abz	-7891
▁ado	-7892
▁aim	-7893
▁chr	-7894
▁erk	-7895
▁grö	-7896
▁ich	-7897
▁inj	-7898
▁lie	-7899
▁nam	-7900
▁pig	-7901
▁rif	-7902
▁sam	-7903
▁spü	-7904
▁tea	-7905
▁tri	-7906
▁wen	-7907
▁ähn	-7908
Derby	-7909
agull	-7910
ahnen	-7911
ashes	-7912
asken	-7913
atoes	-7914
bbing	-7915
borne	-7916
brush	-7917
draht	-7918
elzen	-7919
endem	-7920
ermin	-7921
ersby	-7922
figur	-7923
geren	-7924
gings	-7925
gress	-7926
haube	-7927
hause	-7928
iefel	-7929
illed	-7930
ipper	-7931
lafen	-7932
mäher	-7933
obahn	-7934
oring	-7935
rench	-7936
reten	-7937
rängt	-7938
teckt	-7939
ually	-7940
uquet	-7941
ymbol	-7942
ärmel	-7943
äumen	-7944
ücken	-7945
üllen	-7946
▁Auge	-7947
▁Bark	-7948
▁Dock	-7949
▁Ente	-7950
▁Film	-7951
▁Früh	-7952
▁Glat	-7953
▁Grau	-7954
▁Kauf	-7955
▁Kell	-7956
▁Kick	-7957
▁Kran	-7958
▁Leit	-7959
▁Mais	-7960
▁Ofen	-7961
▁Puck	-7962
▁Punk	-7963
▁Reis	-7964
▁Skil	-7965
▁Trib	-7966
▁Turm	-7967
▁bank	-7968
▁brot	-7969
▁camp	-7970
▁cans	-7971
▁cape	-7972
▁clad	-7973
▁dazu	-7974
▁euro	-7975
▁fort	-7976
▁hart	-7977
▁heav	-7978
▁herr	-7979
▁hohe	-7980
▁jogs	-7981
▁krat	-7982
▁lamp	-7983
▁lass	-7984
▁lens	-7985
▁meas	-7986
▁pigt	-7987
▁plat	-7988
▁pots	-7989
▁seas	-7990
▁sele	-7991
▁semi	-7992
▁shaw	-7993
▁spar	-7994
▁stap	-7995
▁stir	-7996
▁unlo	-7997
▁verd	-7998
▁wrap	-7999
Outfit	-8000
alerie	-8001
bbraun	-8002
becher	-8003
ckigen	-8004
ehraut	-8005
gesetz	-8006
graben	-8007
ichter	-8008
ightly	-8009
imonos	-8010
kräfte	-8011
leicht	-8012
objekt	-8013
rating	-8014
roffen	-8015
sachen	-8016
statue	-8017
urnier	-8018
weight	-8019
werker	-8020
zeitig	-8021
äbchen	-8022
▁Adult	-8023
▁Blech	-8024
▁Einer	-8025
▁Fecht	-8026
▁Felsk	-8027
▁Firef	-8028
▁Flöte	-8029
▁Helme	-8030
▁Kante	-8031
▁Kerle	-8032
▁Lasso	-8033
▁Later	-8034
▁Lokal	-8035
▁Miami	-8036
▁Music	-8037
▁Möbel	-8038
▁Netze	-8039
▁Sicht	-8040
▁Speer	-8041
▁Waffe	-8042
▁Wange	-8043
▁Zauns	-8044
▁aband	-8045
▁activ	-8046
▁angeh	-8047
▁backs	-8048
▁blind	-8049
▁boxen	-8050
▁carts	-8051
▁cheek	-8052
▁coast	-8053
▁dives	-8054
▁drill	-8055
▁dusty	-8056
▁eight	-8057
▁flips	-8058
▁hohes	-8059
▁horiz	-8060
▁legen	-8061
▁lifts	-8062
▁lower	-8063
▁marin	-8064
▁medit	-8065
▁moder	-8066
▁mower	-8067
▁picks	-8068
▁polit	-8069
▁power	-8070
▁quiet	-8071
▁relig	-8072
▁ruhen	-8073
▁seich	-8074
▁serve	-8075
▁space	-8076
▁spark	-8077
▁stall	-8078
▁stare	-8079
▁story	-8080
▁surfs	-8081
▁verbr	-8082
▁wings	-8083
angehör	-8084
breitet	-8085
contain	-8086
eingang	-8087
estrian	-8088
kapelle	-8089
konzert	-8090
▁Anweis	-8091
▁Banner	-8092
▁Blasen	-8093
▁Bällen	-8094
▁Großer	-8095
▁Holzst	-8096
▁Jacket	-8097
▁Kneipe	-8098
▁Liefer	-8099
▁Mohawk	-8100
▁Morgen	-8101
▁Muster	-8102
▁Partie	-8103
▁Riksch	-8104
▁Schein	-8105
▁Seilen	-8106
▁Shirts	-8107
▁Spider	-8108
▁Stativ	-8109
▁Strick	-8110
▁Tracht	-8111
▁Turban	-8112
▁autumn	-8113
▁bilden	-8114
▁biting	-8115
▁checks	-8116
▁dieser	-8117
▁employ	-8118
▁farmer	-8119
▁fischt	-8120
▁floats	-8121
▁handle	-8122
▁houses	-8123
▁jubeln	-8124
▁muzzle	-8125
▁nature	-8126
▁oberen	-8127
▁played	-8128
▁portra	-8129
▁racers	-8130
▁return	-8131
▁rudern	-8132
▁scouts	-8133
▁shaped	-8134
▁shaved	-8135
▁shower	-8136
▁stilts	-8137
▁ticket	-8138
▁trifft	-8139
▁trucks	-8140
▁turned	-8141
Geschäft	-8142
behälter	-8143
bereiten	-8144
gebäudes	-8145
klettert	-8146
unkelten	-8147
▁Afrikan	-8148
▁Bauwerk	-8149
▁College	-8150
▁Concert	-8151
▁Cowboys	-8152
▁Dreirad	-8153
▁Eiswaff	-8154
▁Flusses	-8155
▁Friseur	-8156
▁Früchte	-8157
▁Gleisen	-8158
▁Kellner	-8159
▁Maschen	-8160
▁Nachbar	-8161
▁Smiling	-8162
▁Stammes	-8163
▁Stelzen	-8164
▁Stöcken	-8165
▁Trainer	-8166
▁acrobat	-8167
▁barrier	-8168
▁butcher	-8169
▁camping	-8170
▁cowboys	-8171
▁express	-8172
▁filling	-8173
▁firemen	-8174
▁foliage	-8175
▁gallery	-8176
▁gefüllt	-8177
▁hübsche	-8178
▁incline	-8179
▁juggles	-8180
▁laptops	-8181
▁lighted	-8182
▁löschen	-8183
▁monitor	-8184
▁morning	-8185
▁newborn	-8186
▁oranger	-8187
▁peeking	-8188
▁placing	-8189
▁pumpkin	-8190
▁rafting	-8191
▁sammeln	-8192
▁similar	-8193
▁touches	-8194
▁weitere	-8195
bedeckten	-8196
etterling	-8197
ffentlich	-8198
spielerin	-8199
spielzeug	-8200
uniformen	-8201
vorsprung	-8202
▁Autobahn	-8203
▁Demonstr	-8204
▁Fahrrads	-8205
▁Freundin	-8206
▁Grimasse	-8207
▁Holzzaun	-8208
▁Händchen	-8209
▁Kunstwer	-8210
▁Laternen	-8211
▁Laufbahn	-8212
▁Picknick	-8213
▁Schilder	-8214
▁Schotter	-8215
▁Shepherd	-8216
▁Säugling	-8217
▁berühren	-8218
▁bouncing	-8219
▁branches	-8220
▁crouched	-8221
▁dragging	-8222
▁driveway	-8223
▁entering	-8224
▁handrail	-8225
▁jüngeren	-8226
▁klatscht	-8227
▁lockigen	-8228
▁nächsten	-8229
▁official	-8230
▁pigtails	-8231
▁rutschen	-8232
▁schminkt	-8233
▁seichten	-8234
▁shepherd	-8235
▁stehende	-8236
▁stepping	-8237
▁straight	-8238
▁teammate	-8239
▁tricycle	-8240
▁tropical	-8241
▁Caucasian	-8242
▁Hamburger	-8243
▁Maschinen	-8244
▁Patienten	-8245
▁Rollschuh	-8246
▁adjusting	-8247
▁barfüßige	-8248
▁butterfly	-8249
▁christmas	-8250
▁erklimmen	-8251
▁finishing	-8252
▁gelbbraun	-8253
▁paperwork	-8254
▁patterned	-8255
▁rückwärts	-8256
▁shoreline	-8257
▁snowshoes	-8258
▁stehender	-8259
▁telephone	-8260
▁underwear	-8261
geschnitten	-8262
▁Landstraße	-8263
▁Mitglieder	-8264
▁Plüschtier	-8265
▁Wildwasser	-8266
▁Ziegelwand	-8267
▁befahrenen	-8268
▁bewaldeten	-8269
▁chopsticks	-8270
▁electronic	-8271
▁helicopter	-8272
▁lächelnden	-8273
▁ländlichen	-8274
▁presenting	-8275
▁silhouette	-8276
▁vielleicht	-8277
mannschaften	-8278
▁Badeanzügen	-8279
▁Bauernmarkt	-8280
▁Bergsteiger	-8281
▁Felsbrocken	-8282
▁Pedestrians	-8283
▁Plastiktüte	-8284
▁Unterwäsche	-8285
▁celebration	-8286
▁herumstehen	-8287
▁protestiert	-8288
▁präsentiert	-8289
ffentlichkeit	-8290
▁Feuerwehraut	-8291
▁Freizeitpark	-8292
▁Fußballdress	-8293
▁Geländewagen	-8294
▁Maschendraht	-8295
▁Namensschild	-8296
▁Swimmingpool	-8297
▁ausgebreitet	-8298
▁elektrischen	-8299
▁gleichzeitig	-8300
▁heraushängen	-8301
▁pinkfarbener	-8302
▁Schmetterling	-8303
▁eingeschlafen	-8304
▁orientalische	-8305
▁rollerskating	-8306
▁Einkaufstasche	-8307
▁Marathonläufer	-8308
▁Stromschnellen	-8309
▁amerikanischer	-8310
▁unordentlichen	-8311
▁Beachvolleyball	-8312
MC	-8313
ii	-8314
rd	-8315
äg	-8316
▁,	-8317
Bob	-8318
akt	-8319
aph	-8320
aps	-8321
bed	-8322
bot	-8323
bär	-8324
car	-8325
con	-8326
ees	-8327
ehm	-8328
ena	-8329
ffe	-8330
fig	-8331
hop	-8332
ibr	-8333
imp	-8334
ixt	-8335
lie	-8336
lly	-8337
pfl	-8338
pie	-8339
uhr	-8340
äun	-8341
▁Em	-8342
▁Ho	-8343
▁NY	-8344
▁Uf	-8345
▁mü	-8346
▁ox	-8347
Band	-8348
aggy	-8349
agle	-8350
amte	-8351
cake	-8352
ebel	-8353
ebla	-8354
ebra	-8355
elin	-8356
ened	-8357
gabe	-8358
homa	-8359
horn	-8360
iben	-8361
ikul	-8362
ilst	-8363
ints	-8364
iped	-8365
ivil	-8366
leas	-8367
loss	-8368
mint	-8369
mitt	-8370
ollt	-8371
olog	-8372
olor	-8373
oses	-8374
owed	-8375
riot	-8376
saal	-8377
spre	-8378
tain	-8379
trie	-8380
uger	-8381
uing	-8382
umbs	-8383
urky	-8384
used	-8385
äumt	-8386
ücke	-8387
ühne	-8388
ünen	-8389
▁Ang	-8390
▁Bic	-8391
▁Din	-8392
▁Eim	-8393
▁Ged	-8394
▁His	-8395
▁Hör	-8396
▁Jet	-8397
▁Lim	-8398
▁Mem	-8399
▁Mül	-8400
▁Num	-8401
▁Pos	-8402
▁Rod	-8403
▁Ser	-8404
▁Ste	-8405
▁Var	-8406
▁Wol	-8407
▁Zer	-8408
▁Zuh	-8409
▁bab	-8410
▁bec	-8411
▁dot	-8412
▁eas	-8413
▁egg	-8414
▁erw	-8415
▁est	-8416
▁fac	-8417
▁hom	-8418
▁ill	-8419
▁kra	-8420
▁les	-8421
▁lim	-8422
▁loh	-8423
▁pow	-8424
▁pun	-8425
▁sal	-8426
▁sne	-8427
▁tem	-8428
▁tor	-8429
▁ump	-8430
▁umr	-8431
aften	-8432
aling	-8433
ampag	-8434
ature	-8435
berry	-8436
borat	-8437
boten	-8438
chsen	-8439
craft	-8440
ebook	-8441
ertag	-8442
eschw	-8443
etrie	-8444
feier	-8445
ieger	-8446
igner	-8447
inten	-8448
itish	-8449
itzer	-8450
korat	-8451
nisse	-8452
obile	-8453
oftop	-8454
ompan	-8455
oseup	-8456
panic	-8457
pfahl	-8458
punkt	-8459
reide	-8460
schle	-8461
spark	-8462
ssaal	-8463
sseln	-8464
tritt	-8465
ubsch	-8466
udeln	-8467
under	-8468
uples	-8469
uzzle	-8470
wandt	-8471
wolke	-8472
zeria	-8473
ündet	-8474
▁Acht	-8475
▁Asia	-8476
▁Best	-8477
▁Bohr	-8478
▁Dirt	-8479
▁Dogs	-8480
▁Esst	-8481
▁Heim	-8482
▁Hüpf	-8483
▁Knie	-8484
▁Lein	-8485
▁Lots	-8486
▁Mick	-8487
▁Obje	-8488
▁Okla	-8489
▁Post	-8490
▁Rosa	-8491
▁Runn	-8492
▁Schr	-8493
▁Sieg	-8494
▁Temp	-8495
▁They	-8496
▁Vend	-8497
▁Walk	-8498
▁Woll	-8499
▁abzu	-8500
▁army	-8501
▁blur	-8502
▁case	-8503
▁chis	-8504
▁comf	-8505
▁cott	-8506
▁cray	-8507
▁cups	-8508
▁deut	-8509
▁done	-8510
▁elev	-8511
▁erho	-8512
▁fern	-8513
▁flas	-8514
▁förm	-8515
▁hydr	-8516
▁inst	-8517
▁late	-8518
▁meiß	-8519
▁more	-8520
▁nail	-8521
▁rabb	-8522
▁recl	-8523
▁rows	-8524
▁scra	-8525
▁shel	-8526
▁skyd	-8527
▁sque	-8528
▁sägt	-8529
▁task	-8530
▁text	-8531
▁trib	-8532
▁verm	-8533
▁weig	-8534
▁weil	-8535
▁yarn	-8536
▁zuge	-8537
achers	-8538
blickt	-8539
bürste	-8540
coming	-8541
emonie	-8542
enaiss	-8543
ensive	-8544
estand	-8545
froren	-8546
garten	-8547
gitter	-8548
grauen	-8549
houett	-8550
ierend	-8551
igning	-8552
liegen	-8553
minton	-8554
oodles	-8555
quoise	-8556
rauber	-8557
rägern	-8558
rücken	-8559
schung	-8560
stroke	-8561
tender	-8562
treppe	-8563
ummern	-8564
ußball	-8565
werfen	-8566
zenden	-8567
äufern	-8568
ürstet	-8569
▁Alter	-8570
▁Amish	-8571
▁Ampel	-8572
▁Apfel	-8573
▁Apple	-8574
▁Banjo	-8575
▁Beine	-8576
▁Boxer	-8577
▁Cello	-8578
▁Draht	-8579
▁Dress	-8580
▁Eight	-8581
▁Engel	-8582
▁Grund	-8583
▁Hause	-8584
▁Inder	-8585
▁Linie	-8586
▁Nebel	-8587
▁Paare	-8588
▁Pizza	-8589
▁Puppe	-8590
▁Richt	-8591
▁Röhre	-8592
▁Starb	-8593
▁Szene	-8594
▁Säule	-8595
▁Theat	-8596
▁Tiere	-8597
▁Tüten	-8598
▁Video	-8599
▁Volks	-8600
▁Weing	-8601
▁banjo	-8602
▁bends	-8603
▁betet	-8604
▁blaug	-8605
▁bräun	-8606
▁built	-8607
▁cries	-8608
▁crown	-8609
▁ducks	-8610
▁every	-8611
▁filmt	-8612
▁first	-8613
▁flock	-8614
▁flute	-8615
▁formt	-8616
▁games	-8617
▁gespr	-8618
▁gradu	-8619
▁grasp	-8620
▁holen	-8621
▁knall	-8622
▁knien	-8623
▁kunst	-8624
▁ließt	-8625
▁lobby	-8626
▁mixer	-8627
▁murky	-8628
▁nächt	-8629
▁ponyt	-8630
▁prüft	-8631
▁purch	-8632
▁rally	-8633
▁range	-8634
▁score	-8635
▁sides	-8636
▁staff	-8637
▁stolz	-8638
▁stoop	-8639
▁stump	-8640
▁techn	-8641
▁tiled	-8642
▁tired	-8643
▁torch	-8644
▁tourn	-8645
▁tread	-8646
▁treat	-8647
▁twirl	-8648
▁vorne	-8649
▁wares	-8650
Scheibe	-8651
agieren	-8652
braunem	-8653
colored	-8654
country	-8655
ehendes	-8656
erseite	-8657
geräten	-8658
gnügung	-8659
kulptur	-8660
lestone	-8661
ongeBob	-8662
ongings	-8663
tenance	-8664
ternoon	-8665
öffnung	-8666
▁Bildes	-8667
▁Busses	-8668
▁Clowns	-8669
▁Couple	-8670
▁Disney	-8671
▁Dunkel	-8672
▁Europa	-8673
▁Female	-8674
▁Freude	-8675
▁Geschw	-8676
▁Gipfel	-8677
▁Hallen	-8678
▁Katzen	-8679
▁Kindes	-8680
▁Moment	-8681
▁Mother	-8682
▁Ozeans	-8683
▁Perlen	-8684
▁Platte	-8685
▁Schnur	-8686
▁School	-8687
▁Schuss	-8688
▁Schwer	-8689
▁Studio	-8690
▁Stöcke	-8691
▁Säulen	-8692
▁Unfall	-8693
▁Versch	-8694
▁Vögeln	-8695
▁Werfer	-8696
▁Wolken	-8697
▁albern	-8698
▁attack	-8699
▁attend	-8700
▁aufger	-8701
▁begins	-8702
▁bindet	-8703
▁cannon	-8704
▁cherry	-8705
▁drückt	-8706
▁engine	-8707
▁establ	-8708
▁fishes	-8709
▁frozen	-8710
▁füllen	-8711
▁gazing	-8712
▁harmon	-8713
▁hiding	-8714
▁inform	-8715
▁jumper	-8716
▁kratzt	-8717
▁kurzem	-8718
▁mechan	-8719
▁mischt	-8720
▁monkey	-8721
▁muskul	-8722
▁places	-8723
▁purses	-8724
▁putzen	-8725
▁really	-8726
▁rechte	-8727
▁sawing	-8728
▁selbst	-8729
▁shaggy	-8730
▁skater	-8731
▁skinny	-8732
▁spread	-8733
▁strugg	-8734
▁trains	-8735
▁trench	-8736
▁turkey	-8737
▁unique	-8738
▁walked	-8739
▁warmen	-8740
▁washes	-8741
American	-8742
Football	-8743
Oberteil	-8744
boratory	-8745
klettern	-8746
kreuzten	-8747
parcours	-8748
pielzeug	-8749
standers	-8750
wegungen	-8751
ydranten	-8752
▁Auslage	-8753
▁Bandana	-8754
▁Billard	-8755
▁Brillen	-8756
▁British	-8757
▁Camping	-8758
▁Closeup	-8759
▁Elderly	-8760
▁Gericht	-8761
▁Geräten	-8762
▁Haltung	-8763
▁Jackett	-8764
▁Pferder	-8765
▁Pflanze	-8766
▁Popcorn	-8767
▁Rennens	-8768
▁Rettung	-8769
▁Runners	-8770
▁Scheibe	-8771
▁Sooners	-8772
▁Strands	-8773
▁Theater	-8774
▁Tomaten	-8775
▁Univers	-8776
▁ansehen	-8777
▁bathtub	-8778
▁bedruck	-8779
▁besucht	-8780
▁bouquet	-8781
▁brother	-8782
▁bürstet	-8783
▁chewing	-8784
▁concent	-8785
▁dekorat	-8786
▁exhibit	-8787
▁feather	-8788
▁fischen	-8789
▁fremden	-8790
▁hochgeh	-8791
▁hydrant	-8792
▁industr	-8793
▁legerer	-8794
▁meißelt	-8795
▁napping	-8796
▁painter	-8797
▁parents	-8798
▁pathway	-8799
▁pattern	-8800
▁pillows	-8801
▁printed	-8802
▁product	-8803
▁rooftop	-8804
▁schöner	-8805
▁seagull	-8806
▁section	-8807
▁sorting	-8808
▁speaker	-8809
▁sprayed	-8810
▁tending	-8811
▁tossing	-8812
▁vending	-8813
▁watched	-8814
arterback	-8815
container	-8816
ellschaft	-8817
schriften	-8818
zeichnung	-8819
▁Anhänger	-8820
▁Eiscreme	-8821
▁Erdhügel	-8822
▁Fischern	-8823
▁Karohemd	-8824
▁Kaufhaus	-8825
▁Oklahoma	-8826
▁Overalls	-8827
▁Parcours	-8828
▁Rücksitz	-8829
▁Schlucht	-8830
▁Trommeln	-8831
▁Tänzerin	-8832
▁airborne	-8833
▁angemalt	-8834
▁athletes	-8835
▁blankets	-8836
▁casually	-8837
▁checkers	-8838
▁chopping	-8839
▁collared	-8840
▁complete	-8841
▁customer	-8842
▁dumpster	-8843
▁erklimmt	-8844
▁exercise	-8845
▁facility	-8846
▁fröhlich	-8847
▁gestikul	-8848
▁gestures	-8849
▁grabbing	-8850
▁jüngerer	-8851
▁location	-8852
▁operates	-8853
▁parallel	-8854
▁products	-8855
▁rostigen	-8856
▁shoppers	-8857
▁slightly	-8858
▁spaziert	-8859
▁speeding	-8860
▁splashed	-8861
▁suitcase	-8862
▁sunlight	-8863
▁tagsüber	-8864
▁waterski	-8865
▁workshop	-8866
enaissance	-8867
wettbewerb	-8868
▁Einkäufer	-8869
▁Gewändern	-8870
▁McDonalds	-8871
▁Obststand	-8872
▁Schachtel	-8873
▁Schüsseln	-8874
▁Starbucks	-8875
▁Windhunde	-8876
▁Zeremonie	-8877
▁Ziellinie	-8878
▁abandoned	-8879
▁afternoon	-8880
▁bartender	-8881
▁begleitet	-8882
▁beverages	-8883
▁bleachers	-8884
▁embracing	-8885
▁fountains	-8886
▁gefüllten	-8887
▁getroffen	-8888
▁groceries	-8889
▁hammering	-8890
▁highchair	-8891
▁indischer	-8892
▁kleineren	-8893
▁langärmel	-8894
▁magazines	-8895
▁möglicher	-8896
▁passersby	-8897
▁playfully	-8898
▁receiving	-8899
▁redheaded	-8900
▁schaufeln	-8901
▁schaukeln	-8902
▁schwenken	-8903
▁schwingen	-8904
▁schütteln	-8905
▁screaming	-8906
▁seltsamen	-8907
▁silhouett	-8908
▁staubigen	-8909
▁stretches	-8910
▁traveling	-8911
▁turquoise	-8912
ausstellung	-8913
ubschrauber	-8914
▁Brettspiel	-8915
▁Feldhockey	-8916
▁Fußgängern	-8917
▁Gesichtern	-8918
▁Kunstwerke	-8919
▁Luftballon	-8920
▁Passagiere	-8921
▁Pferdeschw	-8922
▁Radfahrern	-8923
▁Richtungen	-8924
▁Spielzeuge	-8925
▁Teilnehmer	-8926
▁Türöffnung	-8927
▁Vergnügung	-8928
▁abgeworfen	-8929
▁ausgezogen	-8930
▁belongings	-8931
▁bestehende	-8932
▁bystanders	-8933
▁cellphones	-8934
▁chalkboard	-8935
▁department	-8936
▁enthusiast	-8937
▁fliegenden	-8938
▁gesprungen	-8939
▁geöffneten	-8940
▁herunterge	-8941
▁laboratory	-8942
▁overweight	-8943
▁tournament	-8944
▁Ausstellung	-8945
▁Kleinkinder	-8946
▁Lieferwagen	-8947
▁Musikgruppe	-8948
▁Rasenfläche	-8949
▁Schneeanzug	-8950
▁Skateboards	-8951
▁Spiegelbild	-8952
▁Tätowierung	-8953
▁cobblestone	-8954
▁geschnitten	-8955
▁interesting	-8956
▁japanischen	-8957
▁parasailing	-8958
▁rosafarbene	-8959
▁Baseballfeld	-8960
▁Blumenmuster	-8961
▁Gegenständen	-8962
▁Inlineskates	-8963
▁Jugendlichen	-8964
▁Mannschaften	-8965
▁Reklametafel	-8966
▁Tarnkleidung	-8967
▁Unterhaltung	-8968
▁Wasserbecken	-8969
▁breakdancing	-8970
▁photographed	-8971
▁rollerblades	-8972
▁rosafarbener	-8973
▁Einkaufstüten	-8974
▁Felsvorsprung	-8975
▁Feuerwehrauto	-8976
▁Lebensmitteln	-8977
▁Schneeschuhen	-8978
▁Teenageralter	-8979
▁Treppenstufen	-8980
▁Ziegelgebäude	-8981
▁afrikanischen	-8982
▁beigefarbenen	-8983
▁braunhaariger	-8984
▁Schutzkleidung	-8985
▁Trainingsanzug	-8986
▁Wassersprenger	-8987
▁möglicherweise	-8988
▁Kopfbedeckungen	-8989
▁Vergnügungspark	-8990
▁heraushängender	-8991
▁schneebedecktes	-8992
▁x	-8993
Car	-8994
cep	-8995
frü	-8996
hte	-8997
oda	-8998
ogo	-8999
oke	-9000
oms	-9001
phy	-9002
rah	-9003
ruh	-9004
ski	-9005
sur	-9006
tra	-9007
uer	-9008
uhn	-9009
vas	-9010
yro	-9011
äte	-9012
ügt	-9013
▁Ba	-9014
▁Et	-9015
▁Gl	-9016
▁Pi	-9017
▁Sc	-9018
▁Sy	-9019
▁We	-9020
▁Wä	-9021
▁ut	-9022
▁vö	-9023
▁wa	-9024
Skat	-9025
ackt	-9026
adow	-9027
alst	-9028
appt	-9029
auna	-9030
biet	-9031
bing	-9032
dles	-9033
eled	-9034
enna	-9035
ense	-9036
enue	-9037
flip	-9038
fält	-9039
gesp	-9040
gibt	-9041
gram	-9042
hoch	-9043
icle	-9044
iety	-9045
ifts	-9046
itch	-9047
ivan	-9048
izes	-9049
kann	-9050
lern	-9051
llig	-9052
loch	-9053
lose	-9054
most	-9055
omet	-9056
onch	-9057
ongo	-9058
orte	-9059
osed	-9060
pult	-9061
rons	-9062
stab	-9063
telt	-9064
uggy	-9065
unft	-9066
unte	-9067
utes	-9068
wear	-9069
ägen	-9070
ären	-9071
äter	-9072
öser	-9073
ühlt	-9074
ützt	-9075
▁Ans	-9076
▁Bed	-9077
▁Dig	-9078
▁Dom	-9079
▁Ent	-9080
▁Ere	-9081
▁Fan	-9082
▁Fis	-9083
▁Gok	-9084
▁Hos	-9085
▁Kok	-9086
▁Män	-9087
▁Mön	-9088
▁Pre	-9089
▁Rep	-9090
▁San	-9091
▁Sen	-9092
▁Ult	-9093
▁Zyl	-9094
▁cit	-9095
▁dun	-9096
▁ess	-9097
▁icy	-9098
▁jud	-9099
▁kap	-9100
▁lip	-9101
▁mel	-9102
▁oil	-9103
▁rag	-9104
▁ros	-9105
▁shr	-9106
▁sow	-9107
▁säu	-9108
▁unh	-9109
▁wig	-9110
ahlen	-9111
amter	-9112
anken	-9113
antly	-9114
apped	-9115
aract	-9116
arbor	-9117
bbelt	-9118
blick	-9119
cular	-9120
egaph	-9121
egeln	-9122
eiler	-9123
ering	-9124
field	-9125
gaben	-9126
hunde	-9127
icans	-9128
iesch	-9129
ifier	-9130
ignis	-9131
ities	-9132
itive	-9133
kohol	-9134
lippe	-9135
lling	-9136
ltere	-9137
läuft	-9138
mitgl	-9139
ollie	-9140
onnen	-9141
ontur	-9142
ossen	-9143
oting	-9144
pferd	-9145
point	-9146
rated	-9147
regal	-9148
ridor	-9149
romat	-9150
rünen	-9151
ständ	-9152
tered	-9153
terns	-9154
ucher	-9155
uscht	-9156
works	-9157
ämmen	-9158
▁Arch	-9159
▁Bege	-9160
▁Body	-9161
▁Eier	-9162
▁Fang	-9163
▁Farm	-9164
▁Form	-9165
▁Garn	-9166
▁Gest	-9167
▁Gurt	-9168
▁Guys	-9169
▁Halb	-9170
▁Hier	-9171
▁Ital	-9172
▁Kilt	-9173
▁Kont	-9174
▁Live	-9175
▁Marm	-9176
▁Nike	-9177
▁Pult	-9178
▁Rast	-9179
▁Rode	-9180
▁Rohr	-9181
▁Shop	-9182
▁Side	-9183
▁Somm	-9184
▁Säge	-9185
▁bast	-9186
▁bell	-9187
▁bowt	-9188
▁bump	-9189
▁cage	-9190
▁cash	-9191
▁chin	-9192
▁choc	-9193
▁dive	-9194
▁einf	-9195
▁erre	-9196
▁erst	-9197
▁fell	-9198
▁here	-9199
▁hübs	-9200
▁kilt	-9201
▁lack	-9202
▁lead	-9203
▁lean	-9204
▁lips	-9205
▁mail	-9206
▁menu	-9207
▁mini	-9208
▁miss	-9209
▁mäht	-9210
▁pads	-9211
▁pock	-9212
▁pust	-9213
▁quad	-9214
▁riot	-9215
▁sees	-9216
▁slic	-9217
▁soll	-9218
▁spin	-9219
▁styl	-9220
▁stür	-9221
▁tail	-9222
▁tape	-9223
▁tarp	-9224
▁teal	-9225
▁test	-9226
▁than	-9227
▁thre	-9228
▁unus	-9229
▁vibr	-9230
▁vide	-9231
▁ware	-9232
▁wett	-9233
▁ziel	-9234
▁zomb	-9235
arbiet	-9236
athlet	-9237
ations	-9238
blader	-9239
bällen	-9240
enschn	-9241
erness	-9242
fernen	-9243
feuert	-9244
führer	-9245
gegend	-9246
gelber	-9247
geschä	-9248
gestür	-9249
gnügen	-9250
ielder	-9251
inchen	-9252
iniert	-9253
iolett	-9254
karren	-9255
karten	-9256
körben	-9257
leimer	-9258
mittag	-9259
perspe	-9260
putzer	-9261
rahmen	-9262
rochen	-9263
schuhe	-9264
schutz	-9265
storte	-9266
strauß	-9267
teilen	-9268
trikot	-9269
ucking	-9270
usband	-9271
usehen	-9272
wander	-9273
weißes	-9274
ärlich	-9275
▁Board	-9276
▁Busch	-9277
▁Fahrg	-9278
▁Gehst	-9279
▁Gemüs	-9280
▁Green	-9281
▁Grünf	-9282
▁Gummi	-9283
▁Halst	-9284
▁Khaki	-9285
▁Kugel	-9286
▁Obama	-9287
▁Osten	-9288
▁Palme	-9289
▁Power	-9290
▁Profi	-9291
▁Schaf	-9292
▁Schok	-9293
▁Spitz	-9294
▁Sprüh	-9295
▁Stern	-9296
▁Tages	-9297
▁Taube	-9298
▁Teddy	-9299
▁Truth	-9300
▁Ufers	-9301
▁Wäsch	-9302
▁Ziege	-9303
▁akust	-9304
▁await	-9305
▁award	-9306
▁beten	-9307
▁brass	-9308
▁campf	-9309
▁cooks	-9310
▁crack	-9311
▁crops	-9312
▁darin	-9313
▁denkt	-9314
▁desks	-9315
▁diese	-9316
▁dirig	-9317
▁easel	-9318
▁falls	-9319
▁furry	-9320
▁gazes	-9321
▁hills	-9322
▁hohem	-9323
▁hoher	-9324
▁holid	-9325
▁human	-9326
▁lasso	-9327
▁maneu	-9328
▁mount	-9329
▁neong	-9330
▁olymp	-9331
▁opens	-9332
▁overs	-9333
▁pilot	-9334
▁pours	-9335
▁rifle	-9336
▁ruhig	-9337
▁rührt	-9338
▁saugt	-9339
▁scoop	-9340
▁separ	-9341
▁shawl	-9342
▁skies	-9343
▁smoot	-9344
▁speak	-9345
▁spins	-9346
▁späht	-9347
▁squee	-9348
▁stops	-9349
▁stuck	-9350
▁stößt	-9351
▁teens	-9352
▁tooth	-9353
▁venue	-9354
▁wineg	-9355
▁übers	-9356
▁überw	-9357
Zeichen	-9358
ational	-9359
bathing	-9360
erinnen	-9361
farbige	-9362
galerie	-9363
gematte	-9364
gestrei	-9365
iercing	-9366
iletten	-9367
ishment	-9368
leidung	-9369
mercial	-9370
striped	-9371
unehmen	-9372
vention	-9373
verkehr	-9374
viertel	-9375
▁Adults	-9376
▁Anzahl	-9377
▁Athlet	-9378
▁Booten	-9379
▁Bootes	-9380
▁Bruder	-9381
▁Custom	-9382
▁Domino	-9383
▁Eimern	-9384
▁Erzeug	-9385
▁Fackel	-9386
▁Fangen	-9387
▁Fliege	-9388
▁Frisur	-9389
▁Gleich	-9390
▁Gürtel	-9391
▁Handys	-9392
▁Hosent	-9393
▁Hunder	-9394
▁Island	-9395
▁Können	-9396
▁Körben	-9397
▁Lampen	-9398
▁Leucht	-9399
▁Mickey	-9400
▁Muslim	-9401
▁Pfeife	-9402
▁Schieß	-9403
▁Speise	-9404
▁Stofft	-9405
▁Waffen	-9406
▁Weißer	-9407
▁Wetter	-9408
▁Worker	-9409
▁Ziegen	-9410
▁almost	-9411
▁aprons	-9412
▁babies	-9413
▁battle	-9414
▁beanie	-9415
▁beschn	-9416
▁boards	-9417
▁bundle	-9418
▁buried	-9419
▁canvas	-9420
▁casino	-9421
▁collie	-9422
▁contra	-9423
▁conven	-9424
▁folded	-9425
▁freien	-9426
▁grinds	-9427
▁harbor	-9428
▁hervor	-9429
▁hinweg	-9430
▁images	-9431
▁jumped	-9432
▁khakis	-9433
▁kisses	-9434
▁klaren	-9435
▁lernen	-9436
▁lifted	-9437
▁lively	-9438
▁looked	-9439
▁marble	-9440
▁meadow	-9441
▁medium	-9442
▁nurses	-9443
▁parent	-9444
▁pencil	-9445
▁placed	-9446
▁poodle	-9447
▁potato	-9448
▁retrie	-9449
▁rustic	-9450
▁scenic	-9451
▁schmet	-9452
▁seicht	-9453
▁shades	-9454
▁single	-9455
▁skatet	-9456
▁skills	-9457
▁snacks	-9458
▁sprüht	-9459
▁squats	-9460
▁steile	-9461
▁stürzt	-9462
▁tackle	-9463
▁temple	-9464
▁thumbs	-9465
▁tights	-9466
▁treadm	-9467
▁trüben	-9468
▁typing	-9469
▁umpire	-9470
▁verlet	-9471
▁vorder	-9472
▁weight	-9473
▁whilst	-9474
▁wilden	-9475
▁xyloph	-9476
▁öffnen	-9477
aracters	-9478
bewegung	-9479
bewohner	-9480
einfahrt	-9481
flaschen	-9482
gebracht	-9483
gehenden	-9484
genommen	-9485
isterung	-9486
oberteil	-9487
schungel	-9488
struktur	-9489
zeichnet	-9490
▁Asphalt	-9491
▁Bananen	-9492
▁Barkeep	-9493
▁Draußen	-9494
▁Eastern	-9495
▁Elektro	-9496
▁Flügeln	-9497
▁Kartoff	-9498
▁Laptops	-9499
▁Mexican	-9500
▁Nummern	-9501
▁Platten	-9502
▁Players	-9503
▁Produkt	-9504
▁Rikscha	-9505
▁Schneem	-9506
▁Schneid	-9507
▁Staubsa	-9508
▁Stiefel	-9509
▁Strumpf	-9510
▁Tribüne	-9511
▁Vendors	-9512
▁Wasserf	-9513
▁Wildnis	-9514
▁adjusts	-9515
▁amongst	-9516
▁artwork	-9517
▁bananas	-9518
▁beating	-9519
▁bleiben	-9520
▁brushes	-9521
▁carrier	-9522
▁catcher	-9523
▁chinese	-9524
▁classic	-9525
▁cleaner	-9526
▁columns	-9527
▁complet	-9528
▁couples	-9529
▁designs	-9530
▁filming	-9531
▁forward	-9532
▁gathers	-9533
▁gesehen	-9534
▁hammock	-9535
▁highway	-9536
▁injured	-9537
▁jüngere	-9538
▁leotard	-9539
▁licking	-9540
▁muzzled	-9541
▁process	-9542
▁quickly	-9543
▁richten	-9544
▁scarves	-9545
▁schwebt	-9546
▁schwere	-9547
▁service	-9548
▁signing	-9549
▁skaters	-9550
▁special	-9551
▁stehend	-9552
▁stripes	-9553
▁trottet	-9554
▁umgedre	-9555
▁unglück	-9556
▁unhappy	-9557
▁verschw	-9558
▁zuhause	-9559
▁zurecht	-9560
▁überall	-9561
arbietung	-9562
ebebalken	-9563
wettkampf	-9564
▁Brunette	-9565
▁Eiswagen	-9566
▁Ereignis	-9567
▁Esstisch	-9568
▁Fenstern	-9569
▁Forscher	-9570
▁Friedens	-9571
▁Getreide	-9572
▁Gitarren	-9573
▁Laufband	-9574
▁Leinwand	-9575
▁Numerous	-9576
▁Olympics	-9577
▁Pizzeria	-9578
▁Schleife	-9579
▁Schürzen	-9580
▁Stabhoch	-9581
▁Telefonz	-9582
▁Ultimate	-9583
▁Wachmann	-9584
▁Wartungs	-9585
▁Zylinder	-9586
▁accompan	-9587
▁aussehen	-9588
▁campfire	-9589
▁circular	-9590
▁communic	-9591
▁creating	-9592
▁darkened	-9593
▁dinosaur	-9594
▁downhill	-9595
▁faulenzt	-9596
▁forested	-9597
▁gefallen	-9598
▁gefangen	-9599
▁gefroren	-9600
▁hardwood	-9601
▁hübschen	-9602
▁krabbelt	-9603
▁lachende	-9604
▁pflanzen	-9605
▁portrait	-9606
▁raincoat	-9607
▁roadside	-9608
▁schlecht	-9609
▁schleift	-9610
▁schnappt	-9611
▁sideways	-9612
▁sniffing	-9613
▁sortiert	-9614
▁spritzen	-9615
▁strecken	-9616
▁tackling	-9617
▁toddlers	-9618
▁trotting	-9619
▁verteilt	-9620
▁watermel	-9621
gestellten	-9622
gestürzten	-9623
rennfahrer	-9624
▁Customers	-9625
▁Dschungel	-9626
▁Fahrzeugs	-9627
▁Flugzeugs	-9628
▁Fotograph	-9629
▁Halskette	-9630
▁Holzboden	-9631
▁Kaninchen	-9632
▁Mülleimer	-9633
▁Sandhügel	-9634
▁Spazierst	-9635
▁SpongeBob	-9636
▁Steinbank	-9637
▁Toiletten	-9638
▁Warnweste	-9639
▁Wassermel	-9640
▁Wassersch	-9641
▁Wintertag	-9642
▁anzusehen	-9643
▁bestellen	-9644
▁chocolate	-9645
▁condition	-9646
▁earphones	-9647
▁entfernen	-9648
▁erhobenen	-9649
▁faulenzen	-9650
▁formeller	-9651
▁liegenden	-9652
▁marinebla	-9653
▁niedrigen	-9654
▁recording	-9655
▁skydiving	-9656
▁spotlight	-9657
▁strolling	-9658
▁swimsuits	-9659
▁teilweise	-9660
▁umzäunten	-9661
▁vergnügen	-9662
▁warehouse	-9663
▁wrestlers	-9664
Bahnstation	-9665
perspektive	-9666
▁Baumstumpf	-9667
▁Dunkelheit	-9668
▁Experiment	-9669
▁Felsklippe	-9670
▁Fischmarkt	-9671
▁Grünfläche	-9672
▁Handschuhe	-9673
▁Hängematte	-9674
▁Regenbogen	-9675
▁Schlagmann	-9676
▁Schwimmflü	-9677
▁Sporthalle	-9678
▁Supermarkt	-9679
▁Tanzfläche	-9680
▁angezogene	-9681
▁attraktive	-9682
▁characters	-9683
▁commercial	-9684
▁displaying	-9685
▁experiment	-9686
▁greyhounds	-9687
▁muskulöser	-9688
▁reflection	-9689
▁suspenders	-9690
▁vorbeigeht	-9691
▁wilderness	-9692
instrumenten	-9693
lasterstraße	-9694
▁Fischernetz	-9695
▁Hockeyspiel	-9696
▁Kajakfahrer	-9697
▁Regenmantel	-9698
▁Seifenblase	-9699
▁Spielsachen	-9700
▁Straßenfest	-9701
▁Strickmütze	-9702
▁Verschieden	-9703
▁Vorderseite	-9704
▁chinesische	-9705
▁gestreifter	-9706
▁hellhäutige	-9707
▁leuchtenden	-9708
▁mountainous	-9709
▁rothaariger	-9710
▁schlafendes	-9711
▁schlammigen	-9712
▁silhouetted	-9713
▁waterskiing	-9714
▁Begeisterung	-9715
▁Firefighters	-9716
▁Hinterbeinen	-9717
▁Kunstgalerie	-9718
▁Metallstange	-9719
▁Neugeborenes	-9720
▁Scheinwerfer	-9721
▁Schlauchboot	-9722
▁Wasserfläche	-9723
▁ausgestreckt	-9724
▁crosscountry	-9725
▁erleuchteten	-9726
▁festgebunden	-9727
▁gestikuliert	-9728
▁mehrfarbigen	-9729
▁orientalisch	-9730
▁synchronized	-9731
▁Demonstranten	-9732
▁Felsformation	-9733
▁Kampfsportler	-9734
▁Müllcontainer	-9735
▁Schwebebalken	-9736
▁Verkaufsstand	-9737
▁Zeitschriften	-9738
▁establishment	-9739
▁transportiert	-9740
▁Hochzeitskleid	-9741
▁orientalischer	-9742
▁schwarzhaarige	-9743
▁silberfarbenen	-9744
▁transportation	-9745
▁ungewöhnlichen	-9746
▁Straßenarbeiter	-9747
Ar	-9748
BH	-9749
IN	-9750
MS	-9751
ON	-9752
Un	-9753
ds	-9754
mx	-9755
no	-9756
va	-9757
yo	-9758
Aid	-9759
Hut	-9760
Rad	-9761
aha	-9762
asm	-9763
asz	-9764
aze	-9765
azz	-9766
fol	-9767
ieh	-9768
inj	-9769
iqu	-9770
kle	-9771
lab	-9772
lad	-9773
mar	-9774
mat	-9775
nte	-9776
oca	-9777
oid	-9778
onn	-9779
ove	-9780
ppe	-9781
pur	-9782
ret	-9783
rät	-9784
sol	-9785
tle	-9786
uds	-9787
ulk	-9788
upe	-9789
upt	-9790
ura	-9791
ury	-9792
war	-9793
zor	-9794
zuf	-9795
ämm	-9796
äng	-9797
ärb	-9798
üge	-9799
▁Fu	-9800
▁Pe	-9801
▁av	-9802
▁ei	-9803
▁je	-9804
▁pf	-9805
▁sü	-9806
Park	-9807
Renn	-9808
Schw	-9809
ably	-9810
achi	-9811
ahre	-9812
alie	-9813
anzt	-9814
apes	-9815
aran	-9816
atic	-9817
avor	-9818
axis	-9819
brer	-9820
cast	-9821
elei	-9822
erie	-9823
ford	-9824
gert	-9825
grau	-9826
grün	-9827
haft	-9828
hole	-9829
häus	-9830
iefs	-9831
iest	-9832
ietn	-9833
inke	-9834
isha	-9835
ison	-9836
läuf	-9837
nequ	-9838
nett	-9839
oggy	-9840
oliz	-9841
orgt	-9842
pipe	-9843
ppen	-9844
pper	-9845
ragt	-9846
rate	-9847
raur	-9848
rett	-9849
rick	-9850
robe	-9851
rohr	-9852
rümp	-9853
seat	-9854
ston	-9855
uchs	-9856
ulle	-9857
upft	-9858
vest	-9859
wart	-9860
wohl	-9861
zone	-9862
öhle	-9863
ügel	-9864
▁Bas	-9865
▁Com	-9866
▁Cow	-9867
▁Dan	-9868
▁Des	-9869
▁Gap	-9870
▁Ich	-9871
▁Jew	-9872
▁Kid	-9873
▁Kit	-9874
▁Kom	-9875
▁Lou	-9876
▁Mac	-9877
▁Mag	-9878
▁Pak	-9879
▁Run	-9880
▁Toy	-9881
▁Wal	-9882
▁Wet	-9883
▁Wii	-9884
▁Wir	-9885
▁Yam	-9886
▁Zit	-9887
▁anc	-9888
▁any	-9889
▁asc	-9890
▁bib	-9891
▁dah	-9892
▁dol	-9893
▁fat	-9894
▁fed	-9895
▁gek	-9896
▁hid	-9897
▁int	-9898
▁joy	-9899
▁kom	-9900
▁leb	-9901
▁mex	-9902
▁mis	-9903
▁occ	-9904
▁our	-9905
▁paw	-9906
▁pay	-9907
▁prä	-9908
▁pub	-9909
▁rav	-9910
▁rem	-9911
▁tap	-9912
▁umk	-9913
▁unf	-9914
▁vio	-9915
▁wel	-9916
▁wol	-9917
▁wür	-9918
▁zuh	-9919
altet	-9920
anien	-9921
anion	-9922
annel	-9923
apier	-9924
arger	-9925
asino	-9926
ately	-9927
aters	-9928
attel	-9929
bikes	-9930
bälle	-9931
chnik	-9932
eanss	-9933
ember	-9934
ettel	-9935
▁	-9936
e	-9937
n	-9938
i	-9939
a	-9940
r	-9941
t	-9942
s	-9943
o	-9944
l	-9945
h	-9946
d	-9947
u	-9948
g	-9949
m	-9950
c	-9951
.	-9952
w	-9953
b	-9954
p	-9955
f	-9956
k	-9957
A	-9958
E	-9959
y	-9960
M	-9961
ä	-9962
z	-9963
S	-9964
v	-9965
F	-9966
T	-9967
,	-9968
H	-9969
B	-9970
ü	-9971
K	-9972
ß	-9973
G	-9974
P	-9975
Z	-9976
j	-9977
W	-9978
D	-9979
-	-9980
J	-9981
L	-9982
R	-9983
x	-9984
O	-9985
ö	-9986
V	-9987
C	-9988
N	-9989
U	-9990
I	-9991
q	-9992
'	-9993
Y	-9994
